<unk>	0
<s>	0
</s>	0
▁t	-0
he	-1
▁a	-2
in	-3
▁the	-4
er	-5
on	-6
▁,	-7
re	-8
▁s	-9
ed	-10
▁o	-11
▁w	-12
nd	-13
at	-14
▁.	-15
or	-16
it	-17
▁c	-18
en	-19
▁f	-20
is	-21
es	-22
ar	-23
▁of	-24
▁b	-25
an	-26
▁in	-27
al	-28
ing	-29
▁p	-30
▁and	-31
as	-32
▁to	-33
ro	-34
ic	-35
▁m	-36
▁d	-37
▁h	-38
ion	-39
le	-40
ou	-41
▁T	-42
▁re	-43
▁=	-44
▁"	-45
▁A	-46
▁S	-47
ent	-48
il	-49
▁th	-50
▁1	-51
st	-52
▁C	-53
el	-54
om	-55
▁l	-56
am	-57
▁e	-58
▁n	-59
▁@	-60
ad	-61
ac	-62
▁was	-63
▁M	-64
ur	-65
▁The	-66
ec	-67
▁on	-68
ly	-69
▁B	-70
▁I	-71
▁g	-72
▁'	-73
et	-74
ol	-75
id	-76
iv	-77
im	-78
▁for	-79
ir	-80
-@	-81
▁@-@	-82
ig	-83
ot	-84
ter	-85
▁as	-86
▁H	-87
us	-88
ow	-89
▁st	-90
ut	-91
ith	-92
ay	-93
▁2	-94
▁P	-95
ation	-96
ver	-97
▁be	-98
her	-99
▁that	-100
▁with	-101
▁R	-102
ce	-103
th	-104
▁D	-105
▁is	-106
un	-107
em	-108
▁F	-109
▁wh	-110
ul	-111
▁by	-112
▁al	-113
ch	-114
▁)	-115
▁(	-116
▁W	-117
▁con	-118
ra	-119
▁G	-120
os	-121
▁L	-122
▁N	-123
▁at	-124
ers	-125
ct	-126
▁it	-127
▁19	-128
rom	-129
and	-130
▁an	-131
um	-132
est	-133
▁J	-134
ag	-135
▁he	-136
00	-137
ist	-138
ain	-139
od	-140
av	-141
ri	-142
▁E	-143
▁O	-144
▁from	-145
▁com	-146
▁his	-147
op	-148
▁pro	-149
res	-150
ies	-151
if	-152
▁v	-153
ort	-154
ere	-155
ill	-156
ld	-157
▁de	-158
pp	-159
▁su	-160
ore	-161
▁In	-162
▁r	-163
▁se	-164
▁were	-165
ew	-166
ong	-167
igh	-168
ard	-169
ate	-170
all	-171
art	-172
ak	-173
ich	-174
▁ch	-175
▁or	-176
ab	-177
ant	-178
ud	-179
oc	-180
ber	-181
▁ex	-182
gh	-183
ity	-184
ated	-185
pt	-186
ess	-187
ear	-188
▁K	-189
▁pl	-190
ame	-191
qu	-192
ive	-193
rou	-194
▁are	-195
▁sh	-196
▁k	-197
ack	-198
ect	-199
▁U	-200
▁had	-201
se	-202
▁which	-203
red	-204
ov	-205
▁St	-206
ast	-207
▁sp	-208
ian	-209
▁y	-210
ment	-211
▁le	-212
▁not	-213
ge	-214
ord	-215
rit	-216
ip	-217
ine	-218
ell	-219
ally	-220
our	-221
ost	-222
ight	-223
ther	-224
ap	-225
▁u	-226
ish	-227
▁Ch	-228
oun	-229
ia	-230
▁3	-231
ave	-232
ary	-233
ust	-234
og	-235
▁200	-236
▁un	-237
ous	-238
irst	-239
▁V	-240
cc	-241
▁inc	-242
▁;	-243
▁comp	-244
ru	-245
ions	-246
▁their	-247
▁but	-248
ide	-249
ure	-250
so	-251
▁cont	-252
▁int	-253
fter	-254
ical	-255
ial	-256
▁ar	-257
▁first	-258
ould	-259
▁its	-260
hed	-261
▁–	-262
▁whe	-263
wo	-264
out	-265
ub	-266
▁20	-267
ff	-268
▁:	-269
ue	-270
▁her	-271
own	-272
ok	-273
▁also	-274
▁cl	-275
per	-276
ign	-277
ater	-278
ran	-279
orm	-280
ie	-281
ome	-282
ass	-283
ork	-284
ire	-285
end	-286
▁res	-287
▁ab	-288
▁ad	-289
▁us	-290
ry	-291
▁rec	-292
▁have	-293
age	-294
▁He	-295
▁4	-296
▁ro	-297
mer	-298
▁one	-299
ond	-300
low	-301
▁has	-302
▁Th	-303
du	-304
▁5	-305
▁per	-306
▁been	-307
ime	-308
▁two	-309
ence	-310
land	-311
▁18	-312
.@	-313
▁@.@	-314
ult	-315
ree	-316
ough	-317
ile	-318
▁who	-319
▁Al	-320
▁sc	-321
uring	-322
pl	-323
ory	-324
ition	-325
ric	-326
ations	-327
▁dis	-328
▁this	-329
▁bec	-330
▁app	-331
iz	-332
▁It	-333
are	-334
ach	-335
lud	-336
ade	-337
▁play	-338
▁j	-339
▁man	-340
act	-341
ely	-342
▁part	-343
▁des	-344
▁ag	-345
▁they	-346
▁year	-347
ount	-348
▁201	-349
▁over	-350
▁other	-351
ound	-352
▁after	-353
ib	-354
over	-355
▁ser	-356
▁en	-357
▁off	-358
▁im	-359
ction	-360
▁Y	-361
ke	-362
ite	-363
,@	-364
▁@,@	-365
te	-366
urn	-367
▁includ	-368
ress	-369
ance	-370
ang	-371
▁att	-372
ice	-373
ace	-374
ark	-375
▁out	-376
wn	-377
ph	-378
ember	-379
▁pre	-380
▁up	-381
ens	-382
man	-383
▁ev	-384
▁time	-385
nder	-386
rough	-387
ced	-388
▁fin	-389
▁into	-390
one	-391
port	-392
round	-393
we	-394
ren	-395
les	-396
int	-397
▁On	-398
vel	-399
▁comm	-400
▁she	-401
ason	-402
amp	-403
▁te	-404
▁would	-405
ward	-406
▁more	-407
▁6	-408
ied	-409
ose	-410
rib	-411
▁Un	-412
▁all	-413
ings	-414
tern	-415
ces	-416
able	-417
▁we	-418
ited	-419
ever	-420
ents	-421
▁him	-422
ased	-423
ors	-424
oy	-425
ood	-426
▁cent	-427
ix	-428
ase	-429
ild	-430
▁An	-431
▁7	-432
▁work	-433
ates	-434
ious	-435
ath	-436
▁po	-437
rop	-438
old	-439
als	-440
iss	-441
ey	-442
ict	-443
▁fe	-444
▁them	-445
gan	-446
▁sec	-447
▁bet	-448
▁when	-449
▁song	-450
▁rem	-451
ep	-452
form	-453
ail	-454
fer	-455
▁ear	-456
ubl	-457
aw	-458
▁kn	-459
ake	-460
aus	-461
▁most	-462
▁cons	-463
▁during	-464
▁As	-465
orth	-466
▁new	-467
ered	-468
ilm	-469
ved	-470
att	-471
▁only	-472
▁9	-473
▁dec	-474
▁8	-475
ick	-476
▁game	-477
ons	-478
ug	-479
▁tr	-480
ft	-481
oth	-482
ook	-483
▁Mar	-484
reat	-485
way	-486
▁can	-487
ollow	-488
outh	-489
ween	-490
▁En	-491
▁199	-492
ters	-493
▁rel	-494
ind	-495
▁about	-496
▁season	-497
▁again	-498
ral	-499
▁three	-500
ational	-501
▁under	-502
ular	-503
▁me	-504
▁than	-505
▁Com	-506
▁Ar	-507
hip	-508
ob	-509
▁ne	-510
▁between	-511
▁fl	-512
hn	-513
ve	-514
▁char	-515
▁col	-516
▁record	-517
iew	-518
ron	-519
fore	-520
▁through	-521
ision	-522
orn	-523
▁00	-524
ock	-525
▁ver	-526
▁num	-527
▁later	-528
▁end	-529
olog	-530
ames	-531
▁pos	-532
▁writ	-533
▁produ	-534
▁while	-535
▁act	-536
▁rele	-537
▁film	-538
ished	-539
▁pr	-540
ans	-541
▁reg	-542
▁form	-543
▁ass	-544
▁Se	-545
ury	-546
ted	-547
ts	-548
▁made	-549
▁sub	-550
▁pe	-551
▁so	-552
orld	-553
▁ret	-554
▁New	-555
▁spec	-556
▁acc	-557
▁qu	-558
▁where	-559
ener	-560
▁mov	-561
hes	-562
meric	-563
▁Le	-564
ating	-565
▁inter	-566
▁Americ	-567
▁ra	-568
▁some	-569
▁co	-570
▁lar	-571
▁bu	-572
▁def	-573
bum	-574
▁ac	-575
▁mus	-576
▁follow	-577
▁At	-578
ins	-579
ived	-580
ific	-581
ual	-582
▁am	-583
▁such	-584
▁second	-585
ike	-586
▁four	-587
▁ind	-588
ann	-589
hen	-590
▁used	-591
▁Re	-592
ics	-593
lect	-594
▁day	-595
iel	-596
ily	-597
▁This	-598
▁0	-599
▁publ	-600
▁Jo	-601
▁call	-602
ll	-603
▁album	-604
▁000	-605
rans	-606
▁do	-607
any	-608
▁before	-609
ros	-610
▁Sh	-611
▁sy	-612
aid	-613
▁Eng	-614
▁being	-615
▁10	-616
uc	-617
▁ep	-618
▁supp	-619
▁there	-620
▁years	-621
ars	-622
owever	-623
▁ent	-624
ife	-625
▁high	-626
▁found	-627
ird	-628
▁no	-629
▁set	-630
ines	-631
iver	-632
io	-633
other	-634
ject	-635
▁sur	-636
aj	-637
ten	-638
▁tra	-639
▁12	-640
ised	-641
ities	-642
velop	-643
ale	-644
▁bl	-645
▁series	-646
▁loc	-647
▁number	-648
▁pres	-649
ane	-650
ause	-651
ode	-652
ek	-653
ton	-654
▁Sc	-655
ier	-656
ise	-657
▁sever	-658
ince	-659
▁both	-660
ank	-661
row	-662
irect	-663
son	-664
▁Brit	-665
▁then	-666
iet	-667
▁16	-668
▁epis	-669
▁including	-670
its	-671
igin	-672
▁/	-673
pr	-674
▁against	-675
▁well	-676
▁became	-677
▁exp	-678
▁known	-679
▁trans	-680
▁charac	-681
▁—	-682
ram	-683
▁add	-684
▁back	-685
▁go	-686
▁pop	-687
urch	-688
▁desc	-689
ield	-690
▁sing	-691
▁perform	-692
ained	-693
ident	-694
▁rece	-695
▁em	-696
ert	-697
ures	-698
▁dep	-699
▁inv	-700
▁198	-701
air	-702
ern	-703
ather	-704
▁Z	-705
ful	-706
▁mon	-707
▁many	-708
▁main	-709
▁stud	-710
▁long	-711
inn	-712
though	-713
up	-714
ool	-715
▁United	-716
led	-717
ement	-718
▁15	-719
ower	-720
▁John	-721
▁op	-722
▁11	-723
ined	-724
▁met	-725
ober	-726
ley	-727
▁17	-728
▁century	-729
▁team	-730
▁est	-731
▁After	-732
yl	-733
▁min	-734
uch	-735
ute	-736
▁develop	-737
▁She	-738
iam	-739
▁show	-740
elf	-741
▁rep	-742
▁conc	-743
ative	-744
▁cre	-745
overn	-746
ared	-747
▁194	-748
▁origin	-749
▁sm	-750
ivers	-751
az	-752
▁lead	-753
▁several	-754
ah	-755
▁ob	-756
▁rev	-757
▁mill	-758
erm	-759
ually	-760
oot	-761
▁began	-762
▁196	-763
ired	-764
▁dif	-765
▁contin	-766
▁sign	-767
ik	-768
▁Ind	-769
ments	-770
ized	-771
▁197	-772
▁direct	-773
au	-774
ross	-775
▁ext	-776
emb	-777
der	-778
▁pol	-779
▁may	-780
apt	-781
els	-782
▁Wh	-783
▁comple	-784
▁art	-785
▁Br	-786
▁Is	-787
une	-788
til	-789
▁crit	-790
▁hist	-791
▁early	-792
▁could	-793
▁Con	-794
▁did	-795
▁bel	-796
▁called	-797
ued	-798
▁near	-799
▁episode	-800
yp	-801
▁describ	-802
imes	-803
roup	-804
▁bro	-805
ople	-806
▁run	-807
▁down	-808
aking	-809
▁disc	-810
▁along	-811
ccess	-812
▁May	-813
▁feat	-814
▁inst	-815
▁American	-816
▁said	-817
▁dist	-818
▁imp	-819
▁inf	-820
ink	-821
▁ins	-822
ty	-823
▁mil	-824
▁these	-825
enn	-826
▁Ger	-827
ium	-828
gest	-829
ven	-830
▁Bl	-831
▁Aust	-832
▁resp	-833
ull	-834
ruct	-835
ured	-836
▁though	-837
ove	-838
▁ship	-839
▁oper	-840
▁British	-841
▁prev	-842
▁until	-843
itt	-844
amed	-845
cept	-846
▁car	-847
▁start	-848
▁city	-849
▁gener	-850
▁same	-851
ains	-852
▁War	-853
ists	-854
ided	-855
ially	-856
▁released	-857
▁land	-858
ism	-859
▁Car	-860
▁any	-861
▁own	-862
▁war	-863
▁prov	-864
▁return	-865
▁air	-866
▁They	-867
xt	-868
erson	-869
oman	-870
▁music	-871
▁km	-872
ajor	-873
▁design	-874
▁Pl	-875
ible	-876
osed	-877
▁sim	-878
▁const	-879
▁appear	-880
▁million	-881
▁because	-882
ash	-883
▁fam	-884
▁mat	-885
▁use	-886
▁area	-887
▁13	-888
▁Aug	-889
▁Chr	-890
▁August	-891
▁ph	-892
▁occ	-893
▁open	-894
▁like	-895
ony	-896
▁success	-897
ole	-898
ouse	-899
erv	-900
▁count	-901
oss	-902
▁pass	-903
▁eff	-904
▁people	-905
my	-906
chool	-907
und	-908
▁Sp	-909
stem	-910
▁Cl	-911
▁offic	-912
ets	-913
uth	-914
▁six	-915
ange	-916
ues	-917
▁195	-918
▁support	-919
▁around	-920
▁small	-921
▁Col	-922
▁Sept	-923
▁However	-924
▁dam	-925
▁%	-926
▁adv	-927
▁mod	-928
▁Ju	-929
▁ele	-930
▁north	-931
ales	-932
▁head	-933
ient	-934
▁group	-935
▁govern	-936
raph	-937
▁character	-938
▁br	-939
▁gr	-940
▁ed	-941
▁each	-942
▁point	-943
▁September	-944
▁Ad	-945
wards	-946
▁consid	-947
ution	-948
▁De	-949
▁German	-950
▁following	-951
▁World	-952
▁life	-953
▁gu	-954
▁Comm	-955
▁All	-956
▁Austral	-957
anc	-958
▁ann	-959
▁contro	-960
ural	-961
▁var	-962
▁five	-963
ys	-964
▁US	-965
▁Her	-966
▁attack	-967
ged	-968
▁193	-969
ording	-970
▁result	-971
▁will	-972
ina	-973
ck	-974
▁Q	-975
▁ever	-976
▁Eu	-977
▁191	-978
▁Pro	-979
▁large	-980
▁II	-981
▁Me	-982
lish	-983
▁North	-984
ling	-985
▁book	-986
▁report	-987
ont	-988
ague	-989
▁Fran	-990
ble	-991
▁For	-992
ox	-993
aced	-994
hel	-995
▁June	-996
▁tit	-997
ended	-998
dom	-999
ilt	-1000
ives	-1001
▁14	-1002
ats	-1003
▁prom	-1004
eb	-1005
med	-1006
▁week	-1007
ately	-1008
aving	-1009
ored	-1010
▁str	-1011
▁Jan	-1012
▁since	-1013
▁States	-1014
▁final	-1015
▁major	-1016
ax	-1017
▁south	-1018
▁received	-1019
▁South	-1020
ivision	-1021
▁Gu	-1022
▁name	-1023
▁partic	-1024
ery	-1025
▁hel	-1026
ology	-1027
ption	-1028
▁Christ	-1029
▁Oct	-1030
▁care	-1031
▁public	-1032
..	-1033
▁rest	-1034
▁system	-1035
ected	-1036
▁Be	-1037
ility	-1038
ting	-1039
▁King	-1040
▁state	-1041
▁batt	-1042
ae	-1043
▁what	-1044
ages	-1045
uary	-1046
rand	-1047
▁last	-1048
▁described	-1049
▁October	-1050
▁line	-1051
▁class	-1052
▁$	-1053
▁...	-1054
▁det	-1055
raft	-1056
iving	-1057
▁Nov	-1058
▁played	-1059
▁prot	-1060
▁incre	-1061
aur	-1062
ropical	-1063
▁mar	-1064
▁now	-1065
ified	-1066
▁took	-1067
aim	-1068
▁Par	-1069
ional	-1070
get	-1071
ants	-1072
rote	-1073
ody	-1074
▁[	-1075
▁]	-1076
ively	-1077
▁York	-1078
▁build	-1079
▁world	-1080
▁Dec	-1081
▁late	-1082
yc	-1083
▁25	-1084
▁July	-1085
▁wrote	-1086
empt	-1087
ball	-1088
by	-1089
esp	-1090
▁Europ	-1091
ret	-1092
▁won	-1093
app	-1094
ideo	-1095
▁species	-1096
sion	-1097
ians	-1098
▁child	-1099
omet	-1100
iod	-1101
▁Can	-1102
▁conf	-1103
▁much	-1104
▁port	-1105
▁During	-1106
▁serv	-1107
▁camp	-1108
ection	-1109
▁ref	-1110
ech	-1111
▁due	-1112
▁short	-1113
arn	-1114
▁allow	-1115
▁single	-1116
pril	-1117
▁April	-1118
▁differ	-1119
▁just	-1120
▁death	-1121
ically	-1122
ract	-1123
▁star	-1124
▁sl	-1125
▁gun	-1126
ission	-1127
omin	-1128
▁Mc	-1129
ital	-1130
▁And	-1131
▁another	-1132
▁included	-1133
▁Mus	-1134
▁poss	-1135
ai	-1136
▁old	-1137
▁tri	-1138
ham	-1139
▁Ge	-1140
▁storm	-1141
▁vis	-1142
▁January	-1143
▁30	-1144
▁even	-1145
▁left	-1146
▁list	-1147
▁par	-1148
▁within	-1149
▁England	-1150
ple	-1151
▁prog	-1152
▁appro	-1153
ger	-1154
ops	-1155
itions	-1156
▁named	-1157
▁based	-1158
▁estab	-1159
inc	-1160
▁if	-1161
▁although	-1162
▁attempt	-1163
▁top	-1164
ilar	-1165
▁very	-1166
▁track	-1167
▁belie	-1168
ards	-1169
▁bre	-1170
▁third	-1171
▁hum	-1172
▁March	-1173
▁water	-1174
ene	-1175
▁games	-1176
▁organ	-1177
orp	-1178
ched	-1179
▁beg	-1180
ently	-1181
▁power	-1182
▁event	-1183
▁family	-1184
▁previous	-1185
▁school	-1186
ms	-1187
urric	-1188
▁best	-1189
ulation	-1190
▁November	-1191
ances	-1192
▁period	-1193
▁review	-1194
▁His	-1195
▁way	-1196
▁men	-1197
aster	-1198
▁expl	-1199
▁home	-1200
▁Europe	-1201
que	-1202
▁fur	-1203
▁government	-1204
▁typ	-1205
▁By	-1206
▁Ph	-1207
▁192	-1208
ience	-1209
▁turn	-1210
▁December	-1211
let	-1212
▁cap	-1213
ature	-1214
▁those	-1215
▁hand	-1216
avy	-1217
▁There	-1218
▁place	-1219
ached	-1220
▁med	-1221
hest	-1222
▁City	-1223
▁story	-1224
aged	-1225
oint	-1226
▁built	-1227
amb	-1228
eder	-1229
▁great	-1230
▁dr	-1231
ense	-1232
ences	-1233
▁person	-1234
iven	-1235
▁command	-1236
▁100	-1237
▁kill	-1238
oci	-1239
▁Fl	-1240
▁When	-1241
▁month	-1242
elt	-1243
itary	-1244
▁sent	-1245
▁opp	-1246
▁make	-1247
▁original	-1248
iversity	-1249
oad	-1250
▁hal	-1251
▁requ	-1252
ves	-1253
▁Pr	-1254
ides	-1255
▁eng	-1256
▁National	-1257
gy	-1258
▁2009	-1259
ention	-1260
▁Or	-1261
ness	-1262
▁2010	-1263
▁auth	-1264
▁video	-1265
▁2008	-1266
bs	-1267
▁ant	-1268
ison	-1269
▁dem	-1270
▁sug	-1271
▁mark	-1272
ruction	-1273
akes	-1274
▁present	-1275
line	-1276
▁leg	-1277
▁club	-1278
▁Man	-1279
rench	-1280
▁River	-1281
ival	-1282
▁view	-1283
▁Bro	-1284
riend	-1285
oard	-1286
▁repl	-1287
ograph	-1288
▁capt	-1289
alk	-1290
▁still	-1291
▁local	-1292
▁moved	-1293
▁stand	-1294
eng	-1295
▁led	-1296
▁role	-1297
ott	-1298
aining	-1299
ler	-1300
aken	-1301
▁came	-1302
▁term	-1303
▁iss	-1304
▁dest	-1305
ung	-1306
ories	-1307
idge	-1308
side	-1309
mp	-1310
▁dra	-1311
▁often	-1312
▁common	-1313
urricane	-1314
▁history	-1315
▁addition	-1316
▁caus	-1317
lev	-1318
sh	-1319
▁Comp	-1320
atter	-1321
▁No	-1322
▁trad	-1323
rew	-1324
▁few	-1325
▁We	-1326
▁Char	-1327
▁suggest	-1328
lu	-1329
▁Ab	-1330
read	-1331
ister	-1332
▁2007	-1333
▁next	-1334
▁effect	-1335
▁considered	-1336
▁One	-1337
▁bas	-1338
▁deb	-1339
▁player	-1340
ior	-1341
▁mid	-1342
▁cour	-1343
astern	-1344
▁Tr	-1345
▁help	-1346
▁English	-1347
ead	-1348
▁exper	-1349
uted	-1350
▁French	-1351
▁career	-1352
▁side	-1353
▁similar	-1354
▁recorded	-1355
ays	-1356
▁Batt	-1357
▁right	-1358
▁X	-1359
▁win	-1360
▁init	-1361
▁import	-1362
▁Acc	-1363
▁real	-1364
self	-1365
▁Rec	-1366
▁claim	-1367
▁arch	-1368
▁cover	-1369
▁company	-1370
be	-1371
ining	-1372
▁town	-1373
▁published	-1374
▁sold	-1375
▁continued	-1376
▁exc	-1377
▁refer	-1378
▁wind	-1379
▁different	-1380
▁you	-1381
▁take	-1382
▁without	-1383
ternational	-1384
▁songs	-1385
▁With	-1386
yn	-1387
▁Per	-1388
▁tot	-1389
▁Port	-1390
▁road	-1391
▁21	-1392
▁polit	-1393
▁former	-1394
▁tw	-1395
▁Bar	-1396
▁tem	-1397
▁held	-1398
▁Te	-1399
ches	-1400
▁memb	-1401
▁among	-1402
▁level	-1403
▁el	-1404
▁Will	-1405
ning	-1406
▁mag	-1407
▁field	-1408
par	-1409
▁elect	-1410
ner	-1411
iment	-1412
▁av	-1413
uss	-1414
itar	-1415
▁del	-1416
▁prop	-1417
inning	-1418
▁written	-1419
iter	-1420
resent	-1421
▁every	-1422
▁Am	-1423
▁State	-1424
estern	-1425
▁23	-1426
▁Ear	-1427
▁half	-1428
▁commun	-1429
lear	-1430
yle	-1431
ampions	-1432
▁Division	-1433
▁2011	-1434
▁release	-1435
ried	-1436
▁further	-1437
ots	-1438
▁become	-1439
▁2006	-1440
▁west	-1441
ensive	-1442
▁According	-1443
enc	-1444
▁cr	-1445
rodu	-1446
▁church	-1447
▁strong	-1448
▁Although	-1449
▁days	-1450
▁fore	-1451
▁however	-1452
roy	-1453
▁find	-1454
▁Canad	-1455
ices	-1456
▁cur	-1457
▁east	-1458
ising	-1459
▁Count	-1460
▁version	-1461
augh	-1462
▁beh	-1463
▁spe	-1464
▁foot	-1465
▁particular	-1466
ering	-1467
▁&	-1468
ize	-1469
▁my	-1470
ebru	-1471
▁low	-1472
▁Church	-1473
▁prof	-1474
▁Gener	-1475
▁title	-1476
▁compet	-1477
▁position	-1478
▁24	-1479
▁West	-1480
▁military	-1481
▁conv	-1482
▁Roman	-1483
▁author	-1484
▁22	-1485
▁26	-1486
▁appe	-1487
reen	-1488
▁order	-1489
▁League	-1490
outher	-1491
ront	-1492
▁sol	-1493
ittle	-1494
outhern	-1495
▁control	-1496
aces	-1497
▁Song	-1498
▁times	-1499
▁Af	-1500
▁band	-1501
▁Febru	-1502
▁February	-1503
pped	-1504
▁fre	-1505
▁less	-1506
ylan	-1507
▁Geor	-1508
▁defe	-1509
▁gave	-1510
▁vict	-1511
▁project	-1512
osp	-1513
▁Ass	-1514
▁!	-1515
▁Dylan	-1516
▁chang	-1517
▁members	-1518
▁reported	-1519
▁nort	-1520
rick	-1521
▁Park	-1522
▁nov	-1523
▁produced	-1524
▁stat	-1525
▁total	-1526
levision	-1527
arm	-1528
isc	-1529
eter	-1530
hern	-1531
▁2012	-1532
▁Old	-1533
aying	-1534
iety	-1535
▁arr	-1536
▁cult	-1537
▁popular	-1538
esc	-1539
oung	-1540
▁ter	-1541
ailed	-1542
▁fire	-1543
▁production	-1544
urs	-1545
apan	-1546
▁obs	-1547
hem	-1548
▁28	-1549
▁Pol	-1550
▁Sim	-1551
▁tropical	-1552
ression	-1553
▁post	-1554
▁Ste	-1555
▁critic	-1556
▁forces	-1557
▁Ha	-1558
ford	-1559
▁Japan	-1560
▁children	-1561
▁histor	-1562
ush	-1563
▁Ed	-1564
▁pat	-1565
▁having	-1566
▁include	-1567
ald	-1568
echn	-1569
ours	-1570
ring	-1571
▁surv	-1572
▁influ	-1573
▁invol	-1574
alion	-1575
ne	-1576
▁sk	-1577
rent	-1578
▁lost	-1579
▁Su	-1580
atic	-1581
▁aff	-1582
▁given	-1583
▁country	-1584
▁want	-1585
ably	-1586
▁represent	-1587
work	-1588
▁El	-1589
▁signific	-1590
omen	-1591
▁Dav	-1592
▁Cent	-1593
▁manag	-1594
ope	-1595
ploy	-1596
▁General	-1597
vers	-1598
▁equ	-1599
▁2013	-1600
▁press	-1601
ges	-1602
▁Miss	-1603
▁comb	-1604
▁eight	-1605
ades	-1606
reet	-1607
▁sit	-1608
▁seen	-1609
▁site	-1610
irc	-1611
▁program	-1612
sp	-1613
ones	-1614
oon	-1615
▁Afric	-1616
▁match	-1617
▁never	-1618
▁making	-1619
▁fem	-1620
ration	-1621
▁establ	-1622
▁stated	-1623
ither	-1624
▁body	-1625
▁plan	-1626
▁ord	-1627
▁fact	-1628
▁read	-1629
▁should	-1630
▁While	-1631
▁Ev	-1632
sequ	-1633
▁50	-1634
▁returned	-1635
fic	-1636
ator	-1637
▁University	-1638
ological	-1639
▁ft	-1640
▁soc	-1641
aun	-1642
▁er	-1643
▁190	-1644
▁sound	-1645
ape	-1646
rem	-1647
▁how	-1648
▁Ne	-1649
▁gen	-1650
▁These	-1651
▁island	-1652
▁America	-1653
▁cou	-1654
▁earl	-1655
▁ships	-1656
▁announ	-1657
▁struct	-1658
▁established	-1659
ampionship	-1660
▁god	-1661
▁Jack	-1662
▁chart	-1663
▁ground	-1664
▁population	-1665
aff	-1666
▁jo	-1667
ream	-1668
▁cat	-1669
▁div	-1670
▁reached	-1671
▁27	-1672
ground	-1673
na	-1674
view	-1675
▁Ire	-1676
▁light	-1677
▁noted	-1678
ki	-1679
aul	-1680
▁away	-1681
▁Black	-1682
▁friend	-1683
▁Ireland	-1684
ille	-1685
used	-1686
igade	-1687
ument	-1688
ffic	-1689
ination	-1690
ese	-1691
oll	-1692
▁Reg	-1693
▁lim	-1694
▁across	-1695
▁thought	-1696
▁developed	-1697
▁throughout	-1698
iec	-1699
▁Lond	-1700
▁Mich	-1701
▁seven	-1702
aint	-1703
ords	-1704
▁cast	-1705
▁somet	-1706
▁gl	-1707
ster	-1708
▁proc	-1709
▁London	-1710
▁William	-1711
▁pra	-1712
▁rad	-1713
▁introdu	-1714
af	-1715
▁good	-1716
▁Feder	-1717
▁using	-1718
▁himself	-1719
▁development	-1720
▁black	-1721
iness	-1722
omb	-1723
▁Har	-1724
▁hig	-1725
reek	-1726
▁felt	-1727
idence	-1728
▁human	-1729
▁Australia	-1730
▁significant	-1731
aren	-1732
utes	-1733
▁Air	-1734
▁ide	-1735
▁wat	-1736
▁performed	-1737
ump	-1738
▁bar	-1739
▁important	-1740
▁Gl	-1741
ivil	-1742
most	-1743
▁Atl	-1744
▁adm	-1745
itive	-1746
▁night	-1747
▁writing	-1748
▁Ex	-1749
▁Pal	-1750
▁fun	-1751
▁Rich	-1752
▁destroy	-1753
▁Mag	-1754
▁miles	-1755
▁father	-1756
▁bo	-1757
antic	-1758
▁television	-1759
▁Roy	-1760
▁various	-1761
▁interest	-1762
ief	-1763
osaur	-1764
▁areas	-1765
▁tour	-1766
▁white	-1767
imately	-1768
▁modern	-1769
▁full	-1770
ogn	-1771
rie	-1772
▁Cal	-1773
▁enc	-1774
▁ten	-1775
field	-1776
▁died	-1777
▁look	-1778
▁activ	-1779
ael	-1780
aign	-1781
▁law	-1782
▁went	-1783
▁need	-1784
▁Rober	-1785
▁tro	-1786
▁does	-1787
▁prim	-1788
▁events	-1789
▁successful	-1790
▁Road	-1791
ico	-1792
▁red	-1793
ization	-1794
▁discover	-1795
▁players	-1796
▁started	-1797
rab	-1798
▁To	-1799
▁mm	-1800
▁decl	-1801
▁James	-1802
con	-1803
reg	-1804
ript	-1805
▁see	-1806
▁ball	-1807
iting	-1808
▁feet	-1809
▁house	-1810
▁formed	-1811
ks	-1812
ourn	-1813
▁wid	-1814
▁poem	-1815
▁mix	-1816
▁range	-1817
▁techn	-1818
▁sett	-1819
▁Mount	-1820
▁County	-1821
▁performance	-1822
rest	-1823
▁put	-1824
▁vill	-1825
▁style	-1826
▁building	-1827
▁relations	-1828
abor	-1829
▁age	-1830
▁sum	-1831
▁too	-1832
▁force	-1833
▁caused	-1834
ana	-1835
▁ke	-1836
ino	-1837
epend	-1838
ara	-1839
▁You	-1840
▁Ke	-1841
alth	-1842
ublic	-1843
▁sw	-1844
ened	-1845
▁Cro	-1846
▁novel	-1847
▁pri	-1848
iers	-1849
▁189	-1850
isted	-1851
▁created	-1852
▁official	-1853
day	-1854
idd	-1855
fall	-1856
elling	-1857
▁Ang	-1858
▁Som	-1859
asing	-1860
▁2004	-1861
ym	-1862
▁pit	-1863
▁2005	-1864
▁relig	-1865
▁entire	-1866
gr	-1867
eth	-1868
▁Ol	-1869
less	-1870
▁son	-1871
ality	-1872
▁able	-1873
▁coast	-1874
▁political	-1875
ries	-1876
▁High	-1877
ressed	-1878
▁characters	-1879
▁Sec	-1880
▁ste	-1881
inal	-1882
▁Ham	-1883
▁get	-1884
▁others	-1885
▁construction	-1886
▁bird	-1887
▁cert	-1888
▁pred	-1889
▁promot	-1890
ases	-1891
▁battle	-1892
br	-1893
ways	-1894
▁Town	-1895
▁national	-1896
acy	-1897
▁occur	-1898
▁val	-1899
oming	-1900
▁’	-1901
▁Sw	-1902
▁fig	-1903
ample	-1904
play	-1905
▁lik	-1906
ament	-1907
▁Hist	-1908
▁once	-1909
ficult	-1910
▁fac	-1911
▁remained	-1912
por	-1913
▁Bra	-1914
▁Care	-1915
▁located	-1916
▁mount	-1917
▁tradition	-1918
enth	-1919
ivid	-1920
▁rock	-1921
▁works	-1922
▁scored	-1923
▁Kingdom	-1924
▁difficult	-1925
▁31	-1926
craft	-1927
▁guns	-1928
▁redu	-1929
lected	-1930
▁Island	-1931
▁produc	-1932
▁campaign	-1933
▁Cup	-1934
▁Mon	-1935
▁tre	-1936
▁meet	-1937
▁Grand	-1938
▁cross	-1939
▁stars	-1940
▁announced	-1941
▁completed	-1942
▁Australian	-1943
▁rank	-1944
▁region	-1945
ett	-1946
▁hold	-1947
orse	-1948
ounc	-1949
▁nuc	-1950
▁squ	-1951
off	-1952
itted	-1953
▁goal	-1954
▁grow	-1955
▁colle	-1956
▁super	-1957
▁Company	-1958
oid	-1959
umb	-1960
arch	-1961
ique	-1962
▁fav	-1963
▁let	-1964
▁conn	-1965
▁little	-1966
▁process	-1967
aly	-1968
omp	-1969
ray	-1970
enced	-1971
rought	-1972
▁fight	-1973
▁front	-1974
▁instead	-1975
▁Act	-1976
ky	-1977
▁29	-1978
▁circ	-1979
▁added	-1980
here	-1981
leet	-1982
▁Mor	-1983
▁cond	-1984
omm	-1985
duct	-1986
▁least	-1987
▁followed	-1988
▁Bill	-1989
▁know	-1990
▁peak	-1991
▁appeared	-1992
▁born	-1993
▁killed	-1994
angu	-1995
▁months	-1996
▁southern	-1997
▁originally	-1998
urb	-1999
oice	-2000
▁Army	-2001
▁wife	-2002
▁comment	-2003
▁stri	-2004
▁David	-2005
mar	-2006
ota	-2007
▁40	-2008
▁fif	-2009
▁loss	-2010
▁study	-2011
▁mother	-2012
ius	-2013
▁associ	-2014
▁hurricane	-2015
ects	-2016
▁cell	-2017
▁Music	-2018
▁women	-2019
ston	-2020
▁non	-2021
▁sex	-2022
antry	-2023
▁agre	-2024
▁mass	-2025
▁ident	-2026
▁eastern	-2027
▁relationship	-2028
ycl	-2029
▁aud	-2030
▁2003	-2031
▁award	-2032
▁broad	-2033
▁critics	-2034
▁185	-2035
▁anim	-2036
▁eventually	-2037
▁profess	-2038
▁features	-2039
aper	-2040
▁God	-2041
▁voc	-2042
▁2015	-2043
▁Other	-2044
▁young	-2045
olution	-2046
▁recogn	-2047
ata	-2048
gin	-2049
ully	-2050
▁bus	-2051
▁live	-2052
ements	-2053
▁France	-2054
▁aver	-2055
▁fourth	-2056
emy	-2057
▁Ser	-2058
▁estim	-2059
▁route	-2060
▁taken	-2061
cher	-2062
▁Ber	-2063
▁Two	-2064
▁served	-2065
liam	-2066
ores	-2067
istic	-2068
ask	-2069
illa	-2070
▁prote	-2071
ography	-2072
▁commer	-2073
▁appoint	-2074
ze	-2075
▁Co	-2076
chie	-2077
omes	-2078
▁lack	-2079
▁damage	-2080
▁decided	-2081
ama	-2082
unk	-2083
▁Mad	-2084
azine	-2085
igned	-2086
▁heavy	-2087
▁Im	-2088
▁cor	-2089
▁base	-2090
▁either	-2091
▁Battalion	-2092
▁arm	-2093
▁far	-2094
▁insp	-2095
iation	-2096
▁impro	-2097
▁separ	-2098
▁condom	-2099
▁proble	-2100
val	-2101
ought	-2102
▁Part	-2103
▁Robert	-2104
▁behind	-2105
▁special	-2106
ica	-2107
ecut	-2108
▁Love	-2109
▁coll	-2110
gether	-2111
▁individ	-2112
▁believed	-2113
▁together	-2114
ida	-2115
ency	-2116
▁arg	-2117
▁quar	-2118
liament	-2119
ipp	-2120
aves	-2121
▁clos	-2122
iction	-2123
ouncil	-2124
cial	-2125
rict	-2126
▁Carey	-2127
▁Royal	-2128
▁mater	-2129
▁playing	-2130
rap	-2131
▁Red	-2132
▁dou	-2133
▁burn	-2134
aching	-2135
iol	-2136
iber	-2137
▁Med	-2138
▁move	-2139
▁Du	-2140
▁bi	-2141
▁ir	-2142
▁Hen	-2143
▁Mex	-2144
▁dev	-2145
▁vol	-2146
▁close	-2147
▁creat	-2148
▁langu	-2149
▁round	-2150
▁accept	-2151
▁example	-2152
gg	-2153
▁188	-2154
▁Min	-2155
▁Some	-2156
▁almost	-2157
alt	-2158
ests	-2159
▁service	-2160
▁leading	-2161
▁European	-2162
odes	-2163
▁Rep	-2164
▁fall	-2165
▁sour	-2166
▁White	-2167
▁Federer	-2168
▁generally	-2169
▁ce	-2170
▁saw	-2171
ators	-2172
▁opened	-2173
▁towards	-2174
▁elements	-2175
eal	-2176
▁35	-2177
▁miss	-2178
uter	-2179
oring	-2180
▁weeks	-2181
▁Brigade	-2182
▁brought	-2183
▁general	-2184
ceed	-2185
▁mot	-2186
▁Game	-2187
▁Pres	-2188
▁draw	-2189
▁Wales	-2190
▁finished	-2191
▁International	-2192
▁z	-2193
stit	-2194
▁Flor	-2195
▁laun	-2196
oph	-2197
▁Kh	-2198
▁Viet	-2199
▁host	-2200
▁wall	-2201
▁highway	-2202
▁regular	-2203
▁featured	-2204
▁Ir	-2205
cast	-2206
▁central	-2207
▁aircraft	-2208
irl	-2209
ending	-2210
lement	-2211
▁indust	-2212
board	-2213
ordan	-2214
▁East	-2215
ounter	-2216
▁resear	-2217
▁reb	-2218
etwork	-2219
▁points	-2220
▁contract	-2221
eum	-2222
▁fund	-2223
▁inform	-2224
▁directed	-2225
▁-	-2226
▁Mo	-2227
▁mi	-2228
orts	-2229
▁meas	-2230
▁suff	-2231
▁action	-2232
▁director	-2233
▁provided	-2234
▁Championship	-2235
ude	-2236
▁Bo	-2237
hing	-2238
wood	-2239
▁cut	-2240
▁ren	-2241
icated	-2242
▁flood	-2243
▁Follow	-2244
▁respect	-2245
▁nar	-2246
▁mean	-2247
▁sequ	-2248
▁upon	-2249
▁Jordan	-2250
▁Gal	-2251
▁From	-2252
ential	-2253
▁appearance	-2254
ned	-2255
▁186	-2256
▁Jew	-2257
ellow	-2258
▁yard	-2259
▁earlier	-2260
sel	-2261
▁Em	-2262
▁Pe	-2263
▁ly	-2264
atin	-2265
▁Rock	-2266
▁king	-2267
▁Cr	-2268
ights	-2269
▁2014	-2270
▁cost	-2271
▁female	-2272
▁rather	-2273
▁troops	-2274
▁subsequ	-2275
▁Atlantic	-2276
tt	-2277
▁Od	-2278
medi	-2279
▁ill	-2280
▁reve	-2281
▁stru	-2282
ishing	-2283
▁current	-2284
▁Christian	-2285
▁Op	-2286
▁ve	-2287
▁Mary	-2288
▁river	-2289
▁travel	-2290
▁largest	-2291
▁victory	-2292
▁Following	-2293
ander	-2294
▁Hero	-2295
▁House	-2296
▁George	-2297
▁employ	-2298
▁manager	-2299
▁operations	-2300
▁particularly	-2301
ouri	-2302
erous	-2303
▁prob	-2304
▁achie	-2305
ule	-2306
▁fort	-2307
▁wanted	-2308
▁opening	-2309
ving	-2310
▁500	-2311
▁bur	-2312
▁cop	-2313
ength	-2314
▁northern	-2315
ids	-2316
ault	-2317
▁Mac	-2318
▁Play	-2319
▁exist	-2320
▁yards	-2321
osition	-2322
▁evidence	-2323
of	-2324
ita	-2325
▁Sl	-2326
eler	-2327
▁foc	-2328
▁Phil	-2329
▁reason	-2330
▁Florida	-2331
▁conduct	-2332
ee	-2333
ih	-2334
yd	-2335
uck	-2336
head	-2337
reng	-2338
▁Wal	-2339
▁pract	-2340
▁member	-2341
oms	-2342
vest	-2343
▁Bay	-2344
▁Wil	-2345
▁crew	-2346
anding	-2347
▁Street	-2348
▁engine	-2349
▁saying	-2350
▁allowed	-2351
▁outside	-2352
▁possible	-2353
co	-2354
west	-2355
▁Most	-2356
▁Oliv	-2357
▁Paul	-2358
atural	-2359
▁account	-2360
uel	-2361
irth	-2362
▁McC	-2363
▁mer	-2364
▁neg	-2365
▁Mark	-2366
▁past	-2367
▁stage	-2368
conom	-2369
▁whom	-2370
▁hours	-2371
▁respons	-2372
ago	-2373
ify	-2374
▁case	-2375
ington	-2376
artment	-2377
▁Missouri	-2378
▁material	-2379
bor	-2380
ills	-2381
▁2001	-2382
▁desp	-2383
▁regard	-2384
▁worked	-2385
▁But	-2386
▁gre	-2387
▁nec	-2388
▁free	-2389
▁mach	-2390
▁length	-2391
▁object	-2392
▁streng	-2393
▁territ	-2394
aps	-2395
▁Tech	-2396
▁gold	-2397
▁plann	-2398
▁working	-2399
ems	-2400
vert	-2401
▁nomin	-2402
lus	-2403
▁San	-2404
▁rul	-2405
aries	-2406
ville	-2407
▁love	-2408
▁poor	-2409
▁quick	-2410
▁designed	-2411
uk	-2412
ari	-2413
now	-2414
▁Qu	-2415
cent	-2416
▁Vir	-2417
▁football	-2418
urt	-2419
onst	-2420
▁Bus	-2421
▁hon	-2422
▁mult	-2423
▁learn	-2424
▁Indian	-2425
▁praised	-2426
▁construct	-2427
ps	-2428
▁Day	-2429
▁Tor	-2430
▁esc	-2431
▁Best	-2432
ession	-2433
▁First	-2434
▁avail	-2435
▁treat	-2436
▁forced	-2437
▁remains	-2438
▁station	-2439
ites	-2440
▁187	-2441
▁Val	-2442
iding	-2443
rated	-2444
▁1970	-2445
▁viol	-2446
▁goals	-2447
▁Michael	-2448
gypt	-2449
uation	-2450
▁think	-2451
▁winds	-2452
▁Sm	-2453
▁Squ	-2454
heast	-2455
▁diss	-2456
▁above	-2457
▁civil	-2458
▁invest	-2459
▁increased	-2460
▁£	-2461
▁Fe	-2462
hens	-2463
▁Hel	-2464
▁pers	-2465
▁Egypt	-2466
▁previously	-2467
wh	-2468
itz	-2469
ula	-2470
pper	-2471
▁Desp	-2472
▁Thom	-2473
▁soon	-2474
▁replaced	-2475
▁commercial	-2476
asion	-2477
ributed	-2478
▁Richard	-2479
BC	-2480
gl	-2481
▁Ac	-2482
▁Ag	-2483
▁Gr	-2484
▁App	-2485
▁ask	-2486
erved	-2487
▁must	-2488
▁Super	-2489
▁maint	-2490
▁business	-2491
▁interview	-2492
onc	-2493
ste	-2494
olic	-2495
▁Whe	-2496
▁pain	-2497
▁clear	-2498
ription	-2499
▁Despite	-2500
abit	-2501
▁Dep	-2502
▁Que	-2503
osing	-2504
▁Corp	-2505
▁Brown	-2506
▁writer	-2507
▁quarter	-2508
▁°	-2509
ming	-2510
▁unc	-2511
▁2000	-2512
▁Mont	-2513
▁trib	-2514
▁Henry	-2515
▁threat	-2516
AF	-2517
▁Os	-2518
ania	-2519
oney	-2520
▁mph	-2521
atory	-2522
▁units	-2523
▁Canada	-2524
▁estimated	-2525
iff	-2526
ulf	-2527
aker	-2528
▁pen	-2529
▁1990	-2530
▁court	-2531
ibility	-2532
▁Oldham	-2533
▁specific	-2534
▁36	-2535
face	-2536
▁pur	-2537
acing	-2538
▁react	-2539
▁joined	-2540
▁claimed	-2541
▁highest	-2542
▁Japanese	-2543
men	-2544
band	-2545
ching	-2546
ulated	-2547
▁Carol	-2548
▁Times	-2549
▁contr	-2550
ecutive	-2551
▁placed	-2552
▁involved	-2553
▁President	-2554
for	-2555
▁Sun	-2556
▁fly	-2557
▁priv	-2558
▁Govern	-2559
▁signed	-2560
▁western	-2561
▁suggested	-2562
leg	-2563
▁45	-2564
▁183	-2565
▁Mos	-2566
▁syn	-2567
elled	-2568
▁parts	-2569
▁My	-2570
▁Card	-2571
▁Gold	-2572
▁India	-2573
▁intens	-2574
▁Olivier	-2575
▁tru	-2576
thlet	-2577
▁hous	-2578
▁Later	-2579
▁Vietn	-2580
▁School	-2581
▁change	-2582
▁itself	-2583
▁league	-2584
▁proper	-2585
mb	-2586
anna	-2587
▁don	-2588
▁esp	-2589
▁inj	-2590
▁rap	-2591
▁Cong	-2592
▁Hall	-2593
▁shot	-2594
▁Irish	-2595
▁Mexico	-2596
▁average	-2597
ume	-2598
▁Not	-2599
▁hard	-2600
▁taking	-2601
▁available	-2602
urg	-2603
▁ey	-2604
ready	-2605
ronic	-2606
▁break	-2607
▁scene	-2608
▁except	-2609
▁brother	-2610
▁transfer	-2611
▁transport	-2612
▁introduced	-2613
▁Pac	-2614
▁hit	-2615
▁heav	-2616
▁whose	-2617
▁village	-2618
▁recording	-2619
▁Var	-2620
▁Star	-2621
▁race	-2622
▁rail	-2623
▁stop	-2624
▁wood	-2625
porary	-2626
▁Thomas	-2627
▁subject	-2628
go	-2629
rd	-2630
▁60	-2631
▁grad	-2632
▁phys	-2633
▁slow	-2634
▁approx	-2635
▁religious	-2636
▁fr	-2637
▁gra	-2638
▁mem	-2639
achel	-2640
▁educ	-2641
▁network	-2642
▁NY	-2643
▁abs	-2644
▁1960	-2645
▁nine	-2646
▁told	-2647
▁names	-2648
▁remov	-2649
▁shows	-2650
▁Britain	-2651
▁damaged	-2652
iqu	-2653
▁cru	-2654
arily	-2655
▁piec	-2656
▁test	-2657
▁Scient	-2658
▁social	-2659
▁turned	-2660
▁capital	-2661
▁Republic	-2662
▁independ	-2663
▁increasing	-2664
gu	-2665
▁Po	-2666
▁ap	-2667
enes	-2668
▁cal	-2669
▁That	-2670
▁chap	-2671
▁give	-2672
▁Great	-2673
▁lines	-2674
oration	-2675
▁Guitar	-2676
▁Hurricane	-2677
▁structure	-2678
aled	-2679
▁Ant	-2680
▁Many	-2681
▁feel	-2682
▁determ	-2683
▁nearly	-2684
▁despite	-2685
▁appointed	-2686
odies	-2687
▁Zeal	-2688
▁cycl	-2689
▁size	-2690
▁Union	-2691
▁complet	-2692
▁community	-2693
▁?	-2694
hib	-2695
▁La	-2696
ateg	-2697
rang	-2698
▁184	-2699
▁Art	-2700
▁den	-2701
▁bill	-2702
▁date	-2703
▁liter	-2704
▁econom	-2705
▁passed	-2706
▁surround	-2707
▁international	-2708
irt	-2709
oul	-2710
bert	-2711
rian	-2712
▁fut	-2713
inese	-2714
hedral	-2715
▁debut	-2716
▁might	-2717
▁occup	-2718
▁score	-2719
▁withd	-2720
ecially	-2721
osaurus	-2722
▁immedi	-2723
▁certain	-2724
▁establish	-2725
▁initially	-2726
▁Ma	-2727
lict	-2728
▁cas	-2729
▁pot	-2730
▁tow	-2731
▁Ever	-2732
▁deal	-2733
▁disp	-2734
▁going	-2735
▁archae	-2736
▁assist	-2737
▁Pacific	-2738
▁already	-2739
▁winning	-2740
▁particip	-2741
▁Early	-2742
ication	-2743
▁failed	-2744
▁states	-2745
▁Chinese	-2746
▁Zealand	-2747
ha	-2748
rag	-2749
fect	-2750
ires	-2751
▁Don	-2752
▁Jin	-2753
▁doc	-2754
▁male	-2755
▁rain	-2756
ability	-2757
▁forest	-2758
▁language	-2759
▁probably	-2760
▁training	-2761
▁according	-2762
▁especially	-2763
den	-2764
▁Dr	-2765
▁key	-2766
▁2002	-2767
▁Cath	-2768
▁Sing	-2769
▁food	-2770
▁issue	-2771
▁minor	-2772
▁depict	-2773
ification	-2774
nel	-2775
▁III	-2776
▁Law	-2777
▁Pri	-2778
▁aut	-2779
▁Film	-2780
▁daugh	-2781
▁studio	-2782
ady	-2783
▁Tom	-2784
▁Peter	-2785
▁spent	-2786
ference	-2787
▁History	-2788
▁Wheeler	-2789
▁arrived	-2790
▁forward	-2791
▁ordered	-2792
▁includes	-2793
aut	-2794
aval	-2795
ises	-2796
ship	-2797
▁Sch	-2798
stein	-2799
▁army	-2800
▁Angel	-2801
▁block	-2802
▁visit	-2803
ilities	-2804
▁Awards	-2805
▁enough	-2806
▁Canadian	-2807
▁remaining	-2808
onse	-2809
ties	-2810
▁dro	-2811
▁Navy	-2812
▁fail	-2813
▁mixed	-2814
▁sometimes	-2815
zz	-2816
lor	-2817
owl	-2818
▁UK	-2819
▁di	-2820
back	-2821
▁Soc	-2822
▁Ter	-2823
▁Rose	-2824
▁come	-2825
▁Associ	-2826
▁reviews	-2827
▁complete	-2828
▁required	-2829
▁approximately	-2830
quar	-2831
rics	-2832
▁imm	-2833
orial	-2834
ranch	-2835
▁Creek	-2836
▁lower	-2837
▁touch	-2838
▁center	-2839
▁latter	-2840
to	-2841
lymp	-2842
▁Inf	-2843
▁Mer	-2844
▁Met	-2845
▁Penn	-2846
▁Africa	-2847
▁remain	-2848
▁beginning	-2849
down	-2850
inct	-2851
▁Hol	-2852
inist	-2853
stant	-2854
▁Olymp	-2855
▁Virgin	-2856
etic	-2857
▁sem	-2858
▁Stud	-2859
▁journ	-2860
▁woman	-2861
▁limited	-2862
▁prevent	-2863
▁decision	-2864
edy	-2865
▁38	-2866
iest	-2867
rack	-2868
under	-2869
▁dead	-2870
▁happ	-2871
▁better	-2872
▁changes	-2873
▁usually	-2874
▁Regiment	-2875
▁students	-2876
▁additional	-2877
aby	-2878
▁Je	-2879
▁emb	-2880
▁Nort	-2881
▁Rout	-2882
▁stay	-2883
▁Rachel	-2884
▁running	-2885
▁response	-2886
▁president	-2887
▁sch	-2888
adron	-2889
▁Scott	-2890
▁ended	-2891
▁larger	-2892
▁concern	-2893
▁positive	-2894
gar	-2895
▁80	-2896
▁TV	-2897
erat	-2898
▁type	-2899
▁Award	-2900
▁quest	-2901
▁mention	-2902
▁magazine	-2903
▁supported	-2904
ios	-2905
uals	-2906
▁Jer	-2907
▁Fort	-2908
▁notes	-2909
▁prior	-2910
▁police	-2911
▁Charles	-2912
▁pressure	-2913
▁depression	-2914
oor	-2915
enty	-2916
reak	-2917
▁wide	-2918
▁birds	-2919
▁birth	-2920
▁compl	-2921
▁amount	-2922
▁1995	-2923
▁shown	-2924
▁related	-2925
▁Billboard	-2926
▁75	-2927
rief	-2928
▁face	-2929
uments	-2930
▁fifth	-2931
▁future	-2932
▁feature	-2933
rat	-2934
▁Hot	-2935
aring	-2936
▁1980	-2937
▁appl	-2938
▁Under	-2939
▁provide	-2940
▁defeated	-2941
ani	-2942
com	-2943
ils	-2944
arts	-2945
▁anc	-2946
▁che	-2947
▁der	-2948
▁Camp	-2949
▁Hill	-2950
▁staff	-2951
▁discovered	-2952
ifa	-2953
▁Sy	-2954
bers	-2955
▁Pat	-2956
▁Res	-2957
▁sat	-2958
▁sil	-2959
▁Oper	-2960
▁Route	-2961
▁temper	-2962
▁section	-2963
hou	-2964
ney	-2965
▁FI	-2966
▁cm	-2967
enon	-2968
▁Bel	-2969
ishop	-2970
riage	-2971
▁doll	-2972
▁Frank	-2973
▁frequ	-2974
▁Western	-2975
▁becoming	-2976
oo	-2977
gely	-2978
rael	-2979
eding	-2980
▁word	-2981
▁Colle	-2982
▁Light	-2983
key	-2984
oke	-2985
oys	-2986
▁Rh	-2987
ands	-2988
▁vot	-2989
ector	-2990
▁Arab	-2991
▁Wood	-2992
▁exam	-2993
▁smaller	-2994
uf	-2995
raw	-2996
unt	-2997
itte	-2998
▁Tur	-2999
▁flow	-3000
▁idea	-3001
idents	-3002
▁colon	-3003
▁domin	-3004
▁groups	-3005
▁screen	-3006
▁percent	-3007
▁intended	-3008
▁Scientology	-3009
asy	-3010
well	-3011
▁fir	-3012
iforn	-3013
inent	-3014
▁Year	-3015
selves	-3016
▁Haifa	-3017
▁fleet	-3018
▁radio	-3019
▁metres	-3020
▁mostly	-3021
▁conclud	-3022
▁discuss	-3023
▁themselves	-3024
▁professional	-3025
era	-3026
gen	-3027
ses	-3028
ples	-3029
anies	-3030
▁2016	-3031
▁Russ	-3032
▁Croat	-3033
▁likely	-3034
▁minutes	-3035
▁musical	-3036
▁surface	-3037
▁captured	-3038
▁referred	-3039
cean	-3040
iano	-3041
uing	-3042
▁Mil	-3043
anish	-3044
imate	-3045
▁Over	-3046
▁Since	-3047
▁office	-3048
▁largely	-3049
▁problems	-3050
▁Parliament	-3051
▁Association	-3052
ror	-3053
▁Up	-3054
rain	-3055
▁How	-3056
▁lab	-3057
▁try	-3058
▁und	-3059
▁link	-3060
▁indic	-3061
▁media	-3062
▁Portug	-3063
▁contem	-3064
▁summer	-3065
quarters	-3066
▁entered	-3067
iser	-3068
▁Nic	-3069
▁Ott	-3070
▁Sov	-3071
▁Ver	-3072
▁ens	-3073
isions	-3074
orning	-3075
▁Earth	-3076
▁makes	-3077
▁shoot	-3078
▁Israel	-3079
▁moving	-3080
▁observ	-3081
▁broadcast	-3082
▁keep	-3083
▁pair	-3084
▁self	-3085
▁Californ	-3086
▁contains	-3087
▁constructed	-3088
lex	-3089
sen	-3090
▁Bey	-3091
▁Sam	-3092
▁inn	-3093
▁sea	-3094
▁1999	-3095
▁Inter	-3096
▁money	-3097
▁voice	-3098
▁Council	-3099
▁concept	-3100
iva	-3101
ylv	-3102
ruit	-3103
▁Haw	-3104
▁Sur	-3105
▁Ross	-3106
▁adop	-3107
▁cele	-3108
veston	-3109
▁paren	-3110
▁guitar	-3111
▁nature	-3112
▁effects	-3113
▁Galveston	-3114
kan	-3115
ergy	-3116
onym	-3117
▁1950	-3118
▁Chic	-3119
▁grant	-3120
▁Jewish	-3121
▁listed	-3122
▁ranked	-3123
▁stories	-3124
▁majority	-3125
het	-3126
hester	-3127
▁create	-3128
▁consist	-3129
▁research	-3130
▁experience	-3131
ma	-3132
▁70	-3133
▁cle	-3134
▁uns	-3135
urity	-3136
▁Brad	-3137
▁meth	-3138
▁favor	-3139
▁schol	-3140
▁leaving	-3141
▁critical	-3142
▁33	-3143
aven	-3144
ously	-3145
owler	-3146
▁Mart	-3147
▁thus	-3148
▁brief	-3149
▁earth	-3150
eratops	-3151
▁script	-3152
▁primary	-3153
▁controll	-3154
oud	-3155
anks	-3156
pool	-3157
rison	-3158
▁Serv	-3159
▁deep	-3160
▁gods	-3161
▁runs	-3162
ership	-3163
▁films	-3164
▁lived	-3165
▁agreed	-3166
▁always	-3167
▁lyrics	-3168
▁Another	-3169
▁underst	-3170
▁location	-3171
▁officers	-3172
▁ri	-3173
teen	-3174
▁rare	-3175
change	-3176
atively	-3177
ospital	-3178
▁launched	-3179
▁California	-3180
dle	-3181
▁Pet	-3182
▁ded	-3183
aches	-3184
lands	-3185
order	-3186
▁prem	-3187
illery	-3188
▁teams	-3189
▁minute	-3190
▁attract	-3191
▁counter	-3192
▁culture	-3193
▁quickly	-3194
▁Catholic	-3195
▁x	-3196
awn	-3197
ras	-3198
▁If	-3199
▁Mr	-3200
▁amb	-3201
▁Fore	-3202
▁Form	-3203
▁fans	-3204
▁meant	-3205
▁Chicago	-3206
▁episodes	-3207
▁occurred	-3208
▁proposed	-3209
lo	-3210
oir	-3211
▁lo	-3212
imum	-3213
▁400	-3214
▁Saint	-3215
▁adapt	-3216
▁access	-3217
▁whether	-3218
▁assigned	-3219
▁increase	-3220
AS	-3221
umn	-3222
▁32	-3223
▁Bec	-3224
▁Tre	-3225
▁hop	-3226
▁cann	-3227
▁cred	-3228
▁dram	-3229
▁poet	-3230
▁Latin	-3231
▁forms	-3232
▁defeat	-3233
▁appears	-3234
▁changed	-3235
▁product	-3236
▁traffic	-3237
▁destroyed	-3238
iant	-3239
▁Ben	-3240
▁Nix	-3241
▁asp	-3242
▁log	-3243
▁Arch	-3244
▁tons	-3245
▁Enter	-3246
▁trade	-3247
▁Battle	-3248
▁longer	-3249
▁Central	-3250
▁meaning	-3251
▁commission	-3252
ón	-3253
mas	-3254
rol	-3255
▁Ho	-3256
oned	-3257
▁Mey	-3258
▁job	-3259
▁mom	-3260
▁ran	-3261
anced	-3262
ortun	-3263
▁1940	-3264
▁Camb	-3265
▁Scot	-3266
undred	-3267
▁Alice	-3268
▁Sever	-3269
▁bound	-3270
▁nucle	-3271
▁princ	-3272
▁theme	-3273
▁numbers	-3274
▁soldiers	-3275
▁competition	-3276
ex	-3277
▁Dj	-3278
▁Tex	-3279
▁kil	-3280
thing	-3281
▁Ital	-3282
▁acqu	-3283
▁bomb	-3284
▁girl	-3285
▁focus	-3286
▁leave	-3287
▁newsp	-3288
▁reach	-3289
▁awarded	-3290
▁carried	-3291
▁Northern	-3292
tar	-3293
▁300	-3294
▁1998	-3295
▁concert	-3296
▁private	-3297
▁consider	-3298
▁daughter	-3299
▁conducted	-3300
NA	-3301
ows	-3302
▁90	-3303
▁Tw	-3304
anas	-3305
rown	-3306
▁Jam	-3307
▁env	-3308
ening	-3309
▁Second	-3310
▁natural	-3311
▁overall	-3312
▁records	-3313
▁subsequently	-3314
▁BC	-3315
cing	-3316
imin	-3317
▁Del	-3318
▁Tra	-3319
▁deg	-3320
▁1930	-3321
▁anti	-3322
▁dism	-3323
▁emer	-3324
usband	-3325
▁Alkan	-3326
▁Liver	-3327
▁Villa	-3328
▁cause	-3329
▁plans	-3330
▁thick	-3331
▁tourn	-3332
itation	-3333
▁fighting	-3334
ga	-3335
bar	-3336
eds	-3337
lin	-3338
itor	-3339
▁box	-3340
▁lay	-3341
▁sus	-3342
▁ult	-3343
itude	-3344
▁1993	-3345
▁kind	-3346
▁rein	-3347
ective	-3348
▁graph	-3349
▁takes	-3350
▁whole	-3351
▁Polish	-3352
▁double	-3353
▁election	-3354
▁industry	-3355
▁commented	-3356
▁influence	-3357
▁+	-3358
ken	-3359
▁Tay	-3360
▁Minn	-3361
▁Tour	-3362
▁Nixon	-3363
▁asked	-3364
▁bring	-3365
▁finally	-3366
▁serious	-3367
▁Liverpool	-3368
▁Its	-3369
▁dig	-3370
▁jud	-3371
▁tar	-3372
alled	-3373
▁Georg	-3374
▁throw	-3375
▁upper	-3376
stitute	-3377
▁Somers	-3378
▁centre	-3379
▁ending	-3380
▁method	-3381
▁greater	-3382
▁compared	-3383
ny	-3384
olk	-3385
▁47	-3386
ells	-3387
▁Mal	-3388
ittee	-3389
▁Back	-3390
▁Lady	-3391
▁done	-3392
istics	-3393
itting	-3394
▁Texas	-3395
▁party	-3396
▁purch	-3397
ologist	-3398
▁accomp	-3399
▁flight	-3400
▁reject	-3401
▁unable	-3402
▁married	-3403
▁positions	-3404
II	-3405
▁39	-3406
aily	-3407
alys	-3408
ging	-3409
▁Hum	-3410
▁big	-3411
▁our	-3412
▁Foot	-3413
▁rapid	-3414
▁Mosley	-3415
▁market	-3416
▁Somerset	-3417
▁personal	-3418
▁standard	-3419
▁buildings	-3420
agon	-3421
▁Rob	-3422
▁Sol	-3423
▁got	-3424
▁yet	-3425
▁Vict	-3426
▁books	-3427
▁earned	-3428
▁Tropical	-3429
TV	-3430
▁Out	-3431
▁mor	-3432
▁1996	-3433
▁Cour	-3434
▁Tenn	-3435
▁dark	-3436
▁hero	-3437
▁phot	-3438
▁Busch	-3439
▁Three	-3440
▁begins	-3441
▁issued	-3442
▁living	-3443
▁collect	-3444
▁conflict	-3445
ada	-3446
car	-3447
ria	-3448
▁Bob	-3449
▁Fin	-3450
▁Sal	-3451
▁dom	-3452
▁mur	-3453
aught	-3454
▁Lake	-3455
▁terms	-3456
▁marked	-3457
▁directly	-3458
▁traditional	-3459
umed	-3460
▁sal	-3461
athan	-3462
house	-3463
▁aband	-3464
▁Taylor	-3465
▁health	-3466
▁scenes	-3467
▁status	-3468
▁African	-3469
▁Spanish	-3470
▁marriage	-3471
▁movement	-3472
▁Christmas	-3473
rey	-3474
bery	-3475
▁path	-3476
▁Fowler	-3477
▁figure	-3478
▁helped	-3479
▁slight	-3480
▁Command	-3481
▁Several	-3482
adm	-3483
aded	-3484
eway	-3485
itch	-3486
odon	-3487
▁Dem	-3488
▁Lou	-3489
▁pil	-3490
embly	-3491
rical	-3492
▁norm	-3493
▁Cross	-3494
▁Storm	-3495
▁sched	-3496
▁batter	-3497
▁experi	-3498
▁attacks	-3499
▁planned	-3500
▁schools	-3501
▁starting	-3502
▁suffered	-3503
▁information	-3504
anz	-3505
▁rh	-3506
bury	-3507
▁Ill	-3508
▁Nor	-3509
▁lif	-3510
▁Just	-3511
▁Soviet	-3512
▁giving	-3513
▁source	-3514
▁husband	-3515
▁Infantry	-3516
▁inspired	-3517
▁associated	-3518
▁performances	-3519
ien	-3520
cend	-3521
ibly	-3522
ounds	-3523
▁Cont	-3524
▁Jane	-3525
▁plot	-3526
▁Party	-3527
▁closed	-3528
▁transl	-3529
▁condoms	-3530
▁initial	-3531
▁machine	-3532
▁division	-3533
▁presented	-3534
imb	-3535
▁Go	-3536
atre	-3537
ican	-3538
▁Inn	-3539
▁via	-3540
▁room	-3541
tation	-3542
▁Trans	-3543
▁image	-3544
▁polic	-3545
▁Series	-3546
▁raised	-3547
▁greatest	-3548
▁presence	-3549
▁education	-3550
olf	-3551
uff	-3552
▁42	-3553
ares	-3554
erve	-3555
like	-3556
sylv	-3557
▁Six	-3558
▁Tem	-3559
▁pay	-3560
orpor	-3561
▁Cast	-3562
▁Club	-3563
▁Long	-3564
▁fell	-3565
▁susp	-3566
▁unit	-3567
▁uses	-3568
▁Paris	-3569
▁chall	-3570
ections	-3571
▁inters	-3572
▁nearby	-3573
▁hundred	-3574
▁writers	-3575
▁Carolina	-3576
▁Pennsylv	-3577
▁Virginia	-3578
▁continue	-3579
▁document	-3580
án	-3581
iami	-3582
rate	-3583
▁Ram	-3584
iated	-3585
▁Live	-3586
▁park	-3587
▁prep	-3588
▁complex	-3589
▁covered	-3590
▁cyclone	-3591
▁collection	-3592
zy	-3593
rid	-3594
essa	-3595
▁enj	-3596
imony	-3597
inner	-3598
itect	-3599
▁Acad	-3600
▁Mill	-3601
▁talk	-3602
▁weap	-3603
▁Meyer	-3604
▁Queen	-3605
▁habit	-3606
▁space	-3607
▁annual	-3608
▁conver	-3609
▁College	-3610
▁composed	-3611
▁services	-3612
iny	-3613
oncé	-3614
▁sev	-3615
ether	-3616
▁1997	-3617
▁Water	-3618
▁metal	-3619
▁bodies	-3620
▁really	-3621
▁waters	-3622
▁Beyoncé	-3623
▁figures	-3624
▁extended	-3625
▁numerous	-3626
▁producer	-3627
▁cathedral	-3628
▁commander	-3629
▁territory	-3630
een	-3631
▁Lo	-3632
anta	-3633
pted	-3634
tain	-3635
▁Dam	-3636
▁Dan	-3637
▁hot	-3638
ports	-3639
uries	-3640
▁Jose	-3641
▁Miami	-3642
▁Museum	-3643
▁things	-3644
▁vocals	-3645
▁Germany	-3646
▁proteins	-3647
▁something	-3648
▁individual	-3649
ev	-3650
ped	-3651
▁44	-3652
ipal	-3653
ricket	-3654
▁Games	-3655
▁Their	-3656
▁artist	-3657
▁financ	-3658
▁necess	-3659
▁Nations	-3660
▁investig	-3661
▁operation	-3662
apo	-3663
uit	-3664
▁Er	-3665
▁saf	-3666
▁tax	-3667
▁pick	-3668
▁Somal	-3669
estival	-3670
▁detail	-3671
▁highly	-3672
▁impact	-3673
▁Service	-3674
▁Through	-3675
▁morning	-3676
▁request	-3677
▁attacked	-3678
▁attempts	-3679
▁strength	-3680
▁companies	-3681
ado	-3682
ding	-3683
omer	-3684
pole	-3685
▁Cer	-3686
▁Gar	-3687
▁bad	-3688
▁era	-3689
adium	-3690
▁Crit	-3691
▁dise	-3692
▁symb	-3693
▁vers	-3694
admium	-3695
vement	-3696
▁speed	-3697
▁confir	-3698
ribution	-3699
▁recover	-3700
▁interact	-3701
▁artillery	-3702
▁immediately	-3703
▁Pennsylvania	-3704
▁AI	-3705
▁Li	-3706
isher	-3707
track	-3708
▁Cons	-3709
▁plat	-3710
▁purs	-3711
▁spir	-3712
atives	-3713
▁Major	-3714
▁piano	-3715
▁stone	-3716
isation	-3717
▁celebr	-3718
▁tracks	-3719
▁Jackson	-3720
▁kilomet	-3721
▁nuclear	-3722
▁removed	-3723
▁Squadron	-3724
▁allowing	-3725
▁distance	-3726
▁powerful	-3727
▁situation	-3728
hic	-3729
▁51	-3730
iple	-3731
onna	-3732
aging	-3733
andid	-3734
▁kick	-3735
▁purp	-3736
▁rate	-3737
▁blood	-3738
▁Victor	-3739
▁inside	-3740
▁intern	-3741
▁needed	-3742
▁peaked	-3743
▁search	-3744
▁secret	-3745
▁sexual	-3746
▁advance	-3747
▁friends	-3748
▁offered	-3749
▁studies	-3750
▁variety	-3751
▁Scotland	-3752
▁selected	-3753
oura	-3754
rial	-3755
▁182	-3756
▁Bet	-3757
▁Los	-3758
▁Rad	-3759
▁Sir	-3760
izing	-3761
▁1991	-3762
▁Both	-3763
▁mole	-3764
▁prec	-3765
▁stra	-3766
▁text	-3767
▁Chris	-3768
▁coach	-3769
▁means	-3770
▁copies	-3771
▁native	-3772
▁Football	-3773
▁attempted	-3774
▁countries	-3775
▁headquarters	-3776
ims	-3777
▁Land	-3778
▁Open	-3779
▁rule	-3780
▁China	-3781
▁hands	-3782
▁advant	-3783
▁casual	-3784
▁widely	-3785
▁scoring	-3786
▁responsible	-3787
▁respectively	-3788
aen	-3789
alty	-3790
hood	-3791
send	-3792
ware	-3793
▁ang	-3794
▁har	-3795
▁max	-3796
annel	-3797
▁Alex	-3798
▁sets	-3799
▁genus	-3800
▁grand	-3801
▁extrem	-3802
▁higher	-3803
▁Anderson	-3804
▁describes	-3805
▁touchdown	-3806
▁Department	-3807
▁controvers	-3808
▁appearances	-3809
hew	-3810
aped	-3811
ends	-3812
iron	-3813
▁Are	-3814
▁Off	-3815
▁1992	-3816
▁Post	-3817
▁canc	-3818
▁magn	-3819
▁Braat	-3820
▁Corps	-3821
▁lands	-3822
▁course	-3823
▁middle	-3824
▁constit	-3825
▁heavily	-3826
▁observed	-3827
MS	-3828
me	-3829
vin	-3830
rane	-3831
▁Bre	-3832
▁Nes	-3833
▁Rev	-3834
▁ess	-3835
ellig	-3836
illed	-3837
shire	-3838
▁1994	-3839
▁Time	-3840
▁seem	-3841
▁adult	-3842
▁below	-3843
▁enjoy	-3844
▁sixth	-3845
▁xenon	-3846
▁compos	-3847
▁relief	-3848
▁display	-3849
▁meeting	-3850
▁reduced	-3851
▁administ	-3852
▁37	-3853
▁48	-3854
▁76	-3855
esota	-3856
force	-3857
light	-3858
umber	-3859
▁Like	-3860
▁Midd	-3861
▁blue	-3862
▁jump	-3863
▁active	-3864
▁singer	-3865
ulations	-3866
▁matches	-3867
▁audience	-3868
▁opportun	-3869
▁resulted	-3870
▁Minnesota	-3871
▁concluded	-3872
isk	-3873
▁Cor	-3874
▁Emp	-3875
▁Pit	-3876
▁hol	-3877
akapo	-3878
inkel	-3879
rance	-3880
uated	-3881
▁Capt	-3882
▁corn	-3883
▁hour	-3884
▁true	-3885
▁wing	-3886
▁Smith	-3887
▁paper	-3888
▁shell	-3889
▁instit	-3890
▁activity	-3891
▁activities	-3892
▁completely	-3893
isl	-3894
ris	-3895
▁pu	-3896
room	-3897
utch	-3898
▁Bol	-3899
▁Jul	-3900
▁Sea	-3901
▁cer	-3902
athus	-3903
▁bene	-3904
▁Green	-3905
▁Hawai	-3906
▁Center	-3907
▁disapp	-3908
▁Italian	-3909
▁Meyerbe	-3910
▁managed	-3911
▁stating	-3912
▁Rosebery	-3913
▁Southern	-3914
▁Townsend	-3915
▁question	-3916
▁revealed	-3917
▁contemporary	-3918
ād	-3919
ift	-3920
▁Ka	-3921
▁Fur	-3922
▁Jim	-3923
ipped	-3924
▁Dist	-3925
▁drum	-3926
ounded	-3927
▁trees	-3928
▁Nicole	-3929
▁levels	-3930
ervation	-3931
▁quality	-3932
▁refused	-3933
▁declared	-3934
▁separate	-3935
▁Meyerbeer	-3936
bed	-3937
bird	-3938
rowd	-3939
▁pun	-3940
acher	-3941
▁Conf	-3942
ecting	-3943
▁Force	-3944
▁brown	-3945
▁Finkel	-3946
▁Because	-3947
▁Thunder	-3948
▁Walpole	-3949
▁approach	-3950
▁contrast	-3951
▁Finkelstein	-3952
▁Do	-3953
▁du	-3954
ingu	-3955
▁150	-3956
▁Cat	-3957
▁Yue	-3958
▁lot	-3959
estic	-3960
peror	-3961
stone	-3962
▁webs	-3963
▁Shiva	-3964
▁Tessa	-3965
▁carry	-3966
▁model	-3967
▁today	-3968
▁vocal	-3969
▁recent	-3970
▁parents	-3971
▁respond	-3972
▁featuring	-3973
▁reception	-3974
▁typically	-3975
▁background	-3976
▁historical	-3977
▁university	-3978
aha	-3979
gal	-3980
▁52	-3981
hold	-3982
road	-3983
▁Pre	-3984
▁Sar	-3985
▁pow	-3986
anger	-3987
itual	-3988
▁Blue	-3989
▁Wild	-3990
▁beat	-3991
▁chem	-3992
▁emot	-3993
▁hair	-3994
▁walk	-3995
orship	-3996
▁Charl	-3997
▁displ	-3998
▁peace	-3999
▁plays	-4000
▁vehic	-4001
▁Illino	-4002
▁issues	-4003
▁nation	-4004
▁Ottoman	-4005
▁Society	-4006
▁actions	-4007
▁expected	-4008
▁conditions	-4009
FA	-4010
ka	-4011
▁Ro	-4012
iled	-4013
ogue	-4014
ying	-4015
▁Hal	-4016
▁inh	-4017
▁roy	-4018
arent	-4019
▁Balt	-4020
▁Spec	-4021
▁rear	-4022
▁famil	-4023
▁houses	-4024
▁mainly	-4025
▁weaken	-4026
▁assault	-4027
▁becomes	-4028
▁efforts	-4029
▁attention	-4030
ype	-4031
▁34	-4032
▁Av	-4033
▁Om	-4034
ocks	-4035
▁Des	-4036
▁mel	-4037
usion	-4038
▁Adam	-4039
▁Turn	-4040
▁wear	-4041
eption	-4042
▁Court	-4043
▁Franc	-4044
▁draft	-4045
▁instr	-4046
▁offer	-4047
essions	-4048
▁specim	-4049
▁strugg	-4050
▁Highway	-4051
▁Braathens	-4052
▁residents	-4053
BA	-4054
bon	-4055
ocr	-4056
emic	-4057
oses	-4058
▁Arg	-4059
▁Tod	-4060
ufact	-4061
▁Burn	-4062
▁Hait	-4063
▁elev	-4064
▁sense	-4065
▁athlet	-4066
▁recomm	-4067
▁titles	-4068
▁calling	-4069
▁demonst	-4070
▁protein	-4071
▁actually	-4072
▁soundtrack	-4073
edo	-4074
▁sn	-4075
enge	-4076
▁Def	-4077
ledge	-4078
▁poly	-4079
onents	-4080
▁board	-4081
▁crowd	-4082
▁roles	-4083
▁thous	-4084
▁write	-4085
▁Columb	-4086
▁Little	-4087
▁altern	-4088
▁cannot	-4089
▁defend	-4090
▁struck	-4091
▁Johnson	-4092
▁seasons	-4093
▁accepted	-4094
▁achieved	-4095
▁Portugues	-4096
▁architect	-4097
▁Government	-4098
ipl	-4099
iro	-4100
ply	-4101
▁Of	-4102
anes	-4103
berg	-4104
▁Fam	-4105
▁Fey	-4106
▁Mog	-4107
▁nin	-4108
▁thr	-4109
cript	-4110
pping	-4111
▁resc	-4112
alysis	-4113
ension	-4114
utions	-4115
▁fruit	-4116
▁types	-4117
▁scient	-4118
ications	-4119
▁Vietnam	-4120
▁practice	-4121
▁Portuguese	-4122
wen	-4123
▁lb	-4124
roll	-4125
▁181	-4126
▁Add	-4127
▁Mat	-4128
▁cam	-4129
▁dyn	-4130
anded	-4131
echan	-4132
eller	-4133
▁scul	-4134
anning	-4135
▁Spain	-4136
▁avoid	-4137
▁rough	-4138
▁Secret	-4139
irection	-4140
▁Academy	-4141
▁fiction	-4142
▁distinct	-4143
▁infantry	-4144
▁sequence	-4145
▁primarily	-4146
iles	-4147
▁Fer	-4148
▁1986	-4149
▁Book	-4150
▁Tint	-4151
▁Civil	-4152
▁Group	-4153
▁Young	-4154
▁owned	-4155
▁plant	-4156
▁sales	-4157
▁Engine	-4158
▁combat	-4159
▁spread	-4160
▁twenty	-4161
▁elected	-4162
▁slightly	-4163
met	-4164
use	-4165
▁Es	-4166
▁Ann	-4167
▁suc	-4168
ograp	-4169
▁Sarn	-4170
▁Wels	-4171
▁sust	-4172
ceeded	-4173
▁Horse	-4174
▁Louis	-4175
▁extra	-4176
▁heart	-4177
▁scale	-4178
▁sport	-4179
onymous	-4180
▁Prince	-4181
▁county	-4182
▁inches	-4183
▁rights	-4184
▁sister	-4185
▁Captain	-4186
▁concent	-4187
▁affected	-4188
▁expressed	-4189
▁northeast	-4190
▁offensive	-4191
AA	-4192
ols	-4193
ora	-4194
▁180	-4195
▁Att	-4196
▁Che	-4197
▁Dou	-4198
▁Tri	-4199
▁mis	-4200
▁ple	-4201
right	-4202
ushed	-4203
▁Nesb	-4204
▁farm	-4205
▁sout	-4206
▁Welsh	-4207
▁neigh	-4208
▁words	-4209
▁Review	-4210
▁Tintin	-4211
▁showed	-4212
▁officer	-4213
▁progress	-4214
igg	-4215
▁hy	-4216
igan	-4217
mond	-4218
orus	-4219
▁Adm	-4220
▁Sil	-4221
anasi	-4222
astic	-4223
▁Manc	-4224
▁Zhou	-4225
mitted	-4226
▁Ceres	-4227
▁excav	-4228
▁Andrew	-4229
▁Empire	-4230
▁Though	-4231
▁themes	-4232
ironment	-4233
▁ability	-4234
▁Varanasi	-4235
▁combined	-4236
▁battalion	-4237
▁newspaper	-4238
ovic	-4239
rect	-4240
▁Fred	-4241
▁mess	-4242
▁qual	-4243
▁Apple	-4244
▁Odaen	-4245
▁horse	-4246
▁Commun	-4247
▁square	-4248
▁titled	-4249
▁Nesbitt	-4250
▁portray	-4251
▁cultural	-4252
▁casualties	-4253
▁49	-4254
▁ox	-4255
aine	-4256
▁Eva	-4257
▁Tru	-4258
▁Way	-4259
while	-4260
▁says	-4261
▁cerem	-4262
▁grass	-4263
▁reign	-4264
▁murder	-4265
▁remark	-4266
▁Angeles	-4267
▁ancient	-4268
▁produce	-4269
▁Illinois	-4270
▁earliest	-4271
▁mountain	-4272
▁continues	-4273
▁mentioned	-4274
▁Odaenathus	-4275
Mont	-4276
etts	-4277
inus	-4278
laim	-4279
nown	-4280
oper	-4281
osen	-4282
▁Boy	-4283
▁Cra	-4284
▁Jos	-4285
enant	-4286
ented	-4287
▁1920	-4288
▁Wash	-4289
orpedo	-4290
▁Mogad	-4291
▁actor	-4292
▁fully	-4293
▁print	-4294
▁Direct	-4295
▁DuMont	-4296
▁Sarnia	-4297
▁narrow	-4298
▁Olympic	-4299
▁Records	-4300
▁adopted	-4301
▁artists	-4302
▁disease	-4303
▁mission	-4304
▁flooding	-4305
▁manufact	-4306
▁advantage	-4307
▁resulting	-4308
▁influenced	-4309
▁authorities	-4310
▁championship	-4311
ura	-4312
▁65	-4313
▁Cap	-4314
▁spl	-4315
▁Prot	-4316
▁nest	-4317
▁wild	-4318
▁Colon	-4319
▁Perón	-4320
▁basis	-4321
▁legal	-4322
▁reports	-4323
▁represented	-4324
asc	-4325
▁NC	-4326
ella	-4327
helm	-4328
lies	-4329
mark	-4330
▁Pop	-4331
▁agg	-4332
lings	-4333
▁News	-4334
▁Week	-4335
▁bott	-4336
▁mile	-4337
▁alone	-4338
▁begin	-4339
▁exhib	-4340
▁sides	-4341
▁tower	-4342
▁Middle	-4343
▁bridge	-4344
▁candid	-4345
▁coming	-4346
▁toward	-4347
▁defense	-4348
▁letters	-4349
▁viewers	-4350
▁apparent	-4351
▁withdraw	-4352
▁Manchester	-4353
▁tournament	-4354
▁Thunderbird	-4355
bit	-4356
▁SR	-4357
ancy	-4358
writ	-4359
▁Lar	-4360
▁hun	-4361
▁rat	-4362
▁Four	-4363
▁Home	-4364
▁Horn	-4365
▁Clark	-4366
▁Ocean	-4367
▁armed	-4368
▁effort	-4369
▁illust	-4370
▁kakapo	-4371
▁yellow	-4372
▁founded	-4373
▁torpedo	-4374
▁workers	-4375
▁occasion	-4376
▁alongside	-4377
▁direction	-4378
▁northwest	-4379
▁Washington	-4380
▁relatively	-4381
ala	-4382
lam	-4383
aith	-4384
bour	-4385
iana	-4386
lers	-4387
▁Max	-4388
▁Van	-4389
▁adj	-4390
▁sac	-4391
ulate	-4392
▁1988	-4393
▁emph	-4394
▁hors	-4395
▁rang	-4396
ricult	-4397
▁tried	-4398
▁losing	-4399
▁mechan	-4400
▁cadmium	-4401
▁capture	-4402
▁contact	-4403
▁contain	-4404
▁edition	-4405
▁univers	-4406
▁attended	-4407
▁physical	-4408
▁organized	-4409
▁officially	-4410
▁individuals	-4411
▁transferred	-4412
lim	-4413
▁Hu	-4414
adel	-4415
gend	-4416
▁Sum	-4417
▁ast	-4418
abama	-4419
ental	-4420
prise	-4421
▁Mass	-4422
▁Mean	-4423
▁neut	-4424
▁Omaha	-4425
▁behav	-4426
▁Joseph	-4427
▁acting	-4428
▁perman	-4429
▁proved	-4430
▁winter	-4431
▁Alabama	-4432
▁measure	-4433
▁pattern	-4434
▁require	-4435
▁Mogadish	-4436
▁rainfall	-4437
▁dedicated	-4438
▁officials	-4439
▁surrounding	-4440
can	-4441
che	-4442
▁64	-4443
▁Bu	-4444
▁MD	-4445
inem	-4446
rong	-4447
uous	-4448
▁Arm	-4449
▁Sen	-4450
imore	-4451
▁Dest	-4452
▁Kent	-4453
▁edge	-4454
▁doing	-4455
▁feder	-4456
▁lives	-4457
▁Edward	-4458
▁couple	-4459
▁energy	-4460
ij	-4461
azz	-4462
ibr	-4463
onn	-4464
▁46	-4465
▁wa	-4466
iate	-4467
izes	-4468
▁Fant	-4469
▁Gall	-4470
▁Lord	-4471
▁folk	-4472
▁mind	-4473
itness	-4474
▁Helms	-4475
▁Innis	-4476
▁chief	-4477
▁shape	-4478
▁dissip	-4479
▁prepar	-4480
▁divided	-4481
▁follows	-4482
▁shortly	-4483
▁society	-4484
▁Independ	-4485
▁function	-4486
▁possibly	-4487
▁Mogadishu	-4488
▁Reception	-4489
▁financial	-4490
▁intensity	-4491
▁designated	-4492
RA	-4493
▁Bh	-4494
kare	-4495
▁Lis	-4496
▁eye	-4497
▁1964	-4498
▁Bowl	-4499
▁Prem	-4500
▁paid	-4501
▁repe	-4502
▁youn	-4503
▁your	-4504
▁Journ	-4505
▁faced	-4506
▁older	-4507
▁Argent	-4508
▁Histor	-4509
▁McCall	-4510
▁albums	-4511
▁border	-4512
▁images	-4513
▁legisl	-4514
▁letter	-4515
▁simply	-4516
▁Wilhelm	-4517
▁journal	-4518
▁maximum	-4519
▁sources	-4520
▁incorpor	-4521
▁determined	-4522
VD	-4523
ux	-4524
eer	-4525
ugby	-4526
wide	-4527
▁End	-4528
▁aid	-4529
aling	-4530
▁Kore	-4531
▁doub	-4532
▁kept	-4533
▁onto	-4534
▁thir	-4535
enture	-4536
inated	-4537
ipment	-4538
▁movie	-4539
▁piece	-4540
▁advert	-4541
▁broken	-4542
▁comedy	-4543
▁emphas	-4544
▁master	-4545
▁places	-4546
▁sculpt	-4547
▁portion	-4548
▁Assembly	-4549
▁potential	-4550
udd	-4551
edar	-4552
▁Jup	-4553
▁dut	-4554
▁hom	-4555
▁rom	-4556
▁frag	-4557
▁iron	-4558
▁Fleet	-4559
▁PlayS	-4560
▁royal	-4561
duction	-4562
▁argued	-4563
▁charge	-4564
▁cities	-4565
▁domestic	-4566
▁Commission	-4567
▁PlayStation	-4568
ety	-4569
▁53	-4570
▁55	-4571
▁FA	-4572
▁Kn	-4573
▁ge	-4574
agan	-4575
asty	-4576
▁Bir	-4577
▁Rih	-4578
▁Ven	-4579
▁unk	-4580
istry	-4581
▁Good	-4582
▁grew	-4583
▁roll	-4584
▁spot	-4585
▁step	-4586
isters	-4587
▁Night	-4588
▁color	-4589
▁depth	-4590
▁sites	-4591
lection	-4592
▁Common	-4593
▁Hamels	-4594
▁Valley	-4595
▁Rihanna	-4596
▁content	-4597
▁projects	-4598
▁suggests	-4599
▁Baltimore	-4600
▁authority	-4601
▁management	-4602
lys	-4603
umes	-4604
▁Sky	-4605
▁say	-4606
▁wor	-4607
▁Djed	-4608
▁Writ	-4609
▁fung	-4610
▁phil	-4611
▁sens	-4612
▁wave	-4613
▁weak	-4614
ertain	-4615
▁Greek	-4616
▁artic	-4617
▁homes	-4618
▁paint	-4619
▁share	-4620
▁twice	-4621
acement	-4622
▁Palest	-4623
▁attend	-4624
▁belong	-4625
▁depart	-4626
▁gained	-4627
▁museum	-4628
▁prison	-4629
▁target	-4630
▁causing	-4631
▁schedul	-4632
▁science	-4633
▁website	-4634
▁Constant	-4635
▁entrance	-4636
▁hospital	-4637
▁criticized	-4638
▁structures	-4639
▁ultimately	-4640
▁Ul	-4641
▁Big	-4642
▁DVD	-4643
▁Lew	-4644
▁Pen	-4645
▁hyd	-4646
▁Anth	-4647
▁fres	-4648
▁vess	-4649
rative	-4650
▁mouth	-4651
▁Forest	-4652
▁deploy	-4653
▁interp	-4654
▁Jupiter	-4655
▁debuted	-4656
▁defence	-4657
▁dismiss	-4658
▁results	-4659
▁Djedkare	-4660
▁intellig	-4661
▁formation	-4662
▁containing	-4663
gn	-4664
ya	-4665
yr	-4666
ati	-4667
rel	-4668
▁56	-4669
▁Us	-4670
▁kg	-4671
atur	-4672
▁Bur	-4673
▁Hib	-4674
orter	-4675
▁1947	-4676
▁More	-4677
▁core	-4678
▁fast	-4679
▁opin	-4680
▁tail	-4681
▁label	-4682
▁miner	-4683
▁remix	-4684
▁Torres	-4685
▁chosen	-4686
▁planet	-4687
▁battles	-4688
▁cricket	-4689
▁foreign	-4690
▁collabor	-4691
▁defensive	-4692
▁43	-4693
▁Ox	-4694
more	-4695
▁120	-4696
▁Jon	-4697
▁fix	-4698
▁pan	-4699
▁Chap	-4700
▁Lock	-4701
▁inch	-4702
▁Child	-4703
▁Short	-4704
▁enter	-4705
▁animal	-4706
▁buried	-4707
▁Eastern	-4708
▁brigade	-4709
▁granted	-4710
▁growing	-4711
▁rejected	-4712
▁security	-4713
▁standing	-4714
▁abandoned	-4715
▁prominent	-4716
▁reference	-4717
▁consecutive	-4718
▁independent	-4719
▁organization	-4720
ML	-4721
bl	-4722
then	-4723
▁Gre	-4724
▁ven	-4725
white	-4726
▁1941	-4727
▁Once	-4728
▁diam	-4729
▁doct	-4730
▁sand	-4731
▁seek	-4732
ocated	-4733
▁Field	-4734
▁cells	-4735
▁claims	-4736
▁colony	-4737
▁orders	-4738
▁temple	-4739
▁weight	-4740
ographer	-4741
▁Airport	-4742
▁student	-4743
▁visited	-4744
▁Scottish	-4745
▁condition	-4746
▁therefore	-4747
▁Applewhite	-4748
AFE	-4749
ees	-4750
mon	-4751
▁RA	-4752
▁So	-4753
airs	-4754
mosp	-4755
phia	-4756
▁BBC	-4757
▁Bon	-4758
▁Cre	-4759
▁mic	-4760
iring	-4761
▁1987	-4762
▁Norm	-4763
▁SAFE	-4764
▁risk	-4765
▁broke	-4766
▁dress	-4767
▁newly	-4768
▁spect	-4769
▁moment	-4770
adelphia	-4771
▁regions	-4772
▁seconds	-4773
▁singles	-4774
▁wounded	-4775
ao	-4776
resp	-4777
▁tur	-4778
oured	-4779
▁fear	-4780
▁solo	-4781
asters	-4782
ushing	-4783
▁ahead	-4784
▁cases	-4785
▁enemy	-4786
▁seems	-4787
▁Indust	-4788
▁height	-4789
fficient	-4790
▁Egyptian	-4791
▁reaching	-4792
▁versions	-4793
▁Institute	-4794
▁equipment	-4795
▁knowledge	-4796
▁nominated	-4797
▁Background	-4798
▁identified	-4799
▁temperature	-4800
tav	-4801
▁41	-4802
ners	-4803
▁Ban	-4804
▁Due	-4805
▁Jur	-4806
▁bud	-4807
▁tun	-4808
ading	-4809
urban	-4810
▁1972	-4811
▁1984	-4812
▁1989	-4813
▁cust	-4814
▁aired	-4815
▁males	-4816
▁Before	-4817
▁campus	-4818
▁unique	-4819
▁Croatia	-4820
▁Further	-4821
▁council	-4822
▁element	-4823
▁opposed	-4824
▁problem	-4825
▁returning	-4826
▁supporting	-4827
▁environment	-4828
Le	-4829
cy	-4830
ads	-4831
ero	-4832
mun	-4833
▁54	-4834
ette	-4835
oted	-4836
▁Kir	-4837
▁Sub	-4838
▁fox	-4839
▁tim	-4840
▁unp	-4841
ishes	-4842
▁1985	-4843
▁Carl	-4844
▁Each	-4845
▁Mike	-4846
▁fired	-4847
▁Origin	-4848
▁atmosp	-4849
▁looking	-4850
▁perfect	-4851
▁teacher	-4852
▁unknown	-4853
▁analysis	-4854
▁operated	-4855
▁scholars	-4856
▁straight	-4857
▁Entertain	-4858
▁Operation	-4859
▁literature	-4860
▁increasingly	-4861
uct	-4862
▁Id	-4863
▁Ry	-4864
▁ec	-4865
alle	-4866
ider	-4867
▁HMS	-4868
▁Kar	-4869
▁Ret	-4870
▁boy	-4871
aming	-4872
ighth	-4873
ortal	-4874
▁Swed	-4875
▁acad	-4876
▁here	-4877
stream	-4878
▁alter	-4879
▁burns	-4880
▁compr	-4881
▁defin	-4882
▁ideas	-4883
▁molec	-4884
▁Barrow	-4885
▁theory	-4886
▁writes	-4887
▁Cardiff	-4888
▁believe	-4889
▁weather	-4890
▁breeding	-4891
▁commonly	-4892
▁confirmed	-4893
▁explained	-4894
▁historian	-4895
▁settlement	-4896
eg	-4897
ato	-4898
uge	-4899
ych	-4900
▁od	-4901
▁vo	-4902
aved	-4903
▁Key	-4904
▁Mic	-4905
▁oil	-4906
▁1944	-4907
▁Even	-4908
▁Only	-4909
▁Stan	-4910
▁Vill	-4911
▁Class	-4912
▁Keats	-4913
▁Never	-4914
▁Public	-4915
▁arrest	-4916
▁strike	-4917
▁Develop	-4918
▁females	-4919
▁herself	-4920
▁singing	-4921
▁systems	-4922
▁Congress	-4923
▁Michigan	-4924
▁advanced	-4925
▁economic	-4926
▁landfall	-4927
▁property	-4928
▁stations	-4929
▁consisted	-4930
▁criticism	-4931
▁controlled	-4932
▁parliament	-4933
▁Philadelphia	-4934
hu	-4935
awa	-4936
ket	-4937
▁Gi	-4938
▁Ll	-4939
illo	-4940
weet	-4941
▁130	-4942
▁Rog	-4943
asure	-4944
▁Gord	-4945
▁Hart	-4946
▁imag	-4947
▁pict	-4948
▁semi	-4949
alions	-4950
▁exped	-4951
▁growth	-4952
▁leader	-4953
▁pieces	-4954
▁Mounted	-4955
▁deities	-4956
▁dropped	-4957
▁failure	-4958
▁Addition	-4959
▁Williams	-4960
▁creation	-4961
▁Meanwhile	-4962
▁maintained	-4963
ena	-4964
rak	-4965
▁57	-4966
▁Ap	-4967
▁Lu	-4968
hips	-4969
unic	-4970
▁Bas	-4971
▁Den	-4972
▁Leg	-4973
▁Luc	-4974
▁Ros	-4975
▁gar	-4976
▁mob	-4977
fully	-4978
inary	-4979
inity	-4980
▁Gard	-4981
▁Matt	-4982
▁fict	-4983
▁Album	-4984
▁Dutch	-4985
▁guest	-4986
▁honor	-4987
▁arrang	-4988
▁awards	-4989
▁compar	-4990
▁filmed	-4991
▁flying	-4992
▁injury	-4993
▁resemb	-4994
▁federal	-4995
▁freeway	-4996
▁killing	-4997
▁pitched	-4998
ias	-4999
▁Gh	-5000
onom	-5001
▁600	-5002
▁Abu	-5003
▁Der	-5004
▁Dis	-5005
▁Dun	-5006
▁bit	-5007
▁sen	-5008
antly	-5009
ieval	-5010
▁Andy	-5011
▁Bost	-5012
▁Jeff	-5013
▁mist	-5014
▁tact	-5015
▁task	-5016
ampion	-5017
ashion	-5018
lusion	-5019
▁Guard	-5020
▁Italy	-5021
▁Steve	-5022
▁boats	-5023
▁serve	-5024
▁speak	-5025
▁value	-5026
▁Nathan	-5027
▁belief	-5028
▁horses	-5029
▁humans	-5030
▁matter	-5031
▁actress	-5032
▁battery	-5033
▁mounted	-5034
▁rapidly	-5035
▁restaur	-5036
▁retired	-5037
▁weapons	-5038
▁Minister	-5039
▁promoted	-5040
▁religion	-5041
jo	-5042
kin	-5043
uli	-5044
▁ut	-5045
ager	-5046
alls	-5047
iced	-5048
ieut	-5049
roph	-5050
▁Ast	-5051
▁Les	-5052
▁Mod	-5053
▁bid	-5054
▁ham	-5055
ersey	-5056
▁Cold	-5057
▁bank	-5058
▁clean	-5059
▁flank	-5060
▁premi	-5061
▁column	-5062
▁cougar	-5063
▁passes	-5064
cription	-5065
▁passing	-5066
▁protest	-5067
▁selling	-5068
▁accompan	-5069
▁agricult	-5070
▁creating	-5071
▁invasion	-5072
▁multiple	-5073
▁prepared	-5074
▁Americans	-5075
▁connected	-5076
▁promotion	-5077
▁Conference	-5078
▁recognized	-5079
▁description	-5080
▁publication	-5081
▁significantly	-5082
cop	-5083
han	-5084
▁mo	-5085
fort	-5086
haps	-5087
icks	-5088
rete	-5089
▁Mem	-5090
▁Mur	-5091
▁Wat	-5092
amese	-5093
chers	-5094
▁Inst	-5095
▁Slam	-5096
▁Work	-5097
▁bats	-5098
▁data	-5099
itable	-5100
render	-5101
▁Final	-5102
▁Video	-5103
▁chose	-5104
▁walls	-5105
▁famous	-5106
▁silver	-5107
▁sought	-5108
▁starts	-5109
▁volume	-5110
▁aspects	-5111
▁deliver	-5112
▁nucleus	-5113
▁seventh	-5114
▁reaction	-5115
▁regarded	-5116
▁necessary	-5117
▁producers	-5118
▁scheduled	-5119
▁popularity	-5120
▁strengthen	-5121
ca	-5122
hi	-5123
ote	-5124
yth	-5125
▁96	-5126
load	-5127
ogen	-5128
▁Ari	-5129
lying	-5130
olved	-5131
▁1981	-5132
▁Cole	-5133
▁Gulf	-5134
▁Line	-5135
▁drop	-5136
▁laid	-5137
▁news	-5138
▁rise	-5139
▁send	-5140
▁virt	-5141
heless	-5142
▁Liber	-5143
▁beaut	-5144
▁rival	-5145
▁strik	-5146
▁philos	-5147
▁reform	-5148
▁landing	-5149
▁sustained	-5150
▁Vietnamese	-5151
hm	-5152
ips	-5153
och	-5154
uan	-5155
āda	-5156
▁Mu	-5157
▁Adv	-5158
▁Naz	-5159
▁Obs	-5160
▁Pho	-5161
▁USA	-5162
▁fat	-5163
ocked	-5164
venue	-5165
▁Sund	-5166
ifying	-5167
▁Among	-5168
▁Haven	-5169
▁dated	-5170
▁drive	-5171
▁outer	-5172
▁Cambod	-5173
▁budget	-5174
▁castle	-5175
▁fought	-5176
▁spring	-5177
standing	-5178
▁reflect	-5179
▁employed	-5180
▁families	-5181
▁currently	-5182
▁Thunderbirds	-5183
yt	-5184
add	-5185
ini	-5186
rum	-5187
hess	-5188
▁179	-5189
▁700	-5190
▁pul	-5191
▁row	-5192
ivity	-5193
onent	-5194
orney	-5195
▁1939	-5196
▁Girl	-5197
▁arms	-5198
▁ends	-5199
▁exec	-5200
▁save	-5201
▁tree	-5202
iments	-5203
insula	-5204
▁Domin	-5205
▁phase	-5206
▁trial	-5207
▁Athlet	-5208
▁Oxford	-5209
▁rating	-5210
heastern	-5211
ologists	-5212
▁contained	-5213
▁facilities	-5214
▁frequently	-5215
▁underground	-5216
▁Entertainment	-5217
TC	-5218
ii	-5219
sw	-5220
aph	-5221
rig	-5222
rog	-5223
sea	-5224
▁Ca	-5225
▁NH	-5226
▁la	-5227
thur	-5228
▁Dar	-5229
▁Ell	-5230
▁Fre	-5231
▁Han	-5232
▁arc	-5233
▁bey	-5234
▁wed	-5235
iance	-5236
lines	-5237
▁1942	-5238
▁Greg	-5239
▁dial	-5240
▁unus	-5241
borough	-5242
unction	-5243
▁Friend	-5244
▁Gordon	-5245
▁actors	-5246
▁allows	-5247
▁bottom	-5248
▁degree	-5249
▁prefer	-5250
▁simple	-5251
▁Studios	-5252
▁express	-5253
▁Festival	-5254
▁computer	-5255
▁negative	-5256
▁collected	-5257
▁executive	-5258
▁Revolution	-5259
▁contributed	-5260
sey	-5261
▁61	-5262
▁73	-5263
▁95	-5264
ayer	-5265
kins	-5266
unte	-5267
▁NBA	-5268
▁Sus	-5269
▁hor	-5270
arian	-5271
iable	-5272
ridge	-5273
▁1918	-5274
▁Chel	-5275
▁Rail	-5276
▁Step	-5277
angers	-5278
▁Coast	-5279
▁Crazy	-5280
▁cited	-5281
▁craft	-5282
▁opera	-5283
▁overl	-5284
▁Turner	-5285
▁beyond	-5286
▁shaped	-5287
▁sports	-5288
▁Between	-5289
▁Premier	-5290
▁animals	-5291
ieutenant	-5292
▁entirely	-5293
▁improved	-5294
▁effective	-5295
▁fictional	-5296
▁subsequent	-5297
ez	-5298
arp	-5299
iot	-5300
▁62	-5301
▁97	-5302
▁800	-5303
▁Alf	-5304
▁Bru	-5305
▁Rel	-5306
▁mig	-5307
▁1968	-5308
▁1969	-5309
▁Prov	-5310
▁Turk	-5311
▁boat	-5312
▁gain	-5313
▁myth	-5314
ancing	-5315
perial	-5316
▁Boise	-5317
▁Lewis	-5318
▁Mario	-5319
▁Today	-5320
▁gives	-5321
▁train	-5322
agement	-5323
mission	-5324
▁Boston	-5325
▁Martin	-5326
▁visual	-5327
▁encoura	-5328
▁finding	-5329
▁medical	-5330
▁notable	-5331
▁recently	-5332
▁extensive	-5333
▁gradually	-5334
▁kilometres	-5335
eck	-5336
isy	-5337
rot	-5338
ánh	-5339
▁UN	-5340
aret	-5341
atus	-5342
chen	-5343
rine	-5344
ules	-5345
ycle	-5346
▁Cle	-5347
▁Cub	-5348
▁Fox	-5349
▁Rod	-5350
▁egg	-5351
rence	-5352
▁1975	-5353
▁Barb	-5354
▁Bart	-5355
▁Head	-5356
▁Jain	-5357
▁Juan	-5358
▁Kang	-5359
▁bass	-5360
▁glob	-5361
▁mush	-5362
▁sail	-5363
iences	-5364
lywood	-5365
▁Crown	-5366
▁Stone	-5367
▁chair	-5368
▁dates	-5369
▁floor	-5370
▁occas	-5371
▁Bridge	-5372
▁Daniel	-5373
▁People	-5374
▁System	-5375
▁finals	-5376
▁severe	-5377
▁stages	-5378
▁survey	-5379
▁Russian	-5380
▁serving	-5381
▁antimony	-5382
▁expanded	-5383
▁programs	-5384
▁secondary	-5385
eda	-5386
eed	-5387
lee	-5388
opp	-5389
▁72	-5390
▁85	-5391
itan	-5392
outs	-5393
yson	-5394
▁Aer	-5395
▁Igu	-5396
▁bow	-5397
▁bul	-5398
▁unf	-5399
ansas	-5400
usted	-5401
▁1965	-5402
▁1974	-5403
▁Belg	-5404
▁Upon	-5405
▁chur	-5406
▁join	-5407
illing	-5408
▁Evita	-5409
▁arran	-5410
▁comes	-5411
▁finds	-5412
▁green	-5413
▁items	-5414
iations	-5415
▁exclus	-5416
ographic	-5417
▁Magazine	-5418
▁occupied	-5419
▁centuries	-5420
▁composition	-5421
set	-5422
▁81	-5423
erts	-5424
ompl	-5425
thes	-5426
uate	-5427
▁Gab	-5428
▁Jac	-5429
▁Jud	-5430
▁Men	-5431
ecess	-5432
ublin	-5433
▁Band	-5434
▁Isab	-5435
▁calc	-5436
▁sole	-5437
▁Khánh	-5438
▁MacLe	-5439
▁daily	-5440
▁faith	-5441
▁naval	-5442
▁negot	-5443
▁deaths	-5444
▁losses	-5445
▁slowly	-5446
izations	-5447
▁decades	-5448
▁Commander	-5449
▁treatment	-5450
▁experienced	-5451
▁commissioned	-5452
▁independence	-5453
▁successfully	-5454
amy	-5455
win	-5456
▁71	-5457
▁94	-5458
▁CD	-5459
▁164	-5460
▁Far	-5461
▁Liu	-5462
▁aer	-5463
▁eth	-5464
istan	-5465
▁Rome	-5466
▁cool	-5467
▁didn	-5468
▁flag	-5469
▁trip	-5470
▁Jamal	-5471
▁Songs	-5472
▁benef	-5473
▁Avenue	-5474
▁policy	-5475
▁Project	-5476
▁captain	-5477
▁engaged	-5478
▁sentence	-5479
▁personnel	-5480
▁purchased	-5481
ava	-5482
▁GA	-5483
aire	-5484
anda	-5485
anny	-5486
▁160	-5487
▁Mot	-5488
▁Rol	-5489
▁Sha	-5490
▁eas	-5491
▁1946	-5492
▁Pers	-5493
▁coal	-5494
▁Brian	-5495
▁Chart	-5496
▁Iguan	-5497
▁beach	-5498
▁begun	-5499
▁fresh	-5500
▁labor	-5501
ategory	-5502
▁Dublin	-5503
▁Temple	-5504
▁chorus	-5505
▁elimin	-5506
▁propos	-5507
▁street	-5508
▁supply	-5509
▁Science	-5510
▁accompl	-5511
▁briefly	-5512
▁nothing	-5513
▁reasons	-5514
▁District	-5515
▁Tennyson	-5516
▁concrete	-5517
▁declined	-5518
▁protagon	-5519
▁southwest	-5520
▁worldwide	-5521
▁Throughout	-5522
ela	-5523
aton	-5524
town	-5525
▁Ing	-5526
▁Mov	-5527
▁gas	-5528
▁nor	-5529
ingly	-5530
pring	-5531
uting	-5532
▁Also	-5533
▁Bull	-5534
▁Down	-5535
▁Leon	-5536
▁summ	-5537
▁Track	-5538
▁drawn	-5539
▁moves	-5540
▁roads	-5541
▁theat	-5542
iration	-5543
utation	-5544
▁Simone	-5545
▁escape	-5546
▁normal	-5547
▁leaders	-5548
▁Governor	-5549
▁incident	-5550
▁platform	-5551
▁importance	-5552
bo	-5553
▁#	-5554
erc	-5555
rug	-5556
amin	-5557
born	-5558
elli	-5559
onic	-5560
rupt	-5561
▁Jes	-5562
▁Ray	-5563
▁flu	-5564
▁pet	-5565
▁rac	-5566
quake	-5567
▁1919	-5568
▁1936	-5569
▁1952	-5570
▁1966	-5571
▁Area	-5572
▁Baby	-5573
▁Bern	-5574
▁Team	-5575
▁firm	-5576
▁isol	-5577
▁plum	-5578
▁tall	-5579
▁tend	-5580
▁unsu	-5581
ooking	-5582
▁Brook	-5583
▁Maria	-5584
▁dance	-5585
▁delay	-5586
▁guard	-5587
▁hired	-5588
▁spons	-5589
respond	-5590
▁Family	-5591
▁decade	-5592
▁senior	-5593
▁MacLeod	-5594
▁arrival	-5595
▁billion	-5596
▁chapter	-5597
▁enjoyed	-5598
▁longest	-5599
▁witness	-5600
▁paintings	-5601
▁responded	-5602
▁Production	-5603
▁foundation	-5604
▁Development	-5605
▁accompanied	-5606
▁possibility	-5607
▁participated	-5608
30	-5609
BS	-5610
ls	-5611
ía	-5612
ān	-5613
osa	-5614
rons	-5615
▁110	-5616
▁177	-5617
▁Ali	-5618
▁Dev	-5619
▁Row	-5620
▁Rox	-5621
hetic	-5622
ichol	-5623
isers	-5624
▁Five	-5625
▁Marl	-5626
▁Ulys	-5627
▁jack	-5628
▁ring	-5629
▁subs	-5630
▁vert	-5631
▁Admir	-5632
▁Board	-5633
▁Dream	-5634
▁heard	-5635
▁squad	-5636
▁stret	-5637
▁Albert	-5638
▁Chains	-5639
▁Summer	-5640
▁dollar	-5641
▁oldest	-5642
▁Ulysses	-5643
▁paralle	-5644
▁roughly	-5645
▁setting	-5646
ifications	-5647
▁agreement	-5648
▁developing	-5649
OC	-5650
oe	-5651
▁i	-5652
ano	-5653
pty	-5654
▁77	-5655
imet	-5656
▁Bor	-5657
▁Int	-5658
▁Tim	-5659
▁dog	-5660
▁emp	-5661
▁pal	-5662
chest	-5663
essed	-5664
▁1973	-5665
▁Bond	-5666
▁Wall	-5667
▁remn	-5668
▁Const	-5669
▁Dougl	-5670
▁Phill	-5671
▁calls	-5672
▁decre	-5673
▁towns	-5674
espread	-5675
▁adding	-5676
▁choice	-5677
▁lasted	-5678
▁poetry	-5679
▁symbol	-5680
▁Anthony	-5681
▁Instead	-5682
▁Turkish	-5683
▁transit	-5684
▁Francisc	-5685
▁accident	-5686
▁athletes	-5687
▁consists	-5688
▁violence	-5689
▁dominated	-5690
▁existence	-5691
▁regarding	-5692
▁technology	-5693
▁combination	-5694
▁populations	-5695
war	-5696
▁59	-5697
▁Sk	-5698
aver	-5699
come	-5700
rant	-5701
usal	-5702
▁Ode	-5703
▁ign	-5704
itors	-5705
▁1967	-5706
▁Braz	-5707
▁Conn	-5708
▁door	-5709
▁note	-5710
▁seat	-5711
▁trav	-5712
▁Carib	-5713
▁Radio	-5714
▁acres	-5715
▁altar	-5716
▁clubs	-5717
▁comic	-5718
ressive	-5719
ructure	-5720
▁Bishop	-5721
▁assass	-5722
▁fellow	-5723
▁reserv	-5724
▁submar	-5725
▁undert	-5726
▁Hornung	-5727
▁Theatre	-5728
▁applied	-5729
▁closely	-5730
▁college	-5731
▁contrib	-5732
▁filming	-5733
▁habitat	-5734
▁existing	-5735
▁weakened	-5736
▁Anonymous	-5737
▁committee	-5738
▁unsuccess	-5739
▁performing	-5740
▁association	-5741
▁competitions	-5742
isf	-5743
▁66	-5744
▁98	-5745
▁Bi	-5746
▁ps	-5747
agle	-5748
agre	-5749
vens	-5750
▁175	-5751
▁AML	-5752
iling	-5753
iston	-5754
▁1914	-5755
▁Kenn	-5756
▁Life	-5757
▁Marc	-5758
▁roof	-5759
▁trou	-5760
▁Aston	-5761
▁pilot	-5762
▁tells	-5763
▁truth	-5764
▁appeal	-5765
▁serves	-5766
▁Caribbe	-5767
▁capable	-5768
▁correct	-5769
▁derived	-5770
▁descend	-5771
▁details	-5772
▁fashion	-5773
▁greatly	-5774
▁learned	-5775
▁neither	-5776
▁perhaps	-5777
▁purpose	-5778
▁reconst	-5779
▁Mountain	-5780
▁ceremony	-5781
▁distingu	-5782
▁painting	-5783
▁provides	-5784
▁substant	-5785
▁reinforce	-5786
▁battalions	-5787
▁correspond	-5788
▁opportunity	-5789
▁occasionally	-5790
▁administration	-5791
▁archaeological	-5792
OT	-5793
ona	-5794
var	-5795
▁Oh	-5796
burg	-5797
rait	-5798
▁Hon	-5799
▁Inc	-5800
▁hyp	-5801
▁som	-5802
▁Dota	-5803
▁Stew	-5804
▁neck	-5805
▁ones	-5806
▁skin	-5807
▁sort	-5808
▁Broad	-5809
▁thing	-5810
ountain	-5811
▁Archae	-5812
▁basket	-5813
▁bought	-5814
▁editor	-5815
▁expans	-5816
▁filled	-5817
▁headed	-5818
entially	-5819
▁Chelsea	-5820
▁Douglas	-5821
▁innings	-5822
▁invited	-5823
▁churches	-5824
▁speaking	-5825
▁supposed	-5826
▁vehicles	-5827
▁Caribbean	-5828
▁encounter	-5829
▁household	-5830
▁receiving	-5831
▁storyline	-5832
▁technique	-5833
▁dissipated	-5834
▁protection	-5835
▁sufficient	-5836
GN	-5837
RE	-5838
VN	-5839
la	-5840
agn	-5841
inj	-5842
uri	-5843
▁eu	-5844
abil	-5845
iece	-5846
oral	-5847
pton	-5848
▁Det	-5849
▁ERA	-5850
▁Jay	-5851
▁Low	-5852
▁Mel	-5853
▁Vol	-5854
▁aim	-5855
▁cit	-5856
▁cra	-5857
▁hat	-5858
▁seg	-5859
idden	-5860
ropri	-5861
▁1945	-5862
▁1971	-5863
▁Asia	-5864
▁What	-5865
▁acid	-5866
▁crop	-5867
▁drew	-5868
▁evac	-5869
▁goes	-5870
▁About	-5871
▁Maeda	-5872
▁Perry	-5873
▁drama	-5874
▁Freder	-5875
▁Hibari	-5876
▁astron	-5877
▁motion	-5878
▁viewed	-5879
▁islands	-5880
▁massive	-5881
▁receive	-5882
▁stopped	-5883
▁typical	-5884
▁Cardinal	-5885
▁Georgian	-5886
▁anything	-5887
▁survived	-5888
▁southeast	-5889
▁Lieutenant	-5890
▁classified	-5891
▁widespread	-5892
▁Constantine	-5893
lik	-5894
ola	-5895
tty	-5896
▁Ré	-5897
▁Ye	-5898
apes	-5899
iege	-5900
opes	-5901
rist	-5902
ruli	-5903
▁176	-5904
▁250	-5905
▁Age	-5906
▁Hin	-5907
▁Kil	-5908
▁MTV	-5909
▁Rio	-5910
▁Run	-5911
▁cho	-5912
▁opt	-5913
▁rob	-5914
▁why	-5915
acity	-5916
anned	-5917
ilton	-5918
▁1982	-5919
▁Hard	-5920
▁Wind	-5921
▁fuel	-5922
▁load	-5923
▁soft	-5924
▁subt	-5925
glades	-5926
ibrary	-5927
ighter	-5928
iously	-5929
▁Princ	-5930
▁Qedar	-5931
▁Simon	-5932
▁initi	-5933
▁Golden	-5934
▁Romani	-5935
▁safety	-5936
▁shared	-5937
▁trying	-5938
▁Fantasy	-5939
▁authors	-5940
▁digital	-5941
▁flights	-5942
▁missing	-5943
▁acquired	-5944
▁district	-5945
▁repeated	-5946
▁settlers	-5947
▁converted	-5948
cer	-5949
vis	-5950
iful	-5951
mann	-5952
reme	-5953
rier	-5954
▁Gil	-5955
▁Moz	-5956
▁cab	-5957
▁dub	-5958
▁ice	-5959
▁lin	-5960
idges	-5961
▁1913	-5962
▁1916	-5963
▁1956	-5964
▁1976	-5965
▁Gang	-5966
▁Gram	-5967
▁Holy	-5968
▁Oslo	-5969
▁Patt	-5970
▁Surv	-5971
▁rebu	-5972
▁rich	-5973
ilding	-5974
ivered	-5975
▁Haiti	-5976
▁Jones	-5977
▁Phoen	-5978
▁Venus	-5979
▁exact	-5980
▁glass	-5981
inosaur	-5982
issance	-5983
stances	-5984
▁Brazil	-5985
▁finish	-5986
▁legend	-5987
▁routes	-5988
▁Shortly	-5989
▁Stadium	-5990
▁channel	-5991
▁focused	-5992
▁funding	-5993
▁holding	-5994
▁opinion	-5995
▁spacing	-5996
▁watched	-5997
▁wedding	-5998
▁arranged	-5999
▁baseball	-6000
▁depicted	-6001
▁planning	-6002
▁Iguanodon	-6003
▁locations	-6004
▁permanent	-6005
▁succeeded	-6006
▁atmosphere	-6007
▁experiment	-6008
▁instrument	-6009
oba	-6010
anth	-6011
▁112	-6012
▁Fel	-6013
▁Gra	-6014
▁Kat	-6015
▁Mah	-6016
▁mut	-6017
▁rif	-6018
apers	-6019
▁1943	-6020
▁Arts	-6021
▁Fire	-6022
▁Lenn	-6023
▁bowl	-6024
▁knew	-6025
▁mort	-6026
▁pack	-6027
▁rose	-6028
▁wick	-6029
▁table	-6030
▁urban	-6031
▁Allied	-6032
▁assemb	-6033
▁chance	-6034
▁overse	-6035
▁Similar	-6036
▁charter	-6037
▁creator	-6038
▁decline	-6039
▁defined	-6040
▁penalty	-6041
▁protect	-6042
▁reality	-6043
▁credited	-6044
▁resident	-6045
▁Secretary	-6046
▁providing	-6047
▁earthquake	-6048
▁revolution	-6049
LI	-6050
ét	-6051
evo	-6052
▁87	-6053
pass	-6054
▁Abb	-6055
▁Bul	-6056
▁IGN	-6057
▁rub	-6058
▁sun	-6059
▁1963	-6060
▁Hell	-6061
▁Snow	-6062
▁laws	-6063
▁tied	-6064
▁ways	-6065
▁wins	-6066
▁Gully	-6067
▁Hindu	-6068
▁Homer	-6069
▁heads	-6070
▁moder	-6071
▁pregn	-6072
uration	-6073
▁dating	-6074
▁explos	-6075
▁Chronic	-6076
▁Rangers	-6077
▁Stevens	-6078
▁airport	-6079
▁renamed	-6080
formation	-6081
▁Morrison	-6082
▁download	-6083
▁supplies	-6084
▁delivered	-6085
▁separated	-6086
▁technical	-6087
▁thousands	-6088
▁Everglades	-6089
▁Additionally	-6090
SB	-6091
gé	-6092
hat	-6093
min	-6094
ube	-6095
ador	-6096
crib	-6097
ears	-6098
okes	-6099
▁Top	-6100
▁UTC	-6101
▁dry	-6102
▁enl	-6103
▁gal	-6104
▁san	-6105
attle	-6106
▁Truj	-6107
▁eyes	-6108
▁fair	-6109
essing	-6110
ipping	-6111
issipp	-6112
▁Sound	-6113
▁rural	-6114
ivalent	-6115
▁Arthur	-6116
▁Office	-6117
▁Sunday	-6118
▁Walter	-6119
▁colour	-6120
▁courts	-6121
▁powers	-6122
▁regime	-6123
▁secure	-6124
▁select	-6125
▁surviv	-6126
▁Friends	-6127
▁emperor	-6128
▁journey	-6129
▁turning	-6130
▁Bradford	-6131
▁Columbia	-6132
▁indicate	-6133
▁teaching	-6134
▁Alexander	-6135
▁Committee	-6136
▁Hollywood	-6137
▁certified	-6138
▁commanded	-6139
▁remainder	-6140
▁Mississipp	-6141
▁assistance	-6142
▁consisting	-6143
▁opposition	-6144
▁Australians	-6145
oh	-6146
▁Pu	-6147
aked	-6148
ardo	-6149
rell	-6150
▁Cop	-6151
▁Mul	-6152
▁Ron	-6153
▁Tel	-6154
▁lit	-6155
▁lov	-6156
▁pup	-6157
▁sud	-6158
erted	-6159
opher	-6160
▁1953	-6161
▁1978	-6162
▁card	-6163
▁drug	-6164
▁harm	-6165
▁impr	-6166
estone	-6167
▁aware	-6168
▁camps	-6169
▁hydro	-6170
▁noisy	-6171
▁quite	-6172
▁turns	-6173
▁views	-6174
▁Democr	-6175
▁Marine	-6176
▁Native	-6177
▁occurs	-6178
▁valley	-6179
▁Montana	-6180
▁address	-6181
▁disturb	-6182
▁economy	-6183
▁Critical	-6184
▁Croatian	-6185
▁Director	-6186
▁Maryland	-6187
▁Trujillo	-6188
▁attached	-6189
▁highlight	-6190
▁surrender	-6191
▁references	-6192
▁establishment	-6193
▁−	-6194
dal	-6195
rin	-6196
uma	-6197
▁ML	-6198
nest	-6199
ture	-6200
▁Dom	-6201
▁Exp	-6202
▁Mid	-6203
▁Sav	-6204
▁fan	-6205
▁vic	-6206
agues	-6207
icted	-6208
ients	-6209
othes	-6210
▁Alan	-6211
▁Fish	-6212
▁Stef	-6213
▁pros	-6214
▁puzz	-6215
ewhere	-6216
itsune	-6217
▁Anton	-6218
▁Roxas	-6219
▁immig	-6220
▁leads	-6221
▁store	-6222
ception	-6223
entions	-6224
▁Master	-6225
▁branch	-6226
▁circum	-6227
▁denied	-6228
▁leaves	-6229
▁resist	-6230
▁Charlie	-6231
▁Stephen	-6232
▁adapted	-6233
▁methods	-6234
▁monarch	-6235
▁replace	-6236
▁studied	-6237
▁Engineer	-6238
▁interior	-6239
▁missions	-6240
▁shooting	-6241
▁finishing	-6242
▁portrayed	-6243
▁producing	-6244
▁successor	-6245
▁reputation	-6246
▁Mississippi	-6247
▁distribution	-6248
ić	-6249
aka	-6250
bur	-6251
▁69	-6252
▁Di	-6253
real	-6254
rien	-6255
▁Edu	-6256
▁Hug	-6257
▁NBC	-6258
▁Sap	-6259
▁lic	-6260
▁obt	-6261
▁upd	-6262
break	-6263
onder	-6264
senal	-6265
▁1915	-6266
▁Flow	-6267
▁baby	-6268
▁lane	-6269
▁prey	-6270
▁Plunk	-6271
▁Press	-6272
▁crime	-6273
▁entry	-6274
▁motor	-6275
▁worst	-6276
▁worth	-6277
rations	-6278
▁Howard	-6279
▁Samuel	-6280
▁Within	-6281
▁franch	-6282
▁window	-6283
▁getting	-6284
▁offense	-6285
▁entering	-6286
▁gameplay	-6287
▁maintain	-6288
▁politics	-6289
▁Recording	-6290
▁dismissed	-6291
▁protected	-6292
▁Activision	-6293
▁intelligence	-6294
▁characteristics	-6295
kh	-6296
ni	-6297
ns	-6298
aug	-6299
▁Wy	-6300
▁ru	-6301
elve	-6302
orer	-6303
otes	-6304
▁DNA	-6305
▁Kel	-6306
▁Loc	-6307
▁cry	-6308
▁die	-6309
▁von	-6310
acent	-6311
amber	-6312
ender	-6313
inals	-6314
▁Eliz	-6315
▁shel	-6316
▁tell	-6317
▁tomb	-6318
ctions	-6319
orters	-6320
▁Marsh	-6321
▁Ridge	-6322
▁basin	-6323
▁crown	-6324
▁exerc	-6325
▁holds	-6326
▁joint	-6327
▁knots	-6328
▁Nether	-6329
▁charts	-6330
▁noting	-6331
▁novels	-6332
▁resour	-6333
▁retire	-6334
▁stones	-6335
▁Calvert	-6336
▁charges	-6337
▁classes	-6338
▁dollars	-6339
▁Isabella	-6340
▁capacity	-6341
▁electric	-6342
▁historic	-6343
▁monument	-6344
▁mushroom	-6345
▁discussed	-6346
▁philosoph	-6347
▁attributed	-6348
▁interested	-6349
▁introduction	-6350
aws	-6351
gie	-6352
▁74	-6353
▁79	-6354
▁91	-6355
▁Ts	-6356
osis	-6357
wise	-6358
▁Bos	-6359
▁Cam	-6360
▁fer	-6361
▁sym	-6362
▁van	-6363
ajevo	-6364
eenth	-6365
itage	-6366
itled	-6367
osure	-6368
▁1890	-6369
▁1917	-6370
▁1948	-6371
▁Lisa	-6372
▁Pope	-6373
▁Trib	-6374
▁Walk	-6375
▁Yank	-6376
▁vary	-6377
▁Danny	-6378
▁agent	-6379
▁cinem	-6380
▁pitch	-6381
▁pound	-6382
▁rhyth	-6383
▁ruled	-6384
▁rules	-6385
▁solid	-6386
▁Jersey	-6387
▁Resear	-6388
▁Strand	-6389
▁Weekly	-6390
▁chapel	-6391
▁fields	-6392
▁offers	-6393
▁sector	-6394
▁tribes	-6395
▁vision	-6396
angerous	-6397
▁coastal	-6398
▁contest	-6399
▁younger	-6400
▁Industry	-6401
▁Sarajevo	-6402
▁accounts	-6403
▁colonial	-6404
▁medieval	-6405
▁appearing	-6406
▁predecess	-6407
▁publisher	-6408
▁statement	-6409
▁describing	-6410
▁generation	-6411
ef	-6412
gra	-6413
▁88	-6414
▁Sa	-6415
bles	-6416
rets	-6417
▁Jif	-6418
▁Sor	-6419
▁unn	-6420
ateur	-6421
iders	-6422
ivals	-6423
water	-6424
▁1951	-6425
▁1979	-6426
▁Here	-6427
▁Wars	-6428
▁arts	-6429
▁bond	-6430
▁hope	-6431
▁soil	-6432
▁zone	-6433
engers	-6434
intend	-6435
offman	-6436
▁Campb	-6437
▁Daily	-6438
▁Organ	-6439
▁apart	-6440
▁basic	-6441
▁europ	-6442
▁inner	-6443
▁kings	-6444
▁ninth	-6445
▁releg	-6446
▁caught	-6447
▁desire	-6448
▁manner	-6449
▁plants	-6450
▁rarely	-6451
▁Destiny	-6452
▁article	-6453
▁forests	-6454
▁someone	-6455
▁synthes	-6456
▁Victoria	-6457
▁Yankovic	-6458
▁instruct	-6459
▁Frederick	-6460
▁discovery	-6461
▁emotional	-6462
▁exception	-6463
▁difficulty	-6464
▁everything	-6465
▁restaurant	-6466
▁recognition	-6467
▁considerable	-6468
20	-6469
▁ha	-6470
▁ur	-6471
▁121	-6472
▁Joe	-6473
▁Lee	-6474
▁Rem	-6475
▁nob	-6476
abeth	-6477
ables	-6478
allow	-6479
ician	-6480
union	-6481
using	-6482
▁1954	-6483
▁1961	-6484
▁Chen	-6485
▁Fair	-6486
▁Init	-6487
▁cold	-6488
▁gall	-6489
▁hill	-6490
▁mine	-6491
aments	-6492
graded	-6493
igades	-6494
ultane	-6495
▁Elect	-6496
▁hotel	-6497
▁munic	-6498
▁shore	-6499
▁Around	-6500
▁Mozamb	-6501
▁Somali	-6502
▁landed	-6503
▁settle	-6504
▁sudden	-6505
▁taught	-6506
▁thirty	-6507
▁wealth	-6508
▁wooden	-6509
▁Rolling	-6510
▁evening	-6511
▁volunte	-6512
▁worship	-6513
▁Clarkson	-6514
▁Transport	-6515
▁opponents	-6516
▁Television	-6517
▁nomination	-6518
▁involvement	-6519
▁replacement	-6520
▁specifically	-6521
AC	-6522
lan	-6523
▁99	-6524
▁AR	-6525
▁DA	-6526
▁Si	-6527
▁ju	-6528
aska	-6529
avia	-6530
eper	-6531
iary	-6532
leep	-6533
yles	-6534
▁Ash	-6535
▁Lev	-6536
▁Yan	-6537
▁bal	-6538
▁tal	-6539
▁tie	-6540
Brien	-6541
eless	-6542
istol	-6543
orous	-6544
psons	-6545
reets	-6546
ropol	-6547
verse	-6548
▁1937	-6549
▁Bono	-6550
▁Duke	-6551
▁Fame	-6552
▁Skye	-6553
▁fish	-6554
▁jazz	-6555
▁leuk	-6556
atures	-6557
ceived	-6558
ingale	-6559
inking	-6560
ranean	-6561
usalem	-6562
▁Jifna	-6563
▁Lords	-6564
▁Order	-6565
▁Santa	-6566
▁Wilde	-6567
▁accur	-6568
▁poems	-6569
▁split	-6570
▁veget	-6571
▁Castle	-6572
▁Modern	-6573
▁Muslim	-6574
▁Spring	-6575
▁carbon	-6576
▁divine	-6577
▁fungus	-6578
▁picked	-6579
▁stream	-6580
▁Colonel	-6581
▁Roberts	-6582
▁Singles	-6583
▁consequ	-6584
▁secured	-6585
▁Simpsons	-6586
▁believes	-6587
▁Francisco	-6588
▁Jerusalem	-6589
▁industrial	-6590
▁communities	-6591
▁controversy	-6592
▁recommended	-6593
▁intersection	-6594
va	-6595
▁×	-6596
agu	-6597
ban	-6598
ipe	-6599
▁ic	-6600
rast	-6601
rows	-6602
▁Cab	-6603
▁Dur	-6604
▁Jun	-6605
▁Nap	-6606
▁Rif	-6607
▁Win	-6608
▁dim	-6609
▁fit	-6610
▁sed	-6611
▁1955	-6612
▁Cory	-6613
▁Nick	-6614
▁Plot	-6615
▁Shak	-6616
▁dock	-6617
▁hall	-6618
▁legs	-6619
▁soul	-6620
▁vide	-6621
ussion	-6622
▁Adams	-6623
▁Human	-6624
▁Prime	-6625
▁absor	-6626
▁faces	-6627
▁wrong	-6628
iveness	-6629
theless	-6630
▁Carter	-6631
▁depend	-6632
▁launch	-6633
▁missed	-6634
▁convers	-6635
▁drawing	-6636
▁scholar	-6637
▁signing	-6638
▁strateg	-6639
▁whereas	-6640
▁Hamilton	-6641
▁Military	-6642
▁Olympics	-6643
▁concerns	-6644
▁Argentina	-6645
▁extremely	-6646
▁principal	-6647
▁specimens	-6648
▁standards	-6649
▁leadership	-6650
▁Independent	-6651
▁organizations	-6652
ext	-6653
iar	-6654
rec	-6655
▁89	-6656
▁AD	-6657
adow	-6658
cape	-6659
iday	-6660
imal	-6661
▁Anc	-6662
▁Pan	-6663
▁Pul	-6664
▁bes	-6665
▁ble	-6666
▁ske	-6667
onica	-6668
▁1900	-6669
▁1958	-6670
▁Earl	-6671
▁Sand	-6672
▁grav	-6673
▁warm	-6674
wealth	-6675
▁Banai	-6676
▁Beach	-6677
▁Power	-6678
▁demol	-6679
▁indig	-6680
▁psych	-6681
▁teeth	-6682
▁tries	-6683
▁youth	-6684
pective	-6685
▁Forces	-6686
▁muscar	-6687
▁speech	-6688
▁treaty	-6689
iversary	-6690
▁Writing	-6691
▁emerged	-6692
▁existed	-6693
▁parties	-6694
▁session	-6695
▁showing	-6696
▁chemical	-6697
▁diameter	-6698
▁europium	-6699
▁minister	-6700
▁approached	-6701
▁conference	-6702
▁connection	-6703
▁surrounded	-6704
▁threatened	-6705
▁distributed	-6706
▁relationships	-6707
CA	-6708
amm	-6709
bie	-6710
cho	-6711
eor	-6712
oca	-6713
uda	-6714
utt	-6715
▁CE	-6716
▁IV	-6717
▁WW	-6718
▁ib	-6719
edom	-6720
▁fal	-6721
▁fle	-6722
▁lbw	-6723
aurus	-6724
inger	-6725
itals	-6726
organ	-6727
point	-6728
▁1949	-6729
▁1977	-6730
▁Bank	-6731
▁Disc	-6732
▁Hung	-6733
▁Iron	-6734
▁Ryan	-6735
▁cong	-6736
▁corp	-6737
▁mart	-6738
▁page	-6739
▁rect	-6740
▁stem	-6741
▁Chief	-6742
▁Point	-6743
▁Roger	-6744
▁alien	-6745
▁citiz	-6746
▁decor	-6747
▁hoped	-6748
▁oppos	-6749
▁overw	-6750
▁shark	-6751
▁wants	-6752
▁Lennon	-6753
▁Norman	-6754
▁bright	-6755
▁facing	-6756
▁firing	-6757
▁option	-6758
▁seeing	-6759
▁crossed	-6760
▁partial	-6761
▁pointed	-6762
▁railway	-6763
▁ratings	-6764
▁unusual	-6765
▁admitted	-6766
▁favorite	-6767
▁isolated	-6768
▁expansion	-6769
▁immediate	-6770
▁intention	-6771
▁regularly	-6772
▁Depression	-6773
▁department	-6774
▁expedition	-6775
▁historians	-6776
▁alternative	-6777
▁documentary	-6778
▁constitution	-6779
▁institutions	-6780
ba	-6781
aya	-6782
nes	-6783
sch	-6784
zen	-6785
▁07	-6786
eman	-6787
emia	-6788
iour	-6789
ooth	-6790
spec	-6791
usad	-6792
uses	-6793
wich	-6794
ívar	-6795
▁Ald	-6796
▁flo	-6797
▁lap	-6798
ledon	-6799
ombat	-6800
▁Desc	-6801
▁Fern	-6802
▁Fras	-6803
▁sulf	-6804
formed	-6805
▁Hergé	-6806
▁marks	-6807
▁owner	-6808
▁recre	-6809
▁watch	-6810
ossible	-6811
▁Kilmer	-6812
▁Person	-6813
▁Rhodes	-6814
▁Territ	-6815
▁Unlike	-6816
▁ancest	-6817
▁consum	-6818
▁duties	-6819
▁eighth	-6820
▁gather	-6821
▁inland	-6822
▁sequel	-6823
▁Bolívar	-6824
▁Goffman	-6825
▁Janeiro	-6826
▁Saprang	-6827
▁assumed	-6828
▁inhabit	-6829
▁message	-6830
▁treated	-6831
▁breaking	-6832
▁bringing	-6833
▁champion	-6834
▁changing	-6835
▁examples	-6836
▁literary	-6837
▁protests	-6838
▁regional	-6839
▁reviewer	-6840
▁romantic	-6841
▁strongly	-6842
▁franchise	-6843
▁languages	-6844
▁watershed	-6845
▁destroyers	-6846
▁anniversary	-6847
▁designation	-6848
▁protagonist	-6849
sta	-6850
▁06	-6851
▁63	-6852
▁93	-6853
▁PA	-6854
ekān	-6855
erog	-6856
eton	-6857
inet	-6858
nell	-6859
otic	-6860
▁BCE	-6861
▁Bal	-6862
▁Guy	-6863
▁Kit	-6864
ockey	-6865
rates	-6866
worth	-6867
▁1910	-6868
▁1983	-6869
▁Ball	-6870
▁Base	-6871
▁Bert	-6872
▁Jean	-6873
▁Lanc	-6874
▁Mand	-6875
▁Pine	-6876
▁Test	-6877
▁Wimb	-6878
▁aged	-6879
▁coup	-6880
▁eggs	-6881
▁grey	-6882
▁outf	-6883
encies	-6884
rapped	-6885
▁Burns	-6886
▁Color	-6887
▁Stock	-6888
▁Story	-6889
▁Tower	-6890
▁crest	-6891
▁genre	-6892
▁meets	-6893
istered	-6894
ogether	-6895
▁Gerard	-6896
▁Hearts	-6897
▁Lawton	-6898
▁Square	-6899
▁easily	-6900
▁rescue	-6901
▁winner	-6902
▁Georgia	-6903
▁Journal	-6904
▁Station	-6905
▁airline	-6906
▁improve	-6907
▁orchest	-6908
▁retreat	-6909
▁stadium	-6910
▁wearing	-6911
▁Research	-6912
▁academic	-6913
▁approved	-6914
▁detailed	-6915
▁sections	-6916
▁specimen	-6917
▁Wimbledon	-6918
▁attracted	-6919
▁indicated	-6920
onnaissance	-6921
▁completion	-6922
▁engineering	-6923
aga	-6924
how	-6925
ois	-6926
osm	-6927
▁Xe	-6928
agas	-6929
know	-6930
lets	-6931
oked	-6932
ppet	-6933
▁Cru	-6934
▁Neb	-6935
▁Raj	-6936
▁bay	-6937
▁cul	-6938
▁lob	-6939
▁sam	-6940
range	-6941
▁Bass	-6942
▁Conc	-6943
▁Cook	-6944
▁Corn	-6945
▁Sher	-6946
▁Wolf	-6947
▁ethn	-6948
▁flat	-6949
▁pric	-6950
▁rhym	-6951
▁sell	-6952
▁shif	-6953
▁Offic	-6954
▁Third	-6955
▁catch	-6956
▁cloud	-6957
▁conqu	-6958
▁coord	-6959
▁depos	-6960
▁equal	-6961
▁happy	-6962
▁ocean	-6963
igation	-6964
▁acknow	-6965
▁looked	-6966
▁medium	-6967
▁preced	-6968
▁spaces	-6969
▁streak	-6970
▁Admiral	-6971
▁Somalia	-6972
▁accused	-6973
▁feeling	-6974
▁proport	-6975
▁reading	-6976
▁settled	-6977
▁Attorney	-6978
▁adjacent	-6979
▁civilian	-6980
▁starling	-6981
▁terminus	-6982
▁traveled	-6983
▁Cambridge	-6984
▁assistant	-6985
▁challenge	-6986
▁implement	-6987
▁practices	-6988
▁surviving	-6989
▁Richardson	-6990
▁attempting	-6991
▁encouraged	-6992
▁effectively	-6993
▁inspiration	-6994
▁interchange	-6995
▁territories	-6996
▁agricultural	-6997
hl	-6998
mel	-6999
▁05	-7000
▁Sb	-7001
▁et	-7002
dess	-7003
emet	-7004
▁	-7005
e	-7006
t	-7007
a	-7008
n	-7009
i	-7010
o	-7011
r	-7012
s	-7013
h	-7014
l	-7015
d	-7016
c	-7017
u	-7018
m	-7019
f	-7020
g	-7021
p	-7022
w	-7023
y	-7024
b	-7025
,	-7026
.	-7027
v	-7028
k	-7029
@	-7030
1	-7031
T	-7032
0	-7033
A	-7034
S	-7035
=	-7036
"	-7037
C	-7038
M	-7039
2	-7040
I	-7041
B	-7042
9	-7043
'	-7044
-	-7045
H	-7046
P	-7047
x	-7048
R	-7049
D	-7050
F	-7051
N	-7052
W	-7053
L	-7054
)	-7055
(	-7056
G	-7057
3	-7058
5	-7059
8	-7060
J	-7061
E	-7062
O	-7063
4	-7064
6	-7065
7	-7066
z	-7067
j	-7068
K	-7069
q	-7070
U	-7071
V	-7072
;	-7073
–	-7074
:	-7075
Y	-7076
Z	-7077
/	-7078
—	-7079
é	-7080
Q	-7081
%	-7082
$	-7083
[	-7084
]	-7085
X	-7086
&	-7087
!	-7088
á	-7089
ā	-7090
í	-7091
’	-7092
£	-7093
°	-7094
ó	-7095
?	-7096
+	-7097
è	-7098
ō	-7099
ü	-7100
ö	-7101
ć	-7102
ä	-7103
š	-7104
#	-7105
ł	-7106
−	-7107
ø	-7108
ç	-7109
×	-7110
ś	-7111
ʻ	-7112
μ	-7113
ñ	-7114
ã	-7115
“	-7116
É	-7117
ˈ	-7118
”	-7119
₹	-7120
ū	-7121
ì	-7122
ư	-7123
â	-7124
ī	-7125
ń	-7126
ə	-7127
⁄	-7128
Æ	-7129
ơ	-7130
→	-7131
Í	-7132
à	-7133
Å	-7134
ă	-7135
ô	-7136
ا	-7137
ი	-7138
ú	-7139
Ō	-7140
α	-7141
č	-7142
☉	-7143
ë	-7144
ل	-7145
ž	-7146
ː	-7147
а	-7148
‘	-7149
の	-7150
*	-7151
~	-7152
ş	-7153
å	-7154
æ	-7155
ν	-7156
о	-7157
ს	-7158
ς	-7159
с	-7160
რ	-7161
ệ	-7162
ê	-7163
е	-7164
ე	-7165
τ	-7166
ス	-7167
ル	-7168
ο	-7169
р	-7170
ा	-7171
ḥ	-7172
ễ	-7173
い	-7174
Ā	-7175
Đ	-7176
ρ	-7177
т	-7178
ა	-7179
<	-7180
^	-7181
к	-7182
ה	-7183
ხ	-7184
ỳ	-7185
‐	-7186
′	-7187
♯	-7188
り	-7189
ー	-7190
Ø	-7191
î	-7192
đ	-7193
ė	-7194
ɪ	-7195
ό	-7196
и	-7197
ن	-7198
მ	-7199
უ	-7200
ア	-7201
Î	-7202
ï	-7203
β	-7204
κ	-7205
د	-7206
ვ	-7207
ლ	-7208
≤	-7209
ン	-7210
>	-7211
Ł	-7212
Š	-7213
в	-7214
ه	-7215
ร	-7216
ṃ	-7217
ッ	-7218
～	-7219
Á	-7220
û	-7221
ē	-7222
ɑ	-7223
С	-7224
ي	-7225
्	-7226
ო	-7227
ქ	-7228
†	-7229
€	-7230
き	-7231
イ	-7232
リ	-7233
大	-7234
±	-7235
Ö	-7236
ι	-7237
л	-7238
н	-7239
א	-7240
ب	-7241
م	-7242
ก	-7243
ั	-7244
დ	-7245
ტ	-7246
ṇ	-7247
ṯ	-7248
ị	-7249
〈	-7250
〉	-7251
し	-7252
ュ	-7253
・	-7254
火	-7255
ɒ	-7256
γ	-7257
ל	-7258
ر	-7259
ว	-7260
อ	-7261
ิ	-7262
გ	-7263
ნ	-7264
ṅ	-7265
か	-7266
た	-7267
つ	-7268
キ	-7269
ク	-7270
フ	-7271
州	-7272
狐	-7273
空	-7274
`	-7275
Ü	-7276
ò	-7277
Č	-7278
Ż	-7279
ʃ	-7280
ʿ	-7281
δ	-7282
λ	-7283
π	-7284
χ	-7285
й	-7286
ح	-7287
ش	-7288
ق	-7289
न	-7290
ย	-7291
ล	-7292
า	-7293
წ	-7294
ṣ	-7295
ṭ	-7296
ả	-7297
ấ	-7298
ầ	-7299
„	-7300
♭	-7301
ん	-7302
シ	-7303
テ	-7304
ト	-7305
ラ	-7306
ロ	-7307
動	-7308
戦	-7309
攻	-7310
日	-7311
機	-7312
殻	-7313
隊	-7314
ù	-7315
ţ	-7316
ɛ	-7317
ʊ	-7318
ˌ	-7319
̃	-7320
я	-7321
ו	-7322
י	-7323
פ	-7324
أ	-7325
ع	-7326
ܐ	-7327
ब	-7328
เ	-7329
ც	-7330
ჲ	-7331
჻	-7332
ᵻ	-7333
ớ	-7334
う	-7335
な	-7336
ば	-7337
ひ	-7338
め	-7339
も	-7340
デ	-7341
ナ	-7342
周	-7343
場	-7344
張	-7345
礮	-7346
¡	-7347
¥	-7348
·	-7349
Ú	-7350
ı	-7351
ɔ	-7352
ɡ	-7353
έ	-7354
ί	-7355
ε	-7356
θ	-7357
з	-7358
ъ	-7359
ח	-7360
س	-7361
ص	-7362
ण	-7363
द	-7364
र	-7365
व	-7366
ि	-7367
ू	-7368
ਅ	-7369
ਲ	-7370
ਹ	-7371
ง	-7372
ต	-7373
ม	-7374
თ	-7375
კ	-7376
ფ	-7377
ჯ	-7378
ჱ	-7379
ử	-7380
す	-7381
っ	-7382
と	-7383
ァ	-7384
ィ	-7385
エ	-7386
ォ	-7387
バ	-7388
ヴ	-7389
侗	-7390
光	-7391
劉	-7392
同	-7393
宗	-7394
李	-7395
花	-7396
\	-7397
|	-7398
§	-7399
Þ	-7400
ß	-7401
ą	-7402
ğ	-7403
Ś	-7404
ů	-7405
ų	-7406
ź	-7407
ż	-7408
Ž	-7409
ș	-7410
ʼ	-7411
ά	-7412
ή	-7413
η	-7414
ξ	-7415
σ	-7416
υ	-7417
ω	-7418
В	-7419
д	-7420
п	-7421
ц	-7422
ы	-7423
ב	-7424
إ	-7425
ت	-7426
ف	-7427
و	-7428
ई	-7429
क	-7430
त	-7431
ल	-7432
ह	-7433
ณ	-7434
พ	-7435
ี	-7436
่	-7437
์	-7438
ზ	-7439
ძ	-7440
ჰ	-7441
ჳ	-7442
ჴ	-7443
ạ	-7444
ắ	-7445
ọ	-7446
ὑ	-7447
₤	-7448
あ	-7449
が	-7450
く	-7451
ぐ	-7452
ち	-7453
ふ	-7454
ま	-7455
れ	-7456
ブ	-7457
プ	-7458
レ	-7459
孟	-7460
安	-7461
岳	-7462
技	-7463
王	-7464
砲	-7465
蘄	-7466
雪	-7467
}	-7468
Ó	-7469
ð	-7470
Ĕ	-7471
œ	-7472
Ş	-7473
ũ	-7474
ǎ	-7475
ȯ	-7476
ɐ	-7477
ɫ	-7478
ɾ	-7479
ʁ	-7480
ʔ	-7481
́	-7482
Δ	-7483
Χ	-7484
ώ	-7485
А	-7486
К	-7487
П	-7488
Х	-7489
м	-7490
х	-7491
ш	-7492
ю	-7493
ָ	-7494
ֹ	-7495
ם	-7496
ן	-7497
ס	-7498
ף	-7499
ש	-7500
ة	-7501
ك	-7502
ܗ	-7503
ܠ	-7504
ܵ	-7505
अ	-7506
म	-7507
य	-7508
स	-7509
ল	-7510
ਾ	-7511
ੁ	-7512
ള	-7513
്	-7514
ช	-7515
ป	-7516
แ	-7517
้	-7518
პ	-7519
ყ	-7520
შ	-7521
ჭ	-7522
ჵ	-7523
ḏ	-7524
Ḥ	-7525
ḷ	-7526
ṛ	-7527
ậ	-7528
ộ	-7529
ứ	-7530
ἀ	-7531
ὁ	-7532
‡	-7533
₣	-7534
≡	-7535
〜	-7536
お	-7537
け	-7538
こ	-7539
ご	-7540
さ	-7541
だ	-7542
に	-7543
み	-7544
ゆ	-7545
ら	-7546
る	-7547
わ	-7548
を	-7549
ェ	-7550
オ	-7551
ゲ	-7552
コ	-7553
サ	-7554
ズ	-7555
タ	-7556
ダ	-7557
チ	-7558
ツ	-7559
ド	-7560
ニ	-7561
ネ	-7562
マ	-7563
ミ	-7564
世	-7565
中	-7566
主	-7567
九	-7568
今	-7569
再	-7570
出	-7571
名	-7572
命	-7573
夕	-7574
女	-7575
子	-7576
山	-7577
師	-7578
拉	-7579
揺	-7580
政	-7581
方	-7582
旭	-7583
星	-7584
春	-7585
景	-7586
村	-7587
澤	-7588
義	-7589
興	-7590
蘇	-7591
運	-7592
里	-7593
金	-7594
銃	-7595
陈	-7596
陳	-7597
霹	-7598
靂	-7599
대	-7600
_	-7601
	-7602
	-7603
¢	-7604
¿	-7605
Ä	-7606
Ç	-7607
Ñ	-7608
ý	-7609
þ	-7610
Ē	-7611
ĕ	-7612
ę	-7613
ħ	-7614
İ	-7615
Ľ	-7616
ř	-7617
ǔ	-7618
Ș	-7619
ț	-7620
ɜ	-7621
ɢ	-7622
ɳ	-7623
ɽ	-7624
ʋ	-7625
ʒ	-7626
ʕ	-7627
ʾ	-7628
̍	-7629
̥	-7630
̯	-7631
͍	-7632
Α	-7633
Κ	-7634
Ν	-7635
Π	-7636
Τ	-7637
Φ	-7638
Ω	-7639
ψ	-7640
ύ	-7641
Б	-7642
Г	-7643
Р	-7644
У	-7645
Я	-7646
г	-7647
ж	-7648
у	-7649
ь	-7650
є	-7651
ֵ	-7652
ֶ	-7653
ּ	-7654
ג	-7655
ז	-7656
מ	-7657
נ	-7658
צ	-7659
ר	-7660
ת	-7661
ء	-7662
ث	-7663
ج	-7664
خ	-7665
ذ	-7666
ܕ	-7667
ܝ	-7668
ܢ	-7669
ܬ	-7670
ܲ	-7671
ं	-7672
ग	-7673
प	-7674
ु	-7675
े	-7676
ै	-7677
আ	-7678
হ	-7679
া	-7680
্	-7681
ੱ	-7682
അ	-7683
ഹ	-7684
ാ	-7685
ค	-7686
ซ	-7687
ญ	-7688
ฐ	-7689
ด	-7690
น	-7691
บ	-7692
ภ	-7693
ศ	-7694
ษ	-7695
ส	-7696
ห	-7697
ฮ	-7698
ะ	-7699
ึ	-7700
ไ	-7701
็	-7702
๊	-7703
Ⴀ	-7704
Ⴂ	-7705
Ⴃ	-7706
Ⴈ	-7707
Ⴌ	-7708
Ⴕ	-7709
Ⴟ	-7710
ბ	-7711
ჟ	-7712
ღ	-7713
ჩ	-7714
ჶ	-7715
ჷ	-7716
ჸ	-7717
ჹ	-7718
ჺ	-7719
ḍ	-7720
ỏ	-7721
ỗ	-7722
ữ	-7723
ỹ	-7724
ἰ	-7725
ὀ	-7726
―	-7727
•	-7728
☫	-7729
♀	-7730
⚳	-7731
ぎ	-7732
ず	-7733
ぜ	-7734
は	-7735
ほ	-7736
ゃ	-7737
ょ	-7738
ゥ	-7739
カ	-7740
ガ	-7741
グ	-7742
ジ	-7743
セ	-7744
ノ	-7745
ハ	-7746
パ	-7747
ヘ	-7748
ベ	-7749
ム	-7750
モ	-7751
ャ	-7752
ョ	-7753
一	-7754
七	-7755
下	-7756
丙	-7757
乃	-7758
之	-7759
乙	-7760
二	-7761
云	-7762
人	-7763
付	-7764
作	-7765
依	-7766
信	-7767
傳	-7768
儚	-7769
充	-7770
全	-7771
兵	-7772
其	-7773
具	-7774
円	-7775
判	-7776
前	-7777
剛	-7778
劇	-7779
化	-7780
北	-7781
华	-7782
厂	-7783
去	-7784
古	-7785
可	-7786
台	-7787
史	-7788
君	-7789
吳	-7790
和	-7791
咲	-7792
善	-7793
四	-7794
國	-7795
園	-7796
圣	-7797
在	-7798
坂	-7799
堤	-7800
塘	-7801
天	-7802
夫	-7803
妙	-7804
姚	-7805
守	-7806
宋	-7807
完	-7808
宝	-7809
宫	-7810
寝	-7811
寺	-7812
小	-7813
少	-7814
尾	-7815
川	-7816
巳	-7817
市	-7818
平	-7819
广	-7820
庆	-7821
府	-7822
座	-7823
廬	-7824
建	-7825
式	-7826
彌	-7827
彩	-7828
彼	-7829
後	-7830
御	-7831
德	-7832
思	-7833
愛	-7834
憑	-7835
憶	-7836
應	-7837
懷	-7838
战	-7839
扈	-7840
拳	-7841
挑	-7842
放	-7843
散	-7844
斯	-7845
旦	-7846
昌	-7847
明	-7848
晋	-7849
曦	-7850
月	-7851
望	-7852
未	-7853
本	-7854
杜	-7855
束	-7856
来	-7857
林	-7858
桜	-7859
梶	-7860
棘	-7861
椎	-7862
楊	-7863
楚	-7864
榮	-7865
橘	-7866
正	-7867
殿	-7868
母	-7869
水	-7870
汉	-7871
沂	-7872
沙	-7873
河	-7874
泗	-7875
波	-7876
泣	-7877
洪	-7878
淹	-7879
清	-7880
湯	-7881
漢	-7882
澄	-7883
灯	-7884
灵	-7885
灼	-7886
焼	-7887
熱	-7888
物	-7889
狸	-7890
玄	-7891
玩	-7892
珂	-7893
珙	-7894
球	-7895
理	-7896
琦	-7897
琪	-7898
瓊	-7899
生	-7900
田	-7901
畢	-7902
番	-7903
瘡	-7904
白	-7905
皮	-7906
真	-7907
祈	-7908
神	-7909
祠	-7910
秋	-7911
立	-7912
精	-7913
約	-7914
絵	-7915
織	-7916
翠	-7917
者	-7918
耕	-7919
肖	-7920
胡	-7921
膀	-7922
臂	-7923
良	-7924
芳	-7925
芽	-7926
若	-7927
英	-7928
藕	-7929
藥	-7930
行	-7931
裁	-7932
規	-7933
覺	-7934
观	-7935
解	-7936
記	-7937
誓	-7938
誡	-7939
誰	-7940
謎	-7941
许	-7942
谭	-7943
豪	-7944
豫	-7945
費	-7946
贵	-7947
赤	-7948
趙	-7949
足	-7950
跡	-7951
転	-7952
辛	-7953
逆	-7954
遇	-7955
過	-7956
遠	-7957
選	-7958
邦	-7959
邱	-7960
部	-7961
郭	-7962
都	-7963
酈	-7964
野	-7965
鋼	-7966
錄	-7967
錡	-7968
鍵	-7969
鐵	-7970
钱	-7971
铁	-7972
關	-7973
防	-7974
阿	-7975
陽	-7976
階	-7977
集	-7978
雲	-7979
霖	-7980
韓	-7981
願	-7982
顯	-7983
颜	-7984
马	-7985
高	-7986
龍	-7987
독	-7988
라	-7989
립	-7990
병	-7991
보	-7992
부	-7993
알	-7994
연	-7995
제	-7996
