<unk>	0
<s>	0
</s>	0
▁t	-0
he	-1
▁a	-2
in	-3
▁the	-4
er	-5
on	-6
▁,	-7
re	-8
▁s	-9
ed	-10
▁o	-11
▁w	-12
nd	-13
at	-14
▁.	-15
or	-16
it	-17
▁c	-18
en	-19
▁f	-20
is	-21
es	-22
ar	-23
▁of	-24
▁b	-25
an	-26
▁in	-27
al	-28
ing	-29
▁p	-30
▁and	-31
as	-32
▁to	-33
ro	-34
ic	-35
▁m	-36
▁d	-37
▁h	-38
ion	-39
le	-40
ou	-41
▁T	-42
▁re	-43
▁=	-44
▁"	-45
▁A	-46
▁S	-47
ent	-48
il	-49
▁th	-50
▁1	-51
st	-52
▁C	-53
el	-54
om	-55
▁l	-56
am	-57
▁e	-58
▁n	-59
▁@	-60
ad	-61
ac	-62
▁was	-63
▁M	-64
ur	-65
▁The	-66
ec	-67
▁on	-68
ly	-69
▁B	-70
▁I	-71
▁g	-72
▁'	-73
et	-74
ol	-75
id	-76
iv	-77
im	-78
▁for	-79
ir	-80
-@	-81
▁@-@	-82
ig	-83
ot	-84
ter	-85
▁as	-86
▁H	-87
us	-88
ow	-89
▁st	-90
ut	-91
ith	-92
ay	-93
▁2	-94
▁P	-95
ation	-96
ver	-97
▁be	-98
her	-99
▁that	-100
▁with	-101
▁R	-102
ce	-103
th	-104
▁D	-105
▁is	-106
un	-107
em	-108
▁F	-109
▁wh	-110
ul	-111
▁by	-112
▁al	-113
ch	-114
▁)	-115
▁(	-116
▁W	-117
▁con	-118
ra	-119
▁G	-120
os	-121
▁L	-122
▁N	-123
▁at	-124
ers	-125
ct	-126
▁it	-127
▁19	-128
rom	-129
and	-130
▁an	-131
um	-132
est	-133
▁J	-134
ag	-135
▁he	-136
00	-137
ist	-138
ain	-139
od	-140
av	-141
ri	-142
▁E	-143
▁O	-144
▁from	-145
▁com	-146
▁his	-147
op	-148
▁pro	-149
res	-150
ies	-151
if	-152
▁v	-153
ort	-154
ere	-155
ill	-156
ld	-157
▁de	-158
pp	-159
▁su	-160
ore	-161
▁In	-162
▁r	-163
▁se	-164
▁were	-165
ew	-166
ong	-167
igh	-168
ard	-169
ate	-170
all	-171
art	-172
ak	-173
ich	-174
▁ch	-175
▁or	-176
ab	-177
ant	-178
ud	-179
oc	-180
ber	-181
▁ex	-182
gh	-183
ity	-184
ated	-185
pt	-186
ess	-187
ear	-188
▁K	-189
▁pl	-190
ame	-191
qu	-192
ive	-193
rou	-194
▁are	-195
▁sh	-196
▁k	-197
ack	-198
ect	-199
▁U	-200
▁had	-201
se	-202
▁which	-203
red	-204
ov	-205
▁St	-206
ast	-207
▁sp	-208
ian	-209
▁y	-210
ment	-211
▁le	-212
▁not	-213
ge	-214
ord	-215
rit	-216
ip	-217
ine	-218
ell	-219
ally	-220
our	-221
ost	-222
ight	-223
ther	-224
ap	-225
▁u	-226
ish	-227
▁Ch	-228
oun	-229
ia	-230
▁3	-231
ave	-232
ary	-233
ust	-234
og	-235
▁200	-236
▁un	-237
ous	-238
irst	-239
▁V	-240
cc	-241
▁inc	-242
▁;	-243
▁comp	-244
ru	-245
ions	-246
▁their	-247
▁but	-248
ide	-249
ure	-250
so	-251
▁cont	-252
▁int	-253
fter	-254
ical	-255
ial	-256
▁ar	-257
▁first	-258
ould	-259
▁its	-260
hed	-261
▁–	-262
▁whe	-263
wo	-264
out	-265
ub	-266
▁20	-267
ff	-268
▁:	-269
ue	-270
▁her	-271
own	-272
ok	-273
▁also	-274
▁cl	-275
per	-276
ign	-277
ater	-278
ran	-279
orm	-280
ie	-281
ome	-282
ass	-283
ork	-284
ire	-285
end	-286
▁res	-287
▁ab	-288
▁ad	-289
▁us	-290
ry	-291
▁rec	-292
▁have	-293
age	-294
▁He	-295
▁4	-296
▁ro	-297
mer	-298
▁one	-299
ond	-300
low	-301
▁has	-302
▁Th	-303
du	-304
▁5	-305
▁per	-306
▁been	-307
ime	-308
▁two	-309
ence	-310
land	-311
▁18	-312
.@	-313
▁@.@	-314
ult	-315
ree	-316
ough	-317
ile	-318
▁who	-319
▁Al	-320
▁sc	-321
uring	-322
pl	-323
ory	-324
ition	-325
ric	-326
ations	-327
▁dis	-328
▁this	-329
▁bec	-330
▁app	-331
iz	-332
▁It	-333
are	-334
ach	-335
lud	-336
ade	-337
▁play	-338
▁j	-339
▁man	-340
act	-341
ely	-342
▁part	-343
▁des	-344
▁ag	-345
▁they	-346
▁year	-347
ount	-348
▁201	-349
▁over	-350
▁other	-351
ound	-352
▁after	-353
ib	-354
over	-355
▁ser	-356
▁en	-357
▁off	-358
▁im	-359
ction	-360
▁Y	-361
ke	-362
ite	-363
,@	-364
▁@,@	-365
te	-366
urn	-367
▁includ	-368
ress	-369
ance	-370
ang	-371
▁att	-372
ice	-373
ace	-374
ark	-375
▁out	-376
wn	-377
ph	-378
ember	-379
▁pre	-380
▁up	-381
ens	-382
man	-383
▁ev	-384
▁time	-385
nder	-386
rough	-387
ced	-388
▁fin	-389
▁into	-390
one	-391
port	-392
round	-393
we	-394
ren	-395
les	-396
int	-397
▁On	-398
vel	-399
▁comm	-400
▁she	-401
ason	-402
amp	-403
▁te	-404
▁would	-405
ward	-406
▁more	-407
▁6	-408
ied	-409
ose	-410
rib	-411
▁Un	-412
▁all	-413
ings	-414
tern	-415
ces	-416
able	-417
▁we	-418
ited	-419
ever	-420
ents	-421
▁him	-422
ased	-423
ors	-424
oy	-425
ood	-426
▁cent	-427
ix	-428
ase	-429
ild	-430
▁An	-431
▁7	-432
▁work	-433
ates	-434
ious	-435
ath	-436
▁po	-437
rop	-438
old	-439
als	-440
iss	-441
ey	-442
ict	-443
▁fe	-444
▁them	-445
gan	-446
▁sec	-447
▁bet	-448
▁when	-449
▁song	-450
▁rem	-451
ep	-452
form	-453
ail	-454
fer	-455
▁ear	-456
ubl	-457
aw	-458
▁kn	-459
ake	-460
aus	-461
▁most	-462
▁cons	-463
▁during	-464
▁As	-465
orth	-466
▁new	-467
ered	-468
ilm	-469
ved	-470
att	-471
▁only	-472
▁9	-473
▁dec	-474
▁8	-475
ick	-476
▁game	-477
ons	-478
ug	-479
▁tr	-480
ft	-481
oth	-482
ook	-483
▁Mar	-484
reat	-485
way	-486
▁can	-487
ollow	-488
outh	-489
ween	-490
▁En	-491
▁199	-492
ters	-493
▁rel	-494
ind	-495
▁about	-496
▁season	-497
▁again	-498
ral	-499
▁three	-500
ational	-501
▁under	-502
ular	-503
▁me	-504
▁than	-505
▁Com	-506
▁Ar	-507
hip	-508
ob	-509
▁ne	-510
▁between	-511
▁fl	-512
hn	-513
ve	-514
▁char	-515
▁col	-516
▁record	-517
iew	-518
ron	-519
fore	-520
▁through	-521
ision	-522
orn	-523
▁00	-524
ock	-525
▁ver	-526
▁num	-527
▁later	-528
▁end	-529
olog	-530
ames	-531
▁pos	-532
▁writ	-533
▁produ	-534
▁while	-535
▁act	-536
▁rele	-537
▁film	-538
ished	-539
▁pr	-540
ans	-541
▁reg	-542
▁form	-543
▁ass	-544
▁Se	-545
ury	-546
ted	-547
ts	-548
▁made	-549
▁sub	-550
▁pe	-551
▁so	-552
orld	-553
▁ret	-554
▁New	-555
▁spec	-556
▁acc	-557
▁qu	-558
▁where	-559
ener	-560
▁mov	-561
hes	-562
meric	-563
▁Le	-564
ating	-565
▁inter	-566
▁Americ	-567
▁ra	-568
▁some	-569
▁co	-570
▁lar	-571
▁bu	-572
▁def	-573
bum	-574
▁ac	-575
▁mus	-576
▁follow	-577
▁At	-578
ins	-579
ived	-580
ific	-581
ual	-582
▁am	-583
▁such	-584
▁second	-585
ike	-586
▁four	-587
▁ind	-588
ann	-589
hen	-590
▁used	-591
▁Re	-592
ics	-593
lect	-594
▁day	-595
iel	-596
ily	-597
▁This	-598
▁0	-599
▁publ	-600
▁Jo	-601
▁call	-602
ll	-603
▁album	-604
▁000	-605
rans	-606
▁do	-607
any	-608
▁before	-609
ros	-610
▁Sh	-611
▁sy	-612
aid	-613
▁Eng	-614
▁being	-615
▁10	-616
uc	-617
▁ep	-618
▁supp	-619
▁there	-620
▁years	-621
ars	-622
owever	-623
▁ent	-624
ife	-625
▁high	-626
▁found	-627
ird	-628
▁no	-629
▁set	-630
ines	-631
iver	-632
io	-633
other	-634
ject	-635
▁sur	-636
aj	-637
ten	-638
▁tra	-639
▁12	-640
ised	-641
ities	-642
velop	-643
ale	-644
▁bl	-645
▁series	-646
▁loc	-647
▁number	-648
▁pres	-649
ane	-650
ause	-651
ode	-652
ek	-653
ton	-654
▁Sc	-655
ier	-656
ise	-657
▁sever	-658
ince	-659
▁both	-660
ank	-661
row	-662
irect	-663
son	-664
▁Brit	-665
▁then	-666
iet	-667
▁16	-668
▁epis	-669
▁including	-670
its	-671
igin	-672
▁/	-673
pr	-674
▁against	-675
▁well	-676
▁became	-677
▁exp	-678
▁known	-679
▁trans	-680
▁charac	-681
▁—	-682
ram	-683
▁add	-684
▁back	-685
▁go	-686
▁pop	-687
urch	-688
▁desc	-689
ield	-690
▁sing	-691
▁perform	-692
ained	-693
ident	-694
▁rece	-695
▁em	-696
ert	-697
ures	-698
▁dep	-699
▁inv	-700
▁198	-701
air	-702
ern	-703
ather	-704
▁Z	-705
ful	-706
▁mon	-707
▁many	-708
▁main	-709
▁stud	-710
▁long	-711
inn	-712
though	-713
up	-714
ool	-715
▁United	-716
led	-717
ement	-718
▁15	-719
ower	-720
▁John	-721
▁op	-722
▁11	-723
ined	-724
▁met	-725
ober	-726
ley	-727
▁17	-728
▁century	-729
▁team	-730
▁est	-731
▁After	-732
yl	-733
▁min	-734
uch	-735
ute	-736
▁develop	-737
▁She	-738
iam	-739
▁show	-740
elf	-741
▁rep	-742
▁conc	-743
ative	-744
▁cre	-745
overn	-746
ared	-747
▁194	-748
▁origin	-749
▁sm	-750
ivers	-751
az	-752
▁lead	-753
▁several	-754
ah	-755
▁ob	-756
▁rev	-757
▁mill	-758
erm	-759
ually	-760
oot	-761
▁began	-762
▁196	-763
ired	-764
▁dif	-765
▁contin	-766
▁sign	-767
ik	-768
▁Ind	-769
ments	-770
ized	-771
▁197	-772
▁direct	-773
au	-774
ross	-775
▁ext	-776
emb	-777
der	-778
▁pol	-779
▁may	-780
apt	-781
els	-782
▁Wh	-783
▁comple	-784
▁art	-785
▁Br	-786
▁Is	-787
une	-788
til	-789
▁crit	-790
▁hist	-791
▁early	-792
▁could	-793
▁Con	-794
▁did	-795
▁bel	-796
▁called	-797
ued	-798
▁near	-799
▁episode	-800
yp	-801
▁describ	-802
imes	-803
roup	-804
▁bro	-805
ople	-806
▁run	-807
▁down	-808
aking	-809
▁disc	-810
▁along	-811
ccess	-812
▁May	-813
▁feat	-814
▁inst	-815
▁American	-816
▁said	-817
▁dist	-818
▁imp	-819
▁inf	-820
ink	-821
▁ins	-822
ty	-823
▁mil	-824
▁these	-825
enn	-826
▁Ger	-827
ium	-828
gest	-829
ven	-830
▁Bl	-831
▁Aust	-832
▁resp	-833
ull	-834
ruct	-835
ured	-836
▁though	-837
ove	-838
▁ship	-839
▁oper	-840
▁British	-841
▁prev	-842
▁until	-843
itt	-844
amed	-845
cept	-846
▁car	-847
▁start	-848
▁city	-849
▁gener	-850
▁same	-851
ains	-852
▁War	-853
ists	-854
ided	-855
ially	-856
▁released	-857
▁land	-858
ism	-859
▁Car	-860
▁any	-861
▁own	-862
▁war	-863
▁prov	-864
▁return	-865
▁air	-866
▁They	-867
xt	-868
erson	-869
oman	-870
▁music	-871
▁km	-872
ajor	-873
▁design	-874
▁Pl	-875
ible	-876
osed	-877
▁sim	-878
▁const	-879
▁appear	-880
▁million	-881
▁because	-882
ash	-883
▁fam	-884
▁mat	-885
▁use	-886
▁area	-887
▁13	-888
▁Aug	-889
▁Chr	-890
▁August	-891
▁ph	-892
▁occ	-893
▁open	-894
▁like	-895
ony	-896
▁success	-897
ole	-898
ouse	-899
erv	-900
▁count	-901
oss	-902
▁pass	-903
▁eff	-904
▁people	-905
my	-906
chool	-907
und	-908
▁Sp	-909
stem	-910
▁Cl	-911
▁offic	-912
ets	-913
uth	-914
▁six	-915
ange	-916
ues	-917
▁195	-918
▁support	-919
▁around	-920
▁small	-921
▁Col	-922
▁Sept	-923
▁However	-924
▁dam	-925
▁%	-926
▁adv	-927
▁mod	-928
▁Ju	-929
▁ele	-930
▁north	-931
ales	-932
▁head	-933
ient	-934
▁group	-935
▁govern	-936
raph	-937
▁character	-938
▁br	-939
▁gr	-940
▁ed	-941
▁each	-942
▁point	-943
▁September	-944
▁Ad	-945
wards	-946
▁consid	-947
ution	-948
▁De	-949
▁German	-950
▁following	-951
▁World	-952
▁life	-953
▁gu	-954
▁Comm	-955
▁All	-956
▁Austral	-957
anc	-958
▁ann	-959
▁contro	-960
ural	-961
▁var	-962
▁five	-963
ys	-964
▁US	-965
▁Her	-966
▁attack	-967
ged	-968
▁193	-969
ording	-970
▁result	-971
▁will	-972
ina	-973
ck	-974
▁Q	-975
▁ever	-976
▁Eu	-977
▁191	-978
▁Pro	-979
▁large	-980
▁II	-981
▁Me	-982
lish	-983
▁North	-984
ling	-985
▁book	-986
▁report	-987
ont	-988
ague	-989
▁Fran	-990
ble	-991
▁For	-992
ox	-993
aced	-994
hel	-995
▁June	-996
▁tit	-997
ended	-998
dom	-999
ilt	-1000
ives	-1001
▁14	-1002
ats	-1003
▁prom	-1004
eb	-1005
med	-1006
▁week	-1007
ately	-1008
aving	-1009
ored	-1010
▁str	-1011
▁Jan	-1012
▁since	-1013
▁States	-1014
▁final	-1015
▁major	-1016
ax	-1017
▁south	-1018
▁received	-1019
▁South	-1020
ivision	-1021
▁Gu	-1022
▁name	-1023
▁partic	-1024
ery	-1025
▁hel	-1026
ology	-1027
ption	-1028
▁Christ	-1029
▁Oct	-1030
▁care	-1031
▁public	-1032
..	-1033
▁rest	-1034
▁system	-1035
ected	-1036
▁Be	-1037
ility	-1038
ting	-1039
▁King	-1040
▁state	-1041
▁batt	-1042
ae	-1043
▁what	-1044
ages	-1045
uary	-1046
rand	-1047
▁last	-1048
▁described	-1049
▁October	-1050
▁line	-1051
▁class	-1052
▁$	-1053
▁...	-1054
▁det	-1055
raft	-1056
iving	-1057
▁Nov	-1058
▁played	-1059
▁prot	-1060
▁incre	-1061
aur	-1062
ropical	-1063
▁mar	-1064
▁now	-1065
ified	-1066
▁took	-1067
aim	-1068
▁Par	-1069
ional	-1070
get	-1071
ants	-1072
rote	-1073
ody	-1074
▁[	-1075
▁]	-1076
ively	-1077
▁York	-1078
▁build	-1079
▁world	-1080
▁Dec	-1081
▁late	-1082
yc	-1083
▁25	-1084
▁July	-1085
▁wrote	-1086
empt	-1087
ball	-1088
by	-1089
esp	-1090
▁Europ	-1091
ret	-1092
▁won	-1093
app	-1094
ideo	-1095
▁species	-1096
sion	-1097
ians	-1098
▁child	-1099
omet	-1100
iod	-1101
▁Can	-1102
▁conf	-1103
▁much	-1104
▁port	-1105
▁During	-1106
▁serv	-1107
▁camp	-1108
ection	-1109
▁ref	-1110
ech	-1111
▁due	-1112
▁short	-1113
arn	-1114
▁allow	-1115
▁single	-1116
pril	-1117
▁April	-1118
▁differ	-1119
▁just	-1120
▁death	-1121
ically	-1122
ract	-1123
▁star	-1124
▁sl	-1125
▁gun	-1126
ission	-1127
omin	-1128
▁Mc	-1129
ital	-1130
▁And	-1131
▁another	-1132
▁included	-1133
▁Mus	-1134
▁poss	-1135
ai	-1136
▁old	-1137
▁tri	-1138
ham	-1139
▁Ge	-1140
▁storm	-1141
▁vis	-1142
▁January	-1143
▁30	-1144
▁even	-1145
▁left	-1146
▁list	-1147
▁par	-1148
▁within	-1149
▁England	-1150
ple	-1151
▁prog	-1152
▁appro	-1153
ger	-1154
ops	-1155
itions	-1156
▁named	-1157
▁based	-1158
▁estab	-1159
inc	-1160
▁if	-1161
▁although	-1162
▁attempt	-1163
▁top	-1164
ilar	-1165
▁very	-1166
▁track	-1167
▁belie	-1168
ards	-1169
▁bre	-1170
▁third	-1171
▁hum	-1172
▁March	-1173
▁water	-1174
ene	-1175
▁games	-1176
▁organ	-1177
orp	-1178
ched	-1179
▁beg	-1180
ently	-1181
▁power	-1182
▁event	-1183
▁family	-1184
▁previous	-1185
▁school	-1186
ms	-1187
urric	-1188
▁best	-1189
ulation	-1190
▁November	-1191
ances	-1192
▁period	-1193
▁review	-1194
▁His	-1195
▁way	-1196
▁men	-1197
aster	-1198
▁expl	-1199
▁home	-1200
▁Europe	-1201
que	-1202
▁fur	-1203
▁government	-1204
▁typ	-1205
▁By	-1206
▁Ph	-1207
▁192	-1208
ience	-1209
▁turn	-1210
▁December	-1211
let	-1212
▁cap	-1213
ature	-1214
▁those	-1215
▁hand	-1216
avy	-1217
▁There	-1218
▁place	-1219
ached	-1220
▁med	-1221
hest	-1222
▁City	-1223
▁story	-1224
aged	-1225
oint	-1226
▁built	-1227
amb	-1228
eder	-1229
▁great	-1230
▁dr	-1231
ense	-1232
ences	-1233
▁person	-1234
iven	-1235
▁command	-1236
▁100	-1237
▁kill	-1238
oci	-1239
▁Fl	-1240
▁When	-1241
▁month	-1242
elt	-1243
itary	-1244
▁sent	-1245
▁opp	-1246
▁make	-1247
▁original	-1248
iversity	-1249
oad	-1250
▁hal	-1251
▁requ	-1252
ves	-1253
▁Pr	-1254
ides	-1255
▁eng	-1256
▁National	-1257
gy	-1258
▁2009	-1259
ention	-1260
▁Or	-1261
ness	-1262
▁2010	-1263
▁auth	-1264
▁video	-1265
▁2008	-1266
bs	-1267
▁ant	-1268
ison	-1269
▁dem	-1270
▁sug	-1271
▁mark	-1272
ruction	-1273
akes	-1274
▁present	-1275
line	-1276
▁leg	-1277
▁club	-1278
▁Man	-1279
rench	-1280
▁River	-1281
ival	-1282
▁view	-1283
▁Bro	-1284
riend	-1285
oard	-1286
▁repl	-1287
ograph	-1288
▁capt	-1289
alk	-1290
▁still	-1291
▁local	-1292
▁moved	-1293
▁stand	-1294
eng	-1295
▁led	-1296
▁role	-1297
ott	-1298
aining	-1299
ler	-1300
aken	-1301
▁came	-1302
▁term	-1303
▁iss	-1304
▁dest	-1305
ung	-1306
ories	-1307
idge	-1308
side	-1309
mp	-1310
▁dra	-1311
▁often	-1312
▁common	-1313
urricane	-1314
▁history	-1315
▁addition	-1316
▁caus	-1317
lev	-1318
sh	-1319
▁Comp	-1320
atter	-1321
▁No	-1322
▁trad	-1323
rew	-1324
▁few	-1325
▁We	-1326
▁Char	-1327
▁suggest	-1328
lu	-1329
▁Ab	-1330
read	-1331
ister	-1332
▁2007	-1333
▁next	-1334
▁effect	-1335
▁considered	-1336
▁One	-1337
▁bas	-1338
▁deb	-1339
▁player	-1340
ior	-1341
▁mid	-1342
▁cour	-1343
astern	-1344
▁Tr	-1345
▁help	-1346
▁English	-1347
ead	-1348
▁exper	-1349
uted	-1350
▁French	-1351
▁career	-1352
▁side	-1353
▁similar	-1354
▁recorded	-1355
ays	-1356
▁Batt	-1357
▁right	-1358
▁X	-1359
▁win	-1360
▁init	-1361
▁import	-1362
▁Acc	-1363
▁real	-1364
self	-1365
▁Rec	-1366
▁claim	-1367
▁arch	-1368
▁cover	-1369
▁company	-1370
be	-1371
ining	-1372
▁town	-1373
▁published	-1374
▁sold	-1375
▁continued	-1376
▁exc	-1377
▁refer	-1378
▁wind	-1379
▁different	-1380
▁you	-1381
▁take	-1382
▁without	-1383
ternational	-1384
▁songs	-1385
▁With	-1386
yn	-1387
▁Per	-1388
▁tot	-1389
▁Port	-1390
▁road	-1391
▁21	-1392
▁polit	-1393
▁former	-1394
▁tw	-1395
▁Bar	-1396
▁tem	-1397
▁held	-1398
▁Te	-1399
ches	-1400
▁memb	-1401
▁among	-1402
▁level	-1403
▁el	-1404
▁Will	-1405
ning	-1406
▁mag	-1407
▁field	-1408
par	-1409
▁elect	-1410
ner	-1411
iment	-1412
▁av	-1413
uss	-1414
itar	-1415
▁del	-1416
▁prop	-1417
inning	-1418
▁written	-1419
iter	-1420
resent	-1421
▁every	-1422
▁Am	-1423
▁State	-1424
estern	-1425
▁23	-1426
▁Ear	-1427
▁half	-1428
▁commun	-1429
lear	-1430
yle	-1431
ampions	-1432
▁Division	-1433
▁2011	-1434
▁release	-1435
ried	-1436
▁further	-1437
ots	-1438
▁become	-1439
▁2006	-1440
▁west	-1441
ensive	-1442
▁According	-1443
enc	-1444
▁cr	-1445
rodu	-1446
▁church	-1447
▁strong	-1448
▁Although	-1449
▁days	-1450
▁fore	-1451
▁however	-1452
roy	-1453
▁find	-1454
▁Canad	-1455
ices	-1456
▁cur	-1457
▁east	-1458
ising	-1459
▁Count	-1460
▁version	-1461
augh	-1462
▁beh	-1463
▁spe	-1464
▁foot	-1465
▁particular	-1466
ering	-1467
▁&	-1468
ize	-1469
▁my	-1470
ebru	-1471
▁low	-1472
▁Church	-1473
▁prof	-1474
▁Gener	-1475
▁title	-1476
▁compet	-1477
▁position	-1478
▁24	-1479
▁West	-1480
▁military	-1481
▁conv	-1482
▁Roman	-1483
▁author	-1484
▁22	-1485
▁26	-1486
▁appe	-1487
reen	-1488
▁order	-1489
▁League	-1490
outher	-1491
ront	-1492
▁sol	-1493
ittle	-1494
outhern	-1495
▁control	-1496
aces	-1497
▁Song	-1498
▁times	-1499
▁Af	-1500
▁band	-1501
▁Febru	-1502
▁February	-1503
pped	-1504
▁fre	-1505
▁less	-1506
ylan	-1507
▁Geor	-1508
▁defe	-1509
▁gave	-1510
▁vict	-1511
▁project	-1512
osp	-1513
▁Ass	-1514
▁!	-1515
▁Dylan	-1516
▁chang	-1517
▁members	-1518
▁reported	-1519
▁nort	-1520
rick	-1521
▁Park	-1522
▁nov	-1523
▁produced	-1524
▁stat	-1525
▁total	-1526
levision	-1527
arm	-1528
isc	-1529
eter	-1530
hern	-1531
▁2012	-1532
▁Old	-1533
aying	-1534
iety	-1535
▁arr	-1536
▁cult	-1537
▁popular	-1538
esc	-1539
oung	-1540
▁ter	-1541
ailed	-1542
▁fire	-1543
▁production	-1544
urs	-1545
apan	-1546
▁obs	-1547
hem	-1548
▁28	-1549
▁Pol	-1550
▁Sim	-1551
▁tropical	-1552
ression	-1553
▁post	-1554
▁Ste	-1555
▁critic	-1556
▁forces	-1557
▁Ha	-1558
ford	-1559
▁Japan	-1560
▁children	-1561
▁histor	-1562
ush	-1563
▁Ed	-1564
▁pat	-1565
▁having	-1566
▁include	-1567
ald	-1568
echn	-1569
ours	-1570
ring	-1571
▁surv	-1572
▁influ	-1573
▁invol	-1574
alion	-1575
ne	-1576
▁sk	-1577
rent	-1578
▁lost	-1579
▁Su	-1580
atic	-1581
▁aff	-1582
▁given	-1583
▁country	-1584
▁want	-1585
ably	-1586
▁represent	-1587
work	-1588
▁El	-1589
▁signific	-1590
omen	-1591
▁Dav	-1592
▁Cent	-1593
▁manag	-1594
ope	-1595
ploy	-1596
▁General	-1597
vers	-1598
▁equ	-1599
▁2013	-1600
▁press	-1601
ges	-1602
▁Miss	-1603
▁comb	-1604
▁eight	-1605
ades	-1606
reet	-1607
▁sit	-1608
▁seen	-1609
▁site	-1610
irc	-1611
▁program	-1612
sp	-1613
ones	-1614
oon	-1615
▁Afric	-1616
▁match	-1617
▁never	-1618
▁making	-1619
▁fem	-1620
ration	-1621
▁establ	-1622
▁stated	-1623
ither	-1624
▁body	-1625
▁plan	-1626
▁ord	-1627
▁fact	-1628
▁read	-1629
▁should	-1630
▁While	-1631
▁Ev	-1632
sequ	-1633
▁50	-1634
▁returned	-1635
fic	-1636
ator	-1637
▁University	-1638
ological	-1639
▁ft	-1640
▁soc	-1641
aun	-1642
▁er	-1643
▁190	-1644
▁sound	-1645
ape	-1646
rem	-1647
▁how	-1648
▁Ne	-1649
▁gen	-1650
▁These	-1651
▁island	-1652
▁America	-1653
▁cou	-1654
▁earl	-1655
▁ships	-1656
▁announ	-1657
▁struct	-1658
▁established	-1659
ampionship	-1660
▁god	-1661
▁Jack	-1662
▁chart	-1663
▁ground	-1664
▁population	-1665
aff	-1666
▁jo	-1667
ream	-1668
▁cat	-1669
▁div	-1670
▁reached	-1671
▁27	-1672
ground	-1673
na	-1674
view	-1675
▁Ire	-1676
▁light	-1677
▁noted	-1678
ki	-1679
aul	-1680
▁away	-1681
▁Black	-1682
▁friend	-1683
▁Ireland	-1684
ille	-1685
used	-1686
igade	-1687
ument	-1688
ffic	-1689
ination	-1690
ese	-1691
oll	-1692
▁Reg	-1693
▁lim	-1694
▁across	-1695
▁thought	-1696
▁developed	-1697
▁throughout	-1698
iec	-1699
▁Lond	-1700
▁Mich	-1701
▁seven	-1702
aint	-1703
ords	-1704
▁cast	-1705
▁somet	-1706
▁gl	-1707
ster	-1708
▁proc	-1709
▁London	-1710
▁William	-1711
▁pra	-1712
▁rad	-1713
▁introdu	-1714
af	-1715
▁good	-1716
▁Feder	-1717
▁using	-1718
▁himself	-1719
▁development	-1720
▁black	-1721
iness	-1722
omb	-1723
▁Har	-1724
▁hig	-1725
reek	-1726
▁felt	-1727
idence	-1728
▁human	-1729
▁Australia	-1730
▁significant	-1731
aren	-1732
utes	-1733
▁Air	-1734
▁ide	-1735
▁wat	-1736
▁performed	-1737
ump	-1738
▁bar	-1739
▁important	-1740
▁Gl	-1741
ivil	-1742
most	-1743
▁Atl	-1744
▁adm	-1745
itive	-1746
▁night	-1747
▁writing	-1748
▁Ex	-1749
▁Pal	-1750
▁fun	-1751
▁Rich	-1752
▁destroy	-1753
▁Mag	-1754
▁miles	-1755
▁father	-1756
▁bo	-1757
antic	-1758
▁television	-1759
▁Roy	-1760
▁various	-1761
▁interest	-1762
ief	-1763
osaur	-1764
▁areas	-1765
▁tour	-1766
▁white	-1767
imately	-1768
▁modern	-1769
▁full	-1770
ogn	-1771
rie	-1772
▁Cal	-1773
▁enc	-1774
▁ten	-1775
field	-1776
▁died	-1777
▁look	-1778
▁activ	-1779
ael	-1780
aign	-1781
▁law	-1782
▁went	-1783
▁need	-1784
▁Rober	-1785
▁tro	-1786
▁does	-1787
▁prim	-1788
▁events	-1789
▁successful	-1790
▁Road	-1791
ico	-1792
▁red	-1793
ization	-1794
▁discover	-1795
▁players	-1796
▁started	-1797
rab	-1798
▁To	-1799
▁mm	-1800
▁decl	-1801
▁James	-1802
con	-1803
reg	-1804
ript	-1805
▁see	-1806
▁ball	-1807
iting	-1808
▁feet	-1809
▁house	-1810
▁formed	-1811
ks	-1812
ourn	-1813
▁wid	-1814
▁poem	-1815
▁mix	-1816
▁range	-1817
▁techn	-1818
▁sett	-1819
▁Mount	-1820
▁County	-1821
▁performance	-1822
rest	-1823
▁put	-1824
▁vill	-1825
▁style	-1826
▁building	-1827
▁relations	-1828
abor	-1829
▁age	-1830
▁sum	-1831
▁too	-1832
▁force	-1833
▁caused	-1834
ana	-1835
▁ke	-1836
ino	-1837
epend	-1838
ara	-1839
▁You	-1840
▁Ke	-1841
alth	-1842
ublic	-1843
▁sw	-1844
ened	-1845
▁Cro	-1846
▁novel	-1847
▁pri	-1848
iers	-1849
▁189	-1850
isted	-1851
▁created	-1852
▁official	-1853
day	-1854
idd	-1855
fall	-1856
elling	-1857
▁Ang	-1858
▁Som	-1859
asing	-1860
▁2004	-1861
ym	-1862
▁pit	-1863
▁2005	-1864
▁relig	-1865
▁entire	-1866
gr	-1867
eth	-1868
▁Ol	-1869
less	-1870
▁son	-1871
ality	-1872
▁able	-1873
▁coast	-1874
▁political	-1875
ries	-1876
▁High	-1877
ressed	-1878
▁characters	-1879
▁Sec	-1880
▁ste	-1881
inal	-1882
▁Ham	-1883
▁get	-1884
▁others	-1885
▁construction	-1886
▁bird	-1887
▁cert	-1888
▁pred	-1889
▁promot	-1890
ases	-1891
▁battle	-1892
br	-1893
ways	-1894
▁Town	-1895
▁national	-1896
acy	-1897
▁occur	-1898
▁val	-1899
oming	-1900
▁’	-1901
▁Sw	-1902
▁fig	-1903
ample	-1904
play	-1905
▁lik	-1906
ament	-1907
▁Hist	-1908
▁once	-1909
ficult	-1910
▁fac	-1911
▁remained	-1912
por	-1913
▁Bra	-1914
▁Care	-1915
▁located	-1916
▁mount	-1917
▁tradition	-1918
enth	-1919
ivid	-1920
▁rock	-1921
▁works	-1922
▁scored	-1923
▁Kingdom	-1924
▁difficult	-1925
▁31	-1926
craft	-1927
▁guns	-1928
▁redu	-1929
lected	-1930
▁Island	-1931
▁produc	-1932
▁campaign	-1933
▁Cup	-1934
▁Mon	-1935
▁tre	-1936
▁meet	-1937
▁Grand	-1938
▁cross	-1939
▁stars	-1940
▁announced	-1941
▁completed	-1942
▁Australian	-1943
▁rank	-1944
▁region	-1945
ett	-1946
▁hold	-1947
orse	-1948
ounc	-1949
▁nuc	-1950
▁squ	-1951
off	-1952
itted	-1953
▁goal	-1954
▁grow	-1955
▁colle	-1956
▁super	-1957
▁Company	-1958
oid	-1959
umb	-1960
arch	-1961
ique	-1962
▁fav	-1963
▁let	-1964
▁conn	-1965
▁little	-1966
▁process	-1967
aly	-1968
omp	-1969
ray	-1970
enced	-1971
rought	-1972
▁fight	-1973
▁front	-1974
▁instead	-1975
▁Act	-1976
ky	-1977
▁29	-1978
▁circ	-1979
▁added	-1980
here	-1981
leet	-1982
▁Mor	-1983
▁cond	-1984
omm	-1985
duct	-1986
▁least	-1987
▁followed	-1988
▁Bill	-1989
▁know	-1990
▁peak	-1991
▁appeared	-1992
▁born	-1993
▁killed	-1994
angu	-1995
▁months	-1996
▁southern	-1997
▁originally	-1998
urb	-1999
oice	-2000
▁Army	-2001
▁wife	-2002
▁comment	-2003
▁stri	-2004
▁David	-2005
mar	-2006
ota	-2007
▁40	-2008
▁fif	-2009
▁loss	-2010
▁study	-2011
▁mother	-2012
ius	-2013
▁associ	-2014
▁hurricane	-2015
ects	-2016
▁cell	-2017
▁Music	-2018
▁women	-2019
ston	-2020
▁non	-2021
▁sex	-2022
antry	-2023
▁agre	-2024
▁mass	-2025
▁ident	-2026
▁eastern	-2027
▁relationship	-2028
ycl	-2029
▁aud	-2030
▁2003	-2031
▁award	-2032
▁broad	-2033
▁critics	-2034
▁185	-2035
▁anim	-2036
▁eventually	-2037
▁profess	-2038
▁features	-2039
aper	-2040
▁God	-2041
▁voc	-2042
▁2015	-2043
▁Other	-2044
▁young	-2045
olution	-2046
▁recogn	-2047
ata	-2048
gin	-2049
ully	-2050
▁bus	-2051
▁live	-2052
ements	-2053
▁France	-2054
▁aver	-2055
▁fourth	-2056
emy	-2057
▁Ser	-2058
▁estim	-2059
▁route	-2060
▁taken	-2061
cher	-2062
▁Ber	-2063
▁Two	-2064
▁served	-2065
liam	-2066
ores	-2067
istic	-2068
ask	-2069
illa	-2070
▁prote	-2071
ography	-2072
▁commer	-2073
▁appoint	-2074
ze	-2075
▁Co	-2076
chie	-2077
omes	-2078
▁lack	-2079
▁damage	-2080
▁decided	-2081
ama	-2082
unk	-2083
▁Mad	-2084
azine	-2085
igned	-2086
▁heavy	-2087
▁Im	-2088
▁cor	-2089
▁base	-2090
▁either	-2091
▁Battalion	-2092
▁arm	-2093
▁far	-2094
▁insp	-2095
iation	-2096
▁impro	-2097
▁separ	-2098
▁condom	-2099
▁proble	-2100
val	-2101
ought	-2102
▁Part	-2103
▁Robert	-2104
▁behind	-2105
▁special	-2106
ica	-2107
ecut	-2108
▁Love	-2109
▁coll	-2110
gether	-2111
▁individ	-2112
▁believed	-2113
▁together	-2114
ida	-2115
ency	-2116
▁arg	-2117
▁quar	-2118
liament	-2119
ipp	-2120
aves	-2121
▁clos	-2122
iction	-2123
ouncil	-2124
cial	-2125
rict	-2126
▁Carey	-2127
▁Royal	-2128
▁mater	-2129
▁playing	-2130
rap	-2131
▁Red	-2132
▁dou	-2133
▁burn	-2134
aching	-2135
iol	-2136
iber	-2137
▁Med	-2138
▁move	-2139
▁Du	-2140
▁bi	-2141
▁ir	-2142
▁Hen	-2143
▁Mex	-2144
▁dev	-2145
▁vol	-2146
▁close	-2147
▁creat	-2148
▁langu	-2149
▁round	-2150
▁accept	-2151
▁example	-2152
gg	-2153
▁188	-2154
▁Min	-2155
▁Some	-2156
▁almost	-2157
alt	-2158
ests	-2159
▁service	-2160
▁leading	-2161
▁European	-2162
odes	-2163
▁Rep	-2164
▁fall	-2165
▁sour	-2166
▁White	-2167
▁Federer	-2168
▁generally	-2169
▁ce	-2170
▁saw	-2171
ators	-2172
▁opened	-2173
▁towards	-2174
▁elements	-2175
eal	-2176
▁35	-2177
▁miss	-2178
uter	-2179
oring	-2180
▁weeks	-2181
▁Brigade	-2182
▁brought	-2183
▁general	-2184
ceed	-2185
▁mot	-2186
▁Game	-2187
▁Pres	-2188
▁draw	-2189
▁Wales	-2190
▁finished	-2191
▁International	-2192
▁z	-2193
stit	-2194
▁Flor	-2195
▁laun	-2196
oph	-2197
▁Kh	-2198
▁Viet	-2199
▁host	-2200
▁wall	-2201
▁highway	-2202
▁regular	-2203
▁featured	-2204
▁Ir	-2205
cast	-2206
▁central	-2207
▁aircraft	-2208
irl	-2209
ending	-2210
lement	-2211
▁indust	-2212
board	-2213
ordan	-2214
▁East	-2215
ounter	-2216
▁resear	-2217
▁reb	-2218
etwork	-2219
▁points	-2220
▁contract	-2221
eum	-2222
▁fund	-2223
▁inform	-2224
▁directed	-2225
▁-	-2226
▁Mo	-2227
▁mi	-2228
orts	-2229
▁meas	-2230
▁suff	-2231
▁action	-2232
▁director	-2233
▁provided	-2234
▁Championship	-2235
ude	-2236
▁Bo	-2237
hing	-2238
wood	-2239
▁cut	-2240
▁ren	-2241
icated	-2242
▁flood	-2243
▁Follow	-2244
▁respect	-2245
▁nar	-2246
▁mean	-2247
▁sequ	-2248
▁upon	-2249
▁Jordan	-2250
▁Gal	-2251
▁From	-2252
ential	-2253
▁appearance	-2254
ned	-2255
▁186	-2256
▁Jew	-2257
ellow	-2258
▁yard	-2259
▁earlier	-2260
sel	-2261
▁Em	-2262
▁Pe	-2263
▁ly	-2264
atin	-2265
▁Rock	-2266
▁king	-2267
▁Cr	-2268
ights	-2269
▁2014	-2270
▁cost	-2271
▁female	-2272
▁rather	-2273
▁troops	-2274
▁subsequ	-2275
▁Atlantic	-2276
tt	-2277
▁Od	-2278
medi	-2279
▁ill	-2280
▁reve	-2281
▁stru	-2282
ishing	-2283
▁current	-2284
▁Christian	-2285
▁Op	-2286
▁ve	-2287
▁Mary	-2288
▁river	-2289
▁travel	-2290
▁largest	-2291
▁victory	-2292
▁Following	-2293
ander	-2294
▁Hero	-2295
▁House	-2296
▁George	-2297
▁employ	-2298
▁manager	-2299
▁operations	-2300
▁particularly	-2301
ouri	-2302
erous	-2303
▁prob	-2304
▁achie	-2305
ule	-2306
▁fort	-2307
▁wanted	-2308
▁opening	-2309
ving	-2310
▁500	-2311
▁bur	-2312
▁cop	-2313
ength	-2314
▁northern	-2315
ids	-2316
ault	-2317
▁Mac	-2318
▁Play	-2319
▁exist	-2320
▁yards	-2321
osition	-2322
▁evidence	-2323
of	-2324
ita	-2325
▁Sl	-2326
eler	-2327
▁foc	-2328
▁Phil	-2329
▁reason	-2330
▁Florida	-2331
▁conduct	-2332
ee	-2333
ih	-2334
yd	-2335
uck	-2336
head	-2337
reng	-2338
▁Wal	-2339
▁pract	-2340
▁member	-2341
oms	-2342
vest	-2343
▁Bay	-2344
▁Wil	-2345
▁crew	-2346
anding	-2347
▁Street	-2348
▁engine	-2349
▁saying	-2350
▁allowed	-2351
▁outside	-2352
▁possible	-2353
co	-2354
west	-2355
▁Most	-2356
▁Oliv	-2357
▁Paul	-2358
atural	-2359
▁account	-2360
uel	-2361
irth	-2362
▁McC	-2363
▁mer	-2364
▁neg	-2365
▁Mark	-2366
▁past	-2367
▁stage	-2368
conom	-2369
▁whom	-2370
▁hours	-2371
▁respons	-2372
ago	-2373
ify	-2374
▁case	-2375
ington	-2376
artment	-2377
▁Missouri	-2378
▁material	-2379
bor	-2380
ills	-2381
▁2001	-2382
▁desp	-2383
▁regard	-2384
▁worked	-2385
▁But	-2386
▁gre	-2387
▁nec	-2388
▁free	-2389
▁mach	-2390
▁length	-2391
▁object	-2392
▁streng	-2393
▁territ	-2394
aps	-2395
▁Tech	-2396
▁gold	-2397
▁plann	-2398
▁working	-2399
ems	-2400
vert	-2401
▁nomin	-2402
lus	-2403
▁San	-2404
▁rul	-2405
aries	-2406
ville	-2407
▁love	-2408
▁poor	-2409
▁quick	-2410
▁designed	-2411
uk	-2412
ari	-2413
now	-2414
▁Qu	-2415
cent	-2416
▁Vir	-2417
▁football	-2418
urt	-2419
onst	-2420
▁Bus	-2421
▁hon	-2422
▁mult	-2423
▁learn	-2424
▁Indian	-2425
▁praised	-2426
▁construct	-2427
ps	-2428
▁Day	-2429
▁Tor	-2430
▁esc	-2431
▁Best	-2432
ession	-2433
▁First	-2434
▁avail	-2435
▁treat	-2436
▁forced	-2437
▁remains	-2438
▁station	-2439
ites	-2440
▁187	-2441
▁Val	-2442
iding	-2443
rated	-2444
▁1970	-2445
▁viol	-2446
▁goals	-2447
▁Michael	-2448
gypt	-2449
uation	-2450
▁think	-2451
▁winds	-2452
▁Sm	-2453
▁Squ	-2454
heast	-2455
▁diss	-2456
▁above	-2457
▁civil	-2458
▁invest	-2459
▁increased	-2460
▁£	-2461
▁Fe	-2462
hens	-2463
▁Hel	-2464
▁pers	-2465
▁Egypt	-2466
▁previously	-2467
wh	-2468
itz	-2469
ula	-2470
pper	-2471
▁Desp	-2472
▁Thom	-2473
▁soon	-2474
▁replaced	-2475
▁commercial	-2476
asion	-2477
ributed	-2478
▁Richard	-2479
BC	-2480
gl	-2481
▁Ac	-2482
▁Ag	-2483
▁Gr	-2484
▁App	-2485
▁ask	-2486
erved	-2487
▁must	-2488
▁Super	-2489
▁maint	-2490
▁business	-2491
▁interview	-2492
onc	-2493
ste	-2494
olic	-2495
▁Whe	-2496
▁pain	-2497
▁clear	-2498
ription	-2499
▁Despite	-2500
abit	-2501
▁Dep	-2502
▁Que	-2503
osing	-2504
▁Corp	-2505
▁Brown	-2506
▁writer	-2507
▁quarter	-2508
▁°	-2509
ming	-2510
▁unc	-2511
▁2000	-2512
▁Mont	-2513
▁trib	-2514
▁Henry	-2515
▁threat	-2516
AF	-2517
▁Os	-2518
ania	-2519
oney	-2520
▁mph	-2521
atory	-2522
▁units	-2523
▁Canada	-2524
▁estimated	-2525
iff	-2526
ulf	-2527
aker	-2528
▁pen	-2529
▁1990	-2530
▁court	-2531
ibility	-2532
▁Oldham	-2533
▁specific	-2534
▁36	-2535
face	-2536
▁pur	-2537
acing	-2538
▁react	-2539
▁joined	-2540
▁claimed	-2541
▁highest	-2542
▁Japanese	-2543
men	-2544
band	-2545
ching	-2546
ulated	-2547
▁Carol	-2548
▁Times	-2549
▁contr	-2550
ecutive	-2551
▁placed	-2552
▁involved	-2553
▁President	-2554
for	-2555
▁Sun	-2556
▁fly	-2557
▁priv	-2558
▁Govern	-2559
▁signed	-2560
▁western	-2561
▁suggested	-2562
leg	-2563
▁45	-2564
▁183	-2565
▁Mos	-2566
▁syn	-2567
elled	-2568
▁parts	-2569
▁My	-2570
▁Card	-2571
▁Gold	-2572
▁India	-2573
▁intens	-2574
▁Olivier	-2575
▁tru	-2576
thlet	-2577
▁hous	-2578
▁Later	-2579
▁Vietn	-2580
▁School	-2581
▁change	-2582
▁itself	-2583
▁league	-2584
▁proper	-2585
mb	-2586
anna	-2587
▁don	-2588
▁esp	-2589
▁inj	-2590
▁rap	-2591
▁Cong	-2592
▁Hall	-2593
▁shot	-2594
▁Irish	-2595
▁Mexico	-2596
▁average	-2597
ume	-2598
▁Not	-2599
▁hard	-2600
▁taking	-2601
▁available	-2602
urg	-2603
▁ey	-2604
ready	-2605
ronic	-2606
▁break	-2607
▁scene	-2608
▁except	-2609
▁brother	-2610
▁transfer	-2611
▁transport	-2612
▁introduced	-2613
▁Pac	-2614
▁hit	-2615
▁heav	-2616
▁whose	-2617
▁village	-2618
▁recording	-2619
▁Var	-2620
▁Star	-2621
▁race	-2622
▁rail	-2623
▁stop	-2624
▁wood	-2625
porary	-2626
▁Thomas	-2627
▁subject	-2628
go	-2629
rd	-2630
▁60	-2631
▁grad	-2632
▁phys	-2633
▁slow	-2634
▁approx	-2635
▁religious	-2636
▁fr	-2637
▁gra	-2638
▁mem	-2639
achel	-2640
▁educ	-2641
▁network	-2642
▁NY	-2643
▁abs	-2644
▁1960	-2645
▁nine	-2646
▁told	-2647
▁names	-2648
▁remov	-2649
▁shows	-2650
▁Britain	-2651
▁damaged	-2652
iqu	-2653
▁cru	-2654
arily	-2655
▁piec	-2656
▁test	-2657
▁Scient	-2658
▁social	-2659
▁turned	-2660
▁capital	-2661
▁Republic	-2662
▁independ	-2663
▁increasing	-2664
gu	-2665
▁Po	-2666
▁ap	-2667
enes	-2668
▁cal	-2669
▁That	-2670
▁chap	-2671
▁give	-2672
▁Great	-2673
▁lines	-2674
oration	-2675
▁Guitar	-2676
▁Hurricane	-2677
▁structure	-2678
aled	-2679
▁Ant	-2680
▁Many	-2681
▁feel	-2682
▁determ	-2683
▁nearly	-2684
▁despite	-2685
▁appointed	-2686
odies	-2687
▁Zeal	-2688
▁cycl	-2689
▁size	-2690
▁Union	-2691
▁complet	-2692
▁community	-2693
▁?	-2694
hib	-2695
▁La	-2696
ateg	-2697
rang	-2698
▁184	-2699
▁Art	-2700
▁den	-2701
▁bill	-2702
▁date	-2703
▁liter	-2704
▁econom	-2705
▁passed	-2706
▁surround	-2707
▁international	-2708
irt	-2709
oul	-2710
bert	-2711
rian	-2712
▁fut	-2713
inese	-2714
hedral	-2715
▁debut	-2716
▁might	-2717
▁occup	-2718
▁score	-2719
▁withd	-2720
ecially	-2721
osaurus	-2722
▁immedi	-2723
▁certain	-2724
▁establish	-2725
▁initially	-2726
▁Ma	-2727
lict	-2728
▁cas	-2729
▁pot	-2730
▁tow	-2731
▁Ever	-2732
▁deal	-2733
▁disp	-2734
▁going	-2735
▁archae	-2736
▁assist	-2737
▁Pacific	-2738
▁already	-2739
▁winning	-2740
▁particip	-2741
▁Early	-2742
ication	-2743
▁failed	-2744
▁states	-2745
▁Chinese	-2746
▁Zealand	-2747
ha	-2748
rag	-2749
fect	-2750
ires	-2751
▁Don	-2752
▁Jin	-2753
▁doc	-2754
▁male	-2755
▁rain	-2756
ability	-2757
▁forest	-2758
▁language	-2759
▁probably	-2760
▁training	-2761
▁according	-2762
▁especially	-2763
den	-2764
▁Dr	-2765
▁key	-2766
▁2002	-2767
▁Cath	-2768
▁Sing	-2769
▁food	-2770
▁issue	-2771
▁minor	-2772
▁depict	-2773
ification	-2774
nel	-2775
▁III	-2776
▁Law	-2777
▁Pri	-2778
▁aut	-2779
▁Film	-2780
▁daugh	-2781
▁studio	-2782
ady	-2783
▁Tom	-2784
▁Peter	-2785
▁spent	-2786
ference	-2787
▁History	-2788
▁Wheeler	-2789
▁arrived	-2790
▁forward	-2791
▁ordered	-2792
▁includes	-2793
aut	-2794
aval	-2795
ises	-2796
ship	-2797
▁Sch	-2798
stein	-2799
▁army	-2800
▁Angel	-2801
▁block	-2802
▁visit	-2803
ilities	-2804
▁Awards	-2805
▁enough	-2806
▁Canadian	-2807
▁remaining	-2808
onse	-2809
ties	-2810
▁dro	-2811
▁Navy	-2812
▁fail	-2813
▁mixed	-2814
▁sometimes	-2815
zz	-2816
lor	-2817
owl	-2818
▁UK	-2819
▁di	-2820
back	-2821
▁Soc	-2822
▁Ter	-2823
▁Rose	-2824
▁come	-2825
▁Associ	-2826
▁reviews	-2827
▁complete	-2828
▁required	-2829
▁approximately	-2830
quar	-2831
rics	-2832
▁imm	-2833
orial	-2834
ranch	-2835
▁Creek	-2836
▁lower	-2837
▁touch	-2838
▁center	-2839
▁latter	-2840
to	-2841
lymp	-2842
▁Inf	-2843
▁Mer	-2844
▁Met	-2845
▁Penn	-2846
▁Africa	-2847
▁remain	-2848
▁beginning	-2849
down	-2850
inct	-2851
▁Hol	-2852
inist	-2853
stant	-2854
▁Olymp	-2855
▁Virgin	-2856
etic	-2857
▁sem	-2858
▁Stud	-2859
▁journ	-2860
▁woman	-2861
▁limited	-2862
▁prevent	-2863
▁decision	-2864
edy	-2865
▁38	-2866
iest	-2867
rack	-2868
under	-2869
▁dead	-2870
▁happ	-2871
▁better	-2872
▁changes	-2873
▁usually	-2874
▁Regiment	-2875
▁students	-2876
▁additional	-2877
aby	-2878
▁Je	-2879
▁emb	-2880
▁Nort	-2881
▁Rout	-2882
▁stay	-2883
▁Rachel	-2884
▁running	-2885
▁response	-2886
▁president	-2887
▁sch	-2888
adron	-2889
▁Scott	-2890
▁ended	-2891
▁larger	-2892
▁concern	-2893
▁positive	-2894
gar	-2895
▁80	-2896
▁TV	-2897
erat	-2898
▁type	-2899
▁Award	-2900
▁quest	-2901
▁mention	-2902
▁magazine	-2903
▁supported	-2904
ios	-2905
uals	-2906
▁Jer	-2907
▁Fort	-2908
▁notes	-2909
▁prior	-2910
▁police	-2911
▁Charles	-2912
▁pressure	-2913
▁depression	-2914
oor	-2915
enty	-2916
reak	-2917
▁wide	-2918
▁birds	-2919
▁birth	-2920
▁compl	-2921
▁amount	-2922
▁1995	-2923
▁shown	-2924
▁related	-2925
▁Billboard	-2926
▁75	-2927
rief	-2928
▁face	-2929
uments	-2930
▁fifth	-2931
▁future	-2932
▁feature	-2933
rat	-2934
▁Hot	-2935
aring	-2936
▁1980	-2937
▁appl	-2938
▁Under	-2939
▁provide	-2940
▁defeated	-2941
ani	-2942
com	-2943
ils	-2944
arts	-2945
▁anc	-2946
▁che	-2947
▁der	-2948
▁Camp	-2949
▁Hill	-2950
▁staff	-2951
▁discovered	-2952
ifa	-2953
▁Sy	-2954
bers	-2955
▁Pat	-2956
▁Res	-2957
▁sat	-2958
▁sil	-2959
▁Oper	-2960
▁Route	-2961
▁temper	-2962
▁section	-2963
hou	-2964
ney	-2965
▁FI	-2966
▁cm	-2967
enon	-2968
▁Bel	-2969
ishop	-2970
riage	-2971
▁doll	-2972
▁Frank	-2973
▁frequ	-2974
▁Western	-2975
▁becoming	-2976
oo	-2977
gely	-2978
rael	-2979
eding	-2980
▁word	-2981
▁Colle	-2982
▁Light	-2983
key	-2984
oke	-2985
oys	-2986
▁Rh	-2987
ands	-2988
▁vot	-2989
ector	-2990
▁Arab	-2991
▁Wood	-2992
▁exam	-2993
▁smaller	-2994
uf	-2995
raw	-2996
unt	-2997
itte	-2998
▁Tur	-2999
▁flow	-3000
▁idea	-3001
idents	-3002
▁colon	-3003
▁domin	-3004
▁groups	-3005
▁screen	-3006
▁percent	-3007
▁intended	-3008
▁Scientology	-3009
asy	-3010
well	-3011
▁fir	-3012
iforn	-3013
inent	-3014
▁Year	-3015
selves	-3016
▁Haifa	-3017
▁fleet	-3018
▁radio	-3019
▁metres	-3020
▁mostly	-3021
▁conclud	-3022
▁discuss	-3023
▁themselves	-3024
▁professional	-3025
era	-3026
gen	-3027
ses	-3028
ples	-3029
anies	-3030
▁2016	-3031
▁Russ	-3032
▁Croat	-3033
▁likely	-3034
▁minutes	-3035
▁musical	-3036
▁surface	-3037
▁captured	-3038
▁referred	-3039
cean	-3040
iano	-3041
uing	-3042
▁Mil	-3043
anish	-3044
imate	-3045
▁Over	-3046
▁Since	-3047
▁office	-3048
▁largely	-3049
▁problems	-3050
▁Parliament	-3051
▁Association	-3052
ror	-3053
▁Up	-3054
rain	-3055
▁How	-3056
▁lab	-3057
▁try	-3058
▁und	-3059
▁link	-3060
▁indic	-3061
▁media	-3062
▁Portug	-3063
▁contem	-3064
▁summer	-3065
quarters	-3066
▁entered	-3067
iser	-3068
▁Nic	-3069
▁Ott	-3070
▁Sov	-3071
▁Ver	-3072
▁ens	-3073
isions	-3074
orning	-3075
▁Earth	-3076
▁makes	-3077
▁shoot	-3078
▁Israel	-3079
▁moving	-3080
▁observ	-3081
▁broadcast	-3082
▁keep	-3083
▁pair	-3084
▁self	-3085
▁Californ	-3086
▁contains	-3087
▁constructed	-3088
lex	-3089
sen	-3090
▁Bey	-3091
▁Sam	-3092
▁inn	-3093
▁sea	-3094
▁1999	-3095
▁Inter	-3096
▁money	-3097
▁voice	-3098
▁Council	-3099
▁concept	-3100
iva	-3101
ylv	-3102
ruit	-3103
▁Haw	-3104
▁Sur	-3105
▁Ross	-3106
▁adop	-3107
▁cele	-3108
veston	-3109
▁paren	-3110
▁guitar	-3111
▁nature	-3112
▁effects	-3113
▁Galveston	-3114
kan	-3115
ergy	-3116
onym	-3117
▁1950	-3118
▁Chic	-3119
▁grant	-3120
▁Jewish	-3121
▁listed	-3122
▁ranked	-3123
▁stories	-3124
▁majority	-3125
het	-3126
hester	-3127
▁create	-3128
▁consist	-3129
▁research	-3130
▁experience	-3131
ma	-3132
▁70	-3133
▁cle	-3134
▁uns	-3135
urity	-3136
▁Brad	-3137
▁meth	-3138
▁favor	-3139
▁schol	-3140
▁leaving	-3141
▁critical	-3142
▁33	-3143
aven	-3144
ously	-3145
owler	-3146
▁Mart	-3147
▁thus	-3148
▁brief	-3149
▁earth	-3150
eratops	-3151
▁script	-3152
▁primary	-3153
▁controll	-3154
oud	-3155
anks	-3156
pool	-3157
rison	-3158
▁Serv	-3159
▁deep	-3160
▁gods	-3161
▁runs	-3162
ership	-3163
▁films	-3164
▁lived	-3165
▁agreed	-3166
▁always	-3167
▁lyrics	-3168
▁Another	-3169
▁underst	-3170
▁location	-3171
▁officers	-3172
▁ri	-3173
teen	-3174
▁rare	-3175
change	-3176
atively	-3177
ospital	-3178
▁launched	-3179
▁California	-3180
dle	-3181
▁Pet	-3182
▁ded	-3183
aches	-3184
lands	-3185
order	-3186
▁prem	-3187
illery	-3188
▁teams	-3189
▁minute	-3190
▁attract	-3191
▁counter	-3192
▁culture	-3193
▁quickly	-3194
▁Catholic	-3195
▁x	-3196
awn	-3197
ras	-3198
▁If	-3199
▁Mr	-3200
▁amb	-3201
▁Fore	-3202
▁Form	-3203
▁fans	-3204
▁meant	-3205
▁Chicago	-3206
▁episodes	-3207
▁occurred	-3208
▁proposed	-3209
lo	-3210
oir	-3211
▁lo	-3212
imum	-3213
▁400	-3214
▁Saint	-3215
▁adapt	-3216
▁access	-3217
▁whether	-3218
▁assigned	-3219
▁increase	-3220
AS	-3221
umn	-3222
▁32	-3223
▁Bec	-3224
▁Tre	-3225
▁hop	-3226
▁cann	-3227
▁cred	-3228
▁dram	-3229
▁poet	-3230
▁Latin	-3231
▁forms	-3232
▁defeat	-3233
▁appears	-3234
▁changed	-3235
▁product	-3236
▁traffic	-3237
▁destroyed	-3238
iant	-3239
▁Ben	-3240
▁Nix	-3241
▁asp	-3242
▁log	-3243
▁Arch	-3244
▁tons	-3245
▁Enter	-3246
▁trade	-3247
▁Battle	-3248
▁longer	-3249
▁Central	-3250
▁meaning	-3251
▁commission	-3252
ón	-3253
mas	-3254
rol	-3255
▁Ho	-3256
oned	-3257
▁Mey	-3258
▁job	-3259
▁mom	-3260
▁ran	-3261
anced	-3262
ortun	-3263
▁1940	-3264
▁Camb	-3265
▁Scot	-3266
undred	-3267
▁Alice	-3268
▁Sever	-3269
▁bound	-3270
▁nucle	-3271
▁princ	-3272
▁theme	-3273
▁numbers	-3274
▁soldiers	-3275
▁competition	-3276
ex	-3277
▁Dj	-3278
▁Tex	-3279
▁kil	-3280
thing	-3281
▁Ital	-3282
▁acqu	-3283
▁bomb	-3284
▁girl	-3285
▁focus	-3286
▁leave	-3287
▁newsp	-3288
▁reach	-3289
▁awarded	-3290
▁carried	-3291
▁Northern	-3292
tar	-3293
▁300	-3294
▁1998	-3295
▁concert	-3296
▁private	-3297
▁consider	-3298
▁daughter	-3299
▁conducted	-3300
NA	-3301
ows	-3302
▁90	-3303
▁Tw	-3304
anas	-3305
rown	-3306
▁Jam	-3307
▁env	-3308
ening	-3309
▁Second	-3310
▁natural	-3311
▁overall	-3312
▁records	-3313
▁subsequently	-3314
▁BC	-3315
cing	-3316
imin	-3317
▁Del	-3318
▁Tra	-3319
▁deg	-3320
▁1930	-3321
▁anti	-3322
▁dism	-3323
▁emer	-3324
usband	-3325
▁Alkan	-3326
▁Liver	-3327
▁Villa	-3328
▁cause	-3329
▁plans	-3330
▁thick	-3331
▁tourn	-3332
itation	-3333
▁fighting	-3334
ga	-3335
bar	-3336
eds	-3337
lin	-3338
itor	-3339
▁box	-3340
▁lay	-3341
▁sus	-3342
▁ult	-3343
itude	-3344
▁1993	-3345
▁kind	-3346
▁rein	-3347
ective	-3348
▁graph	-3349
▁takes	-3350
▁whole	-3351
▁Polish	-3352
▁double	-3353
▁election	-3354
▁industry	-3355
▁commented	-3356
▁influence	-3357
▁+	-3358
ken	-3359
▁Tay	-3360
▁Minn	-3361
▁Tour	-3362
▁Nixon	-3363
▁asked	-3364
▁bring	-3365
▁finally	-3366
▁serious	-3367
▁Liverpool	-3368
▁Its	-3369
▁dig	-3370
▁jud	-3371
▁tar	-3372
alled	-3373
▁Georg	-3374
▁throw	-3375
▁upper	-3376
stitute	-3377
▁Somers	-3378
▁centre	-3379
▁ending	-3380
▁method	-3381
▁greater	-3382
▁compared	-3383
ny	-3384
olk	-3385
▁47	-3386
ells	-3387
▁Mal	-3388
ittee	-3389
▁Back	-3390
▁Lady	-3391
▁done	-3392
istics	-3393
itting	-3394
▁Texas	-3395
▁party	-3396
▁purch	-3397
ologist	-3398
▁accomp	-3399
▁flight	-3400
▁reject	-3401
▁unable	-3402
▁married	-3403
▁positions	-3404
II	-3405
▁39	-3406
aily	-3407
alys	-3408
ging	-3409
▁Hum	-3410
▁big	-3411
▁our	-3412
▁Foot	-3413
▁rapid	-3414
▁Mosley	-3415
▁market	-3416
▁Somerset	-3417
▁personal	-3418
▁standard	-3419
▁buildings	-3420
agon	-3421
▁Rob	-3422
▁Sol	-3423
▁got	-3424
▁yet	-3425
▁Vict	-3426
▁books	-3427
▁earned	-3428
▁Tropical	-3429
TV	-3430
▁Out	-3431
▁mor	-3432
▁1996	-3433
▁Cour	-3434
▁Tenn	-3435
▁dark	-3436
▁hero	-3437
▁phot	-3438
▁Busch	-3439
▁Three	-3440
▁begins	-3441
▁issued	-3442
▁living	-3443
▁collect	-3444
▁conflict	-3445
ada	-3446
car	-3447
ria	-3448
▁Bob	-3449
▁Fin	-3450
▁Sal	-3451
▁dom	-3452
▁mur	-3453
aught	-3454
▁Lake	-3455
▁terms	-3456
▁marked	-3457
▁directly	-3458
▁traditional	-3459
umed	-3460
▁sal	-3461
athan	-3462
house	-3463
▁aband	-3464
▁Taylor	-3465
▁health	-3466
▁scenes	-3467
▁status	-3468
▁African	-3469
▁Spanish	-3470
▁marriage	-3471
▁movement	-3472
▁Christmas	-3473
rey	-3474
bery	-3475
▁path	-3476
▁Fowler	-3477
▁figure	-3478
▁helped	-3479
▁slight	-3480
▁Command	-3481
▁Several	-3482
adm	-3483
aded	-3484
eway	-3485
itch	-3486
odon	-3487
▁Dem	-3488
▁Lou	-3489
▁pil	-3490
embly	-3491
rical	-3492
▁norm	-3493
▁Cross	-3494
▁Storm	-3495
▁sched	-3496
▁batter	-3497
▁experi	-3498
▁attacks	-3499
▁planned	-3500
▁schools	-3501
▁starting	-3502
▁suffered	-3503
▁information	-3504
anz	-3505
▁rh	-3506
bury	-3507
▁Ill	-3508
▁Nor	-3509
▁lif	-3510
▁Just	-3511
▁Soviet	-3512
▁giving	-3513
▁source	-3514
▁husband	-3515
▁Infantry	-3516
▁inspired	-3517
▁associated	-3518
▁performances	-3519
ien	-3520
cend	-3521
ibly	-3522
ounds	-3523
▁Cont	-3524
▁Jane	-3525
▁plot	-3526
▁Party	-3527
▁closed	-3528
▁transl	-3529
▁condoms	-3530
▁initial	-3531
▁machine	-3532
▁division	-3533
▁presented	-3534
imb	-3535
▁Go	-3536
atre	-3537
ican	-3538
▁Inn	-3539
▁via	-3540
▁room	-3541
tation	-3542
▁Trans	-3543
▁image	-3544
▁polic	-3545
▁Series	-3546
▁raised	-3547
▁greatest	-3548
▁presence	-3549
▁education	-3550
olf	-3551
uff	-3552
▁42	-3553
ares	-3554
erve	-3555
like	-3556
sylv	-3557
▁Six	-3558
▁Tem	-3559
▁pay	-3560
orpor	-3561
▁Cast	-3562
▁Club	-3563
▁Long	-3564
▁fell	-3565
▁susp	-3566
▁unit	-3567
▁uses	-3568
▁Paris	-3569
▁chall	-3570
ections	-3571
▁inters	-3572
▁nearby	-3573
▁hundred	-3574
▁writers	-3575
▁Carolina	-3576
▁Pennsylv	-3577
▁Virginia	-3578
▁continue	-3579
▁document	-3580
án	-3581
iami	-3582
rate	-3583
▁Ram	-3584
iated	-3585
▁Live	-3586
▁park	-3587
▁prep	-3588
▁complex	-3589
▁covered	-3590
▁cyclone	-3591
▁collection	-3592
zy	-3593
rid	-3594
essa	-3595
▁enj	-3596
imony	-3597
inner	-3598
itect	-3599
▁Acad	-3600
▁Mill	-3601
▁talk	-3602
▁weap	-3603
▁Meyer	-3604
▁Queen	-3605
▁habit	-3606
▁space	-3607
▁annual	-3608
▁conver	-3609
▁College	-3610
▁composed	-3611
▁services	-3612
iny	-3613
oncé	-3614
▁sev	-3615
ether	-3616
▁1997	-3617
▁Water	-3618
▁metal	-3619
▁bodies	-3620
▁really	-3621
▁waters	-3622
▁Beyoncé	-3623
▁figures	-3624
▁extended	-3625
▁numerous	-3626
▁producer	-3627
▁cathedral	-3628
▁commander	-3629
▁territory	-3630
een	-3631
▁Lo	-3632
anta	-3633
pted	-3634
tain	-3635
▁Dam	-3636
▁Dan	-3637
▁hot	-3638
ports	-3639
uries	-3640
▁Jose	-3641
▁Miami	-3642
▁Museum	-3643
▁things	-3644
▁vocals	-3645
▁Germany	-3646
▁proteins	-3647
▁something	-3648
▁individual	-3649
ev	-3650
ped	-3651
▁44	-3652
ipal	-3653
ricket	-3654
▁Games	-3655
▁Their	-3656
▁artist	-3657
▁financ	-3658
▁necess	-3659
▁Nations	-3660
▁investig	-3661
▁operation	-3662
apo	-3663
uit	-3664
▁Er	-3665
▁saf	-3666
▁tax	-3667
▁pick	-3668
▁Somal	-3669
estival	-3670
▁detail	-3671
▁highly	-3672
▁impact	-3673
▁Service	-3674
▁Through	-3675
▁morning	-3676
▁request	-3677
▁attacked	-3678
▁attempts	-3679
▁strength	-3680
▁companies	-3681
ado	-3682
ding	-3683
omer	-3684
pole	-3685
▁Cer	-3686
▁Gar	-3687
▁bad	-3688
▁era	-3689
adium	-3690
▁Crit	-3691
▁dise	-3692
▁symb	-3693
▁vers	-3694
admium	-3695
vement	-3696
▁speed	-3697
▁confir	-3698
ribution	-3699
▁recover	-3700
▁interact	-3701
▁artillery	-3702
▁immediately	-3703
▁Pennsylvania	-3704
▁AI	-3705
▁Li	-3706
isher	-3707
track	-3708
▁Cons	-3709
▁plat	-3710
▁purs	-3711
▁spir	-3712
atives	-3713
▁Major	-3714
▁piano	-3715
▁stone	-3716
isation	-3717
▁celebr	-3718
▁tracks	-3719
▁Jackson	-3720
▁kilomet	-3721
▁nuclear	-3722
▁removed	-3723
▁Squadron	-3724
▁allowing	-3725
▁distance	-3726
▁powerful	-3727
▁situation	-3728
hic	-3729
▁51	-3730
iple	-3731
onna	-3732
aging	-3733
andid	-3734
▁kick	-3735
▁purp	-3736
▁rate	-3737
▁blood	-3738
▁Victor	-3739
▁inside	-3740
▁intern	-3741
▁needed	-3742
▁peaked	-3743
▁search	-3744
▁secret	-3745
▁sexual	-3746
▁advance	-3747
▁friends	-3748
▁offered	-3749
▁studies	-3750
▁variety	-3751
▁Scotland	-3752
▁selected	-3753
oura	-3754
rial	-3755
▁182	-3756
▁Bet	-3757
▁Los	-3758
▁Rad	-3759
▁Sir	-3760
izing	-3761
▁1991	-3762
▁Both	-3763
▁mole	-3764
▁prec	-3765
▁stra	-3766
▁text	-3767
▁Chris	-3768
▁coach	-3769
▁means	-3770
▁copies	-3771
▁native	-3772
▁Football	-3773
▁attempted	-3774
▁countries	-3775
▁headquarters	-3776
ims	-3777
▁Land	-3778
▁Open	-3779
▁rule	-3780
▁China	-3781
▁hands	-3782
▁advant	-3783
▁casual	-3784
▁widely	-3785
▁scoring	-3786
▁responsible	-3787
▁respectively	-3788
aen	-3789
alty	-3790
hood	-3791
send	-3792
ware	-3793
▁ang	-3794
▁har	-3795
▁max	-3796
annel	-3797
▁Alex	-3798
▁sets	-3799
▁genus	-3800
▁grand	-3801
▁extrem	-3802
▁higher	-3803
▁Anderson	-3804
▁describes	-3805
▁touchdown	-3806
▁Department	-3807
▁controvers	-3808
▁appearances	-3809
hew	-3810
aped	-3811
ends	-3812
iron	-3813
▁Are	-3814
▁Off	-3815
▁1992	-3816
▁Post	-3817
▁canc	-3818
▁magn	-3819
▁Braat	-3820
▁Corps	-3821
▁lands	-3822
▁course	-3823
▁middle	-3824
▁constit	-3825
▁heavily	-3826
▁observed	-3827
MS	-3828
me	-3829
vin	-3830
rane	-3831
▁Bre	-3832
▁Nes	-3833
▁Rev	-3834
▁ess	-3835
ellig	-3836
illed	-3837
shire	-3838
▁1994	-3839
▁Time	-3840
▁seem	-3841
▁adult	-3842
▁below	-3843
▁enjoy	-3844
▁sixth	-3845
▁xenon	-3846
▁compos	-3847
▁relief	-3848
▁display	-3849
▁meeting	-3850
▁reduced	-3851
▁administ	-3852
▁37	-3853
▁48	-3854
▁76	-3855
esota	-3856
force	-3857
light	-3858
umber	-3859
▁Like	-3860
▁Midd	-3861
▁blue	-3862
▁jump	-3863
▁active	-3864
▁singer	-3865
ulations	-3866
▁matches	-3867
▁audience	-3868
▁opportun	-3869
▁resulted	-3870
▁Minnesota	-3871
▁concluded	-3872
isk	-3873
▁Cor	-3874
▁Emp	-3875
▁Pit	-3876
▁hol	-3877
akapo	-3878
inkel	-3879
rance	-3880
uated	-3881
▁Capt	-3882
▁corn	-3883
▁hour	-3884
▁true	-3885
▁wing	-3886
▁Smith	-3887
▁paper	-3888
▁shell	-3889
▁instit	-3890
▁activity	-3891
▁activities	-3892
▁completely	-3893
isl	-3894
ris	-3895
▁pu	-3896
room	-3897
utch	-3898
▁Bol	-3899
▁Jul	-3900
▁Sea	-3901
▁cer	-3902
athus	-3903
▁bene	-3904
▁Green	-3905
▁Hawai	-3906
▁Center	-3907
▁disapp	-3908
▁Italian	-3909
▁Meyerbe	-3910
▁managed	-3911
▁stating	-3912
▁Rosebery	-3913
▁Southern	-3914
▁Townsend	-3915
▁question	-3916
▁revealed	-3917
▁contemporary	-3918
ād	-3919
ift	-3920
▁Ka	-3921
▁Fur	-3922
▁Jim	-3923
ipped	-3924
▁Dist	-3925
▁drum	-3926
ounded	-3927
▁trees	-3928
▁Nicole	-3929
▁levels	-3930
ervation	-3931
▁quality	-3932
▁refused	-3933
▁declared	-3934
▁separate	-3935
▁Meyerbeer	-3936
bed	-3937
bird	-3938
rowd	-3939
▁pun	-3940
acher	-3941
▁Conf	-3942
ecting	-3943
▁Force	-3944
▁brown	-3945
▁Finkel	-3946
▁Because	-3947
▁Thunder	-3948
▁Walpole	-3949
▁approach	-3950
▁contrast	-3951
▁Finkelstein	-3952
▁Do	-3953
▁du	-3954
ingu	-3955
▁150	-3956
▁Cat	-3957
▁Yue	-3958
▁lot	-3959
estic	-3960
peror	-3961
stone	-3962
▁webs	-3963
▁Shiva	-3964
▁Tessa	-3965
▁carry	-3966
▁model	-3967
▁today	-3968
▁vocal	-3969
▁recent	-3970
▁parents	-3971
▁respond	-3972
▁featuring	-3973
▁reception	-3974
▁typically	-3975
▁background	-3976
▁historical	-3977
▁university	-3978
aha	-3979
gal	-3980
▁52	-3981
hold	-3982
road	-3983
▁Pre	-3984
▁Sar	-3985
▁pow	-3986
anger	-3987
itual	-3988
▁Blue	-3989
▁Wild	-3990
▁beat	-3991
▁chem	-3992
▁emot	-3993
▁hair	-3994
▁walk	-3995
orship	-3996
▁Charl	-3997
▁displ	-3998
▁peace	-3999
▁plays	-4000
▁vehic	-4001
▁Illino	-4002
▁issues	-4003
▁nation	-4004
▁Ottoman	-4005
▁Society	-4006
▁actions	-4007
▁expected	-4008
▁conditions	-4009
FA	-4010
ka	-4011
▁Ro	-4012
iled	-4013
ogue	-4014
ying	-4015
▁Hal	-4016
▁inh	-4017
▁roy	-4018
arent	-4019
▁Balt	-4020
▁Spec	-4021
▁rear	-4022
▁famil	-4023
▁houses	-4024
▁mainly	-4025
▁weaken	-4026
▁assault	-4027
▁becomes	-4028
▁efforts	-4029
▁attention	-4030
ype	-4031
▁34	-4032
▁Av	-4033
▁Om	-4034
ocks	-4035
▁Des	-4036
▁mel	-4037
usion	-4038
▁Adam	-4039
▁Turn	-4040
▁wear	-4041
eption	-4042
▁Court	-4043
▁Franc	-4044
▁draft	-4045
▁instr	-4046
▁offer	-4047
essions	-4048
▁specim	-4049
▁strugg	-4050
▁Highway	-4051
▁Braathens	-4052
▁residents	-4053
BA	-4054
bon	-4055
ocr	-4056
emic	-4057
oses	-4058
▁Arg	-4059
▁Tod	-4060
ufact	-4061
▁Burn	-4062
▁Hait	-4063
▁elev	-4064
▁sense	-4065
▁athlet	-4066
▁recomm	-4067
▁titles	-4068
▁calling	-4069
▁demonst	-4070
▁protein	-4071
▁actually	-4072
▁soundtrack	-4073
edo	-4074
▁sn	-4075
enge	-4076
▁Def	-4077
ledge	-4078
▁poly	-4079
onents	-4080
▁board	-4081
▁crowd	-4082
▁roles	-4083
▁thous	-4084
▁write	-4085
▁Columb	-4086
▁Little	-4087
▁altern	-4088
▁cannot	-4089
▁defend	-4090
▁struck	-4091
▁Johnson	-4092
▁seasons	-4093
▁accepted	-4094
▁achieved	-4095
▁Portugues	-4096
▁architect	-4097
▁Government	-4098
ipl	-4099
iro	-4100
ply	-4101
▁Of	-4102
anes	-4103
berg	-4104
▁Fam	-4105
▁Fey	-4106
▁Mog	-4107
▁nin	-4108
▁thr	-4109
cript	-4110
pping	-4111
▁resc	-4112
alysis	-4113
ension	-4114
utions	-4115
▁fruit	-4116
▁types	-4117
▁scient	-4118
ications	-4119
▁Vietnam	-4120
▁practice	-4121
▁Portuguese	-4122
wen	-4123
▁lb	-4124
roll	-4125
▁181	-4126
▁Add	-4127
▁Mat	-4128
▁cam	-4129
▁dyn	-4130
anded	-4131
echan	-4132
eller	-4133
▁scul	-4134
anning	-4135
▁Spain	-4136
▁avoid	-4137
▁rough	-4138
▁Secret	-4139
irection	-4140
▁Academy	-4141
▁fiction	-4142
▁distinct	-4143
▁infantry	-4144
▁sequence	-4145
▁primarily	-4146
iles	-4147
▁Fer	-4148
▁1986	-4149
▁Book	-4150
▁Tint	-4151
▁Civil	-4152
▁Group	-4153
▁Young	-4154
▁owned	-4155
▁plant	-4156
▁sales	-4157
▁Engine	-4158
▁combat	-4159
▁spread	-4160
▁twenty	-4161
▁elected	-4162
▁slightly	-4163
met	-4164
use	-4165
▁Es	-4166
▁Ann	-4167
▁suc	-4168
ograp	-4169
▁Sarn	-4170
▁Wels	-4171
▁sust	-4172
ceeded	-4173
▁Horse	-4174
▁Louis	-4175
▁extra	-4176
▁heart	-4177
▁scale	-4178
▁sport	-4179
onymous	-4180
▁Prince	-4181
▁county	-4182
▁inches	-4183
▁rights	-4184
▁sister	-4185
▁Captain	-4186
▁concent	-4187
▁affected	-4188
▁expressed	-4189
▁northeast	-4190
▁offensive	-4191
AA	-4192
ols	-4193
ora	-4194
▁180	-4195
▁Att	-4196
▁Che	-4197
▁Dou	-4198
▁Tri	-4199
▁mis	-4200
▁ple	-4201
right	-4202
ushed	-4203
▁Nesb	-4204
▁farm	-4205
▁sout	-4206
▁Welsh	-4207
▁neigh	-4208
▁words	-4209
▁Review	-4210
▁Tintin	-4211
▁showed	-4212
▁officer	-4213
▁progress	-4214
igg	-4215
▁hy	-4216
igan	-4217
mond	-4218
orus	-4219
▁Adm	-4220
▁Sil	-4221
anasi	-4222
astic	-4223
▁Manc	-4224
▁Zhou	-4225
mitted	-4226
▁Ceres	-4227
▁excav	-4228
▁Andrew	-4229
▁Empire	-4230
▁Though	-4231
▁themes	-4232
ironment	-4233
▁ability	-4234
▁Varanasi	-4235
▁combined	-4236
▁battalion	-4237
▁newspaper	-4238
ovic	-4239
rect	-4240
▁Fred	-4241
▁mess	-4242
▁qual	-4243
▁Apple	-4244
▁Odaen	-4245
▁horse	-4246
▁Commun	-4247
▁square	-4248
▁titled	-4249
▁Nesbitt	-4250
▁portray	-4251
▁cultural	-4252
▁casualties	-4253
▁49	-4254
▁ox	-4255
aine	-4256
▁Eva	-4257
▁Tru	-4258
▁Way	-4259
while	-4260
▁says	-4261
▁cerem	-4262
▁grass	-4263
▁reign	-4264
▁murder	-4265
▁remark	-4266
▁Angeles	-4267
▁ancient	-4268
▁produce	-4269
▁Illinois	-4270
▁earliest	-4271
▁mountain	-4272
▁continues	-4273
▁mentioned	-4274
▁Odaenathus	-4275
Mont	-4276
etts	-4277
inus	-4278
laim	-4279
nown	-4280
oper	-4281
osen	-4282
▁Boy	-4283
▁Cra	-4284
▁Jos	-4285
enant	-4286
ented	-4287
▁1920	-4288
▁Wash	-4289
orpedo	-4290
▁Mogad	-4291
▁actor	-4292
▁fully	-4293
▁print	-4294
▁Direct	-4295
▁DuMont	-4296
▁Sarnia	-4297
▁narrow	-4298
▁Olympic	-4299
▁Records	-4300
▁adopted	-4301
▁artists	-4302
▁disease	-4303
▁mission	-4304
▁flooding	-4305
▁manufact	-4306
▁advantage	-4307
▁resulting	-4308
▁influenced	-4309
▁authorities	-4310
▁championship	-4311
ura	-4312
▁65	-4313
▁Cap	-4314
▁spl	-4315
▁Prot	-4316
▁nest	-4317
▁wild	-4318
▁Colon	-4319
▁Perón	-4320
▁basis	-4321
▁legal	-4322
▁reports	-4323
▁represented	-4324
asc	-4325
▁NC	-4326
ella	-4327
helm	-4328
lies	-4329
mark	-4330
▁Pop	-4331
▁agg	-4332
lings	-4333
▁News	-4334
▁Week	-4335
▁bott	-4336
▁mile	-4337
▁alone	-4338
▁begin	-4339
▁exhib	-4340
▁sides	-4341
▁tower	-4342
▁Middle	-4343
▁bridge	-4344
▁candid	-4345
▁coming	-4346
▁toward	-4347
▁defense	-4348
▁letters	-4349
▁viewers	-4350
▁apparent	-4351
▁withdraw	-4352
▁Manchester	-4353
▁tournament	-4354
▁Thunderbird	-4355
bit	-4356
▁SR	-4357
ancy	-4358
writ	-4359
▁Lar	-4360
▁hun	-4361
▁rat	-4362
▁Four	-4363
▁Home	-4364
▁Horn	-4365
▁Clark	-4366
▁Ocean	-4367
▁armed	-4368
▁effort	-4369
▁illust	-4370
▁kakapo	-4371
▁yellow	-4372
▁founded	-4373
▁torpedo	-4374
▁workers	-4375
▁occasion	-4376
▁alongside	-4377
▁direction	-4378
▁northwest	-4379
▁Washington	-4380
▁relatively	-4381
ala	-4382
lam	-4383
aith	-4384
bour	-4385
iana	-4386
lers	-4387
▁Max	-4388
▁Van	-4389
▁adj	-4390
▁sac	-4391
ulate	-4392
▁1988	-4393
▁emph	-4394
▁hors	-4395
▁rang	-4396
ricult	-4397
▁tried	-4398
▁losing	-4399
▁mechan	-4400
▁cadmium	-4401
▁capture	-4402
▁contact	-4403
▁contain	-4404
▁edition	-4405
▁univers	-4406
▁attended	-4407
▁physical	-4408
▁organized	-4409
▁officially	-4410
▁individuals	-4411
▁transferred	-4412
lim	-4413
▁Hu	-4414
adel	-4415
gend	-4416
▁Sum	-4417
▁ast	-4418
abama	-4419
ental	-4420
prise	-4421
▁Mass	-4422
▁Mean	-4423
▁neut	-4424
▁Omaha	-4425
▁behav	-4426
▁Joseph	-4427
▁acting	-4428
▁perman	-4429
▁proved	-4430
▁winter	-4431
▁Alabama	-4432
▁measure	-4433
▁pattern	-4434
▁require	-4435
▁Mogadish	-4436
▁rainfall	-4437
▁dedicated	-4438
▁officials	-4439
▁surrounding	-4440
can	-4441
che	-4442
▁64	-4443
▁Bu	-4444
▁MD	-4445
inem	-4446
rong	-4447
uous	-4448
▁Arm	-4449
▁Sen	-4450
imore	-4451
▁Dest	-4452
▁Kent	-4453
▁edge	-4454
▁doing	-4455
▁feder	-4456
▁lives	-4457
▁Edward	-4458
▁couple	-4459
▁energy	-4460
ij	-4461
azz	-4462
ibr	-4463
onn	-4464
▁46	-4465
▁wa	-4466
iate	-4467
izes	-4468
▁Fant	-4469
▁Gall	-4470
▁Lord	-4471
▁folk	-4472
▁mind	-4473
itness	-4474
▁Helms	-4475
▁Innis	-4476
▁chief	-4477
▁shape	-4478
▁dissip	-4479
▁prepar	-4480
▁divided	-4481
▁follows	-4482
▁shortly	-4483
▁society	-4484
▁Independ	-4485
▁function	-4486
▁possibly	-4487
▁Mogadishu	-4488
▁Reception	-4489
▁financial	-4490
▁intensity	-4491
▁designated	-4492
RA	-4493
▁Bh	-4494
kare	-4495
▁Lis	-4496
▁eye	-4497
▁1964	-4498
▁Bowl	-4499
▁Prem	-4500
▁paid	-4501
▁repe	-4502
▁youn	-4503
▁your	-4504
▁Journ	-4505
▁faced	-4506
▁older	-4507
▁Argent	-4508
▁Histor	-4509
▁McCall	-4510
▁albums	-4511
▁border	-4512
▁images	-4513
▁legisl	-4514
▁letter	-4515
▁simply	-4516
▁Wilhelm	-4517
▁journal	-4518
▁maximum	-4519
▁sources	-4520
▁incorpor	-4521
▁determined	-4522
VD	-4523
ux	-4524
eer	-4525
ugby	-4526
wide	-4527
▁End	-4528
▁aid	-4529
aling	-4530
▁Kore	-4531
▁doub	-4532
▁kept	-4533
▁onto	-4534
▁thir	-4535
enture	-4536
inated	-4537
ipment	-4538
▁movie	-4539
▁piece	-4540
▁advert	-4541
▁broken	-4542
▁comedy	-4543
▁emphas	-4544
▁master	-4545
▁places	-4546
▁sculpt	-4547
▁portion	-4548
▁Assembly	-4549
▁potential	-4550
udd	-4551
edar	-4552
▁Jup	-4553
▁dut	-4554
▁hom	-4555
▁rom	-4556
▁frag	-4557
▁iron	-4558
▁Fleet	-4559
▁PlayS	-4560
▁royal	-4561
duction	-4562
▁argued	-4563
▁charge	-4564
▁cities	-4565
▁domestic	-4566
▁Commission	-4567
▁PlayStation	-4568
ety	-4569
▁53	-4570
▁55	-4571
▁FA	-4572
▁Kn	-4573
▁ge	-4574
agan	-4575
asty	-4576
▁Bir	-4577
▁Rih	-4578
▁Ven	-4579
▁unk	-4580
istry	-4581
▁Good	-4582
▁grew	-4583
▁roll	-4584
▁spot	-4585
▁step	-4586
isters	-4587
▁Night	-4588
▁color	-4589
▁depth	-4590
▁sites	-4591
lection	-4592
▁Common	-4593
▁Hamels	-4594
▁Valley	-4595
▁Rihanna	-4596
▁content	-4597
▁projects	-4598
▁suggests	-4599
▁Baltimore	-4600
▁authority	-4601
▁management	-4602
lys	-4603
umes	-4604
▁Sky	-4605
▁say	-4606
▁wor	-4607
▁Djed	-4608
▁Writ	-4609
▁fung	-4610
▁phil	-4611
▁sens	-4612
▁wave	-4613
▁weak	-4614
ertain	-4615
▁Greek	-4616
▁artic	-4617
▁homes	-4618
▁paint	-4619
▁share	-4620
▁twice	-4621
acement	-4622
▁Palest	-4623
▁attend	-4624
▁belong	-4625
▁depart	-4626
▁gained	-4627
▁museum	-4628
▁prison	-4629
▁target	-4630
▁causing	-4631
▁schedul	-4632
▁science	-4633
▁website	-4634
▁Constant	-4635
▁entrance	-4636
▁hospital	-4637
▁criticized	-4638
▁structures	-4639
▁ultimately	-4640
▁Ul	-4641
▁Big	-4642
▁DVD	-4643
▁Lew	-4644
▁Pen	-4645
▁hyd	-4646
▁Anth	-4647
▁fres	-4648
▁vess	-4649
rative	-4650
▁mouth	-4651
▁Forest	-4652
▁deploy	-4653
▁interp	-4654
▁Jupiter	-4655
▁debuted	-4656
▁defence	-4657
▁dismiss	-4658
▁results	-4659
▁Djedkare	-4660
▁intellig	-4661
▁formation	-4662
▁containing	-4663
gn	-4664
ya	-4665
yr	-4666
ati	-4667
rel	-4668
▁56	-4669
▁Us	-4670
▁kg	-4671
atur	-4672
▁Bur	-4673
▁Hib	-4674
orter	-4675
▁1947	-4676
▁More	-4677
▁core	-4678
▁fast	-4679
▁opin	-4680
▁tail	-4681
▁label	-4682
▁miner	-4683
▁remix	-4684
▁Torres	-4685
▁chosen	-4686
▁planet	-4687
▁battles	-4688
▁cricket	-4689
▁foreign	-4690
▁collabor	-4691
▁defensive	-4692
▁43	-4693
▁Ox	-4694
more	-4695
▁120	-4696
▁Jon	-4697
▁fix	-4698
▁pan	-4699
▁Chap	-4700
▁Lock	-4701
▁inch	-4702
▁Child	-4703
▁Short	-4704
▁enter	-4705
▁animal	-4706
▁buried	-4707
▁Eastern	-4708
▁brigade	-4709
▁granted	-4710
▁growing	-4711
▁rejected	-4712
▁security	-4713
▁standing	-4714
▁abandoned	-4715
▁prominent	-4716
▁reference	-4717
▁consecutive	-4718
▁independent	-4719
▁organization	-4720
ML	-4721
bl	-4722
then	-4723
▁Gre	-4724
▁ven	-4725
white	-4726
▁1941	-4727
▁Once	-4728
▁diam	-4729
▁doct	-4730
▁sand	-4731
▁seek	-4732
ocated	-4733
▁Field	-4734
▁cells	-4735
▁claims	-4736
▁colony	-4737
▁orders	-4738
▁temple	-4739
▁weight	-4740
ographer	-4741
▁Airport	-4742
▁student	-4743
▁visited	-4744
▁Scottish	-4745
▁condition	-4746
▁therefore	-4747
▁Applewhite	-4748
AFE	-4749
ees	-4750
mon	-4751
▁RA	-4752
▁So	-4753
airs	-4754
mosp	-4755
phia	-4756
▁BBC	-4757
▁Bon	-4758
▁Cre	-4759
▁mic	-4760
iring	-4761
▁1987	-4762
▁Norm	-4763
▁SAFE	-4764
▁risk	-4765
▁broke	-4766
▁dress	-4767
▁newly	-4768
▁spect	-4769
▁moment	-4770
adelphia	-4771
▁regions	-4772
▁seconds	-4773
▁singles	-4774
▁wounded	-4775
ao	-4776
resp	-4777
▁tur	-4778
oured	-4779
▁fear	-4780
▁solo	-4781
asters	-4782
ushing	-4783
▁ahead	-4784
▁cases	-4785
▁enemy	-4786
▁seems	-4787
▁Indust	-4788
▁height	-4789
fficient	-4790
▁Egyptian	-4791
▁reaching	-4792
▁versions	-4793
▁Institute	-4794
▁equipment	-4795
▁knowledge	-4796
▁nominated	-4797
▁Background	-4798
▁identified	-4799
▁temperature	-4800
tav	-4801
▁41	-4802
ners	-4803
▁Ban	-4804
▁Due	-4805
▁Jur	-4806
▁bud	-4807
▁tun	-4808
ading	-4809
urban	-4810
▁1972	-4811
▁1984	-4812
▁1989	-4813
▁cust	-4814
▁aired	-4815
▁males	-4816
▁Before	-4817
▁campus	-4818
▁unique	-4819
▁Croatia	-4820
▁Further	-4821
▁council	-4822
▁element	-4823
▁opposed	-4824
▁problem	-4825
▁returning	-4826
▁supporting	-4827
▁environment	-4828
Le	-4829
cy	-4830
ads	-4831
ero	-4832
mun	-4833
▁54	-4834
ette	-4835
oted	-4836
▁Kir	-4837
▁Sub	-4838
▁fox	-4839
▁tim	-4840
▁unp	-4841
ishes	-4842
▁1985	-4843
▁Carl	-4844
▁Each	-4845
▁Mike	-4846
▁fired	-4847
▁Origin	-4848
▁atmosp	-4849
▁looking	-4850
▁perfect	-4851
▁teacher	-4852
▁unknown	-4853
▁analysis	-4854
▁operated	-4855
▁scholars	-4856
▁straight	-4857
▁Entertain	-4858
▁Operation	-4859
▁literature	-4860
▁increasingly	-4861
uct	-4862
▁Id	-4863
▁Ry	-4864
▁ec	-4865
alle	-4866
ider	-4867
▁HMS	-4868
▁Kar	-4869
▁Ret	-4870
▁boy	-4871
aming	-4872
ighth	-4873
ortal	-4874
▁Swed	-4875
▁acad	-4876
▁here	-4877
stream	-4878
▁alter	-4879
▁burns	-4880
▁compr	-4881
▁defin	-4882
▁ideas	-4883
▁molec	-4884
▁Barrow	-4885
▁theory	-4886
▁writes	-4887
▁Cardiff	-4888
▁believe	-4889
▁weather	-4890
▁breeding	-4891
▁commonly	-4892
▁confirmed	-4893
▁explained	-4894
▁historian	-4895
▁settlement	-4896
eg	-4897
ato	-4898
uge	-4899
ych	-4900
▁od	-4901
▁vo	-4902
aved	-4903
▁Key	-4904
▁Mic	-4905
▁oil	-4906
▁1944	-4907
▁Even	-4908
▁Only	-4909
▁Stan	-4910
▁Vill	-4911
▁Class	-4912
▁Keats	-4913
▁Never	-4914
▁Public	-4915
▁arrest	-4916
▁strike	-4917
▁Develop	-4918
▁females	-4919
▁herself	-4920
▁singing	-4921
▁systems	-4922
▁Congress	-4923
▁Michigan	-4924
▁advanced	-4925
▁economic	-4926
▁landfall	-4927
▁property	-4928
▁stations	-4929
▁consisted	-4930
▁criticism	-4931
▁controlled	-4932
▁parliament	-4933
▁Philadelphia	-4934
hu	-4935
awa	-4936
ket	-4937
▁Gi	-4938
▁Ll	-4939
illo	-4940
weet	-4941
▁130	-4942
▁Rog	-4943
asure	-4944
▁Gord	-4945
▁Hart	-4946
▁imag	-4947
▁pict	-4948
▁semi	-4949
alions	-4950
▁exped	-4951
▁growth	-4952
▁leader	-4953
▁pieces	-4954
▁Mounted	-4955
▁deities	-4956
▁dropped	-4957
▁failure	-4958
▁Addition	-4959
▁Williams	-4960
▁creation	-4961
▁Meanwhile	-4962
▁maintained	-4963
ena	-4964
rak	-4965
▁57	-4966
▁Ap	-4967
▁Lu	-4968
hips	-4969
unic	-4970
▁Bas	-4971
▁Den	-4972
▁Leg	-4973
▁Luc	-4974
▁Ros	-4975
▁gar	-4976
▁mob	-4977
fully	-4978
inary	-4979
inity	-4980
▁Gard	-4981
▁Matt	-4982
▁fict	-4983
▁Album	-4984
▁Dutch	-4985
▁guest	-4986
▁honor	-4987
▁arrang	-4988
▁awards	-4989
▁compar	-4990
▁filmed	-4991
▁flying	-4992
▁injury	-4993
▁resemb	-4994
▁federal	-4995
▁freeway	-4996
▁killing	-4997
▁pitched	-4998
ias	-4999
▁Gh	-5000
onom	-5001
▁600	-5002
▁Abu	-5003
▁Der	-5004
▁Dis	-5005
▁Dun	-5006
▁bit	-5007
▁sen	-5008
antly	-5009
ieval	-5010
▁Andy	-5011
▁Bost	-5012
▁Jeff	-5013
▁mist	-5014
▁tact	-5015
▁task	-5016
ampion	-5017
ashion	-5018
lusion	-5019
▁Guard	-5020
▁Italy	-5021
▁Steve	-5022
▁boats	-5023
▁serve	-5024
▁speak	-5025
▁value	-5026
▁Nathan	-5027
▁belief	-5028
▁horses	-5029
▁humans	-5030
▁matter	-5031
▁actress	-5032
▁battery	-5033
▁mounted	-5034
▁rapidly	-5035
▁restaur	-5036
▁retired	-5037
▁weapons	-5038
▁Minister	-5039
▁promoted	-5040
▁religion	-5041
jo	-5042
kin	-5043
uli	-5044
▁ut	-5045
ager	-5046
alls	-5047
iced	-5048
ieut	-5049
roph	-5050
▁Ast	-5051
▁Les	-5052
▁Mod	-5053
▁bid	-5054
▁ham	-5055
ersey	-5056
▁Cold	-5057
▁bank	-5058
▁clean	-5059
▁flank	-5060
▁premi	-5061
▁column	-5062
▁cougar	-5063
▁passes	-5064
cription	-5065
▁passing	-5066
▁protest	-5067
▁selling	-5068
▁accompan	-5069
▁agricult	-5070
▁creating	-5071
▁invasion	-5072
▁multiple	-5073
▁prepared	-5074
▁Americans	-5075
▁connected	-5076
▁promotion	-5077
▁Conference	-5078
▁recognized	-5079
▁description	-5080
▁publication	-5081
▁significantly	-5082
cop	-5083
han	-5084
▁mo	-5085
fort	-5086
haps	-5087
icks	-5088
rete	-5089
▁Mem	-5090
▁Mur	-5091
▁Wat	-5092
amese	-5093
chers	-5094
▁Inst	-5095
▁Slam	-5096
▁Work	-5097
▁bats	-5098
▁data	-5099
itable	-5100
render	-5101
▁Final	-5102
▁Video	-5103
▁chose	-5104
▁walls	-5105
▁famous	-5106
▁silver	-5107
▁sought	-5108
▁starts	-5109
▁volume	-5110
▁aspects	-5111
▁deliver	-5112
▁nucleus	-5113
▁seventh	-5114
▁reaction	-5115
▁regarded	-5116
▁necessary	-5117
▁producers	-5118
▁scheduled	-5119
▁popularity	-5120
▁strengthen	-5121
ca	-5122
hi	-5123
ote	-5124
yth	-5125
▁96	-5126
load	-5127
ogen	-5128
▁Ari	-5129
lying	-5130
olved	-5131
▁1981	-5132
▁Cole	-5133
▁Gulf	-5134
▁Line	-5135
▁drop	-5136
▁laid	-5137
▁news	-5138
▁rise	-5139
▁send	-5140
▁virt	-5141
heless	-5142
▁Liber	-5143
▁beaut	-5144
▁rival	-5145
▁strik	-5146
▁philos	-5147
▁reform	-5148
▁landing	-5149
▁sustained	-5150
▁Vietnamese	-5151
hm	-5152
ips	-5153
och	-5154
uan	-5155
āda	-5156
▁Mu	-5157
▁Adv	-5158
▁Naz	-5159
▁Obs	-5160
▁Pho	-5161
▁USA	-5162
▁fat	-5163
ocked	-5164
venue	-5165
▁Sund	-5166
ifying	-5167
▁Among	-5168
▁Haven	-5169
▁dated	-5170
▁drive	-5171
▁outer	-5172
▁Cambod	-5173
▁budget	-5174
▁castle	-5175
▁fought	-5176
▁spring	-5177
standing	-5178
▁reflect	-5179
▁employed	-5180
▁families	-5181
▁currently	-5182
▁Thunderbirds	-5183
yt	-5184
add	-5185
ini	-5186
rum	-5187
hess	-5188
▁179	-5189
▁700	-5190
▁pul	-5191
▁row	-5192
ivity	-5193
onent	-5194
orney	-5195
▁1939	-5196
▁Girl	-5197
▁arms	-5198
▁ends	-5199
▁exec	-5200
▁save	-5201
▁tree	-5202
iments	-5203
insula	-5204
▁Domin	-5205
▁phase	-5206
▁trial	-5207
▁Athlet	-5208
▁Oxford	-5209
▁rating	-5210
heastern	-5211
ologists	-5212
▁contained	-5213
▁facilities	-5214
▁frequently	-5215
▁underground	-5216
▁Entertainment	-5217
TC	-5218
ii	-5219
sw	-5220
aph	-5221
rig	-5222
rog	-5223
sea	-5224
▁Ca	-5225
▁NH	-5226
▁la	-5227
thur	-5228
▁Dar	-5229
▁Ell	-5230
▁Fre	-5231
▁Han	-5232
▁arc	-5233
▁bey	-5234
▁wed	-5235
iance	-5236
lines	-5237
▁1942	-5238
▁Greg	-5239
▁dial	-5240
▁unus	-5241
borough	-5242
unction	-5243
▁Friend	-5244
▁Gordon	-5245
▁actors	-5246
▁allows	-5247
▁bottom	-5248
▁degree	-5249
▁prefer	-5250
▁simple	-5251
▁Studios	-5252
▁express	-5253
▁Festival	-5254
▁computer	-5255
▁negative	-5256
▁collected	-5257
▁executive	-5258
▁Revolution	-5259
▁contributed	-5260
sey	-5261
▁61	-5262
▁73	-5263
▁95	-5264
ayer	-5265
kins	-5266
unte	-5267
▁NBA	-5268
▁Sus	-5269
▁hor	-5270
arian	-5271
iable	-5272
ridge	-5273
▁1918	-5274
▁Chel	-5275
▁Rail	-5276
▁Step	-5277
angers	-5278
▁Coast	-5279
▁Crazy	-5280
▁cited	-5281
▁craft	-5282
▁opera	-5283
▁overl	-5284
▁Turner	-5285
▁beyond	-5286
▁shaped	-5287
▁sports	-5288
▁Between	-5289
▁Premier	-5290
▁animals	-5291
ieutenant	-5292
▁entirely	-5293
▁improved	-5294
▁effective	-5295
▁fictional	-5296
▁subsequent	-5297
ez	-5298
arp	-5299
iot	-5300
▁62	-5301
▁97	-5302
▁800	-5303
▁Alf	-5304
▁Bru	-5305
▁Rel	-5306
▁mig	-5307
▁1968	-5308
▁1969	-5309
▁Prov	-5310
▁Turk	-5311
▁boat	-5312
▁gain	-5313
▁myth	-5314
ancing	-5315
perial	-5316
▁Boise	-5317
▁Lewis	-5318
▁Mario	-5319
▁Today	-5320
▁gives	-5321
▁train	-5322
agement	-5323
mission	-5324
▁Boston	-5325
▁Martin	-5326
▁visual	-5327
▁encoura	-5328
▁finding	-5329
▁medical	-5330
▁notable	-5331
▁recently	-5332
▁extensive	-5333
▁gradually	-5334
▁kilometres	-5335
eck	-5336
isy	-5337
rot	-5338
ánh	-5339
▁UN	-5340
aret	-5341
atus	-5342
chen	-5343
rine	-5344
ules	-5345
ycle	-5346
▁Cle	-5347
▁Cub	-5348
▁Fox	-5349
▁Rod	-5350
▁egg	-5351
rence	-5352
▁1975	-5353
▁Barb	-5354
▁Bart	-5355
▁Head	-5356
▁Jain	-5357
▁Juan	-5358
▁Kang	-5359
▁bass	-5360
▁glob	-5361
▁mush	-5362
▁sail	-5363
iences	-5364
lywood	-5365
▁Crown	-5366
▁Stone	-5367
▁chair	-5368
▁dates	-5369
▁floor	-5370
▁occas	-5371
▁Bridge	-5372
▁Daniel	-5373
▁People	-5374
▁System	-5375
▁finals	-5376
▁severe	-5377
▁stages	-5378
▁survey	-5379
▁Russian	-5380
▁serving	-5381
▁antimony	-5382
▁expanded	-5383
▁programs	-5384
▁secondary	-5385
eda	-5386
eed	-5387
lee	-5388
opp	-5389
▁72	-5390
▁85	-5391
itan	-5392
outs	-5393
yson	-5394
▁Aer	-5395
▁Igu	-5396
▁bow	-5397
▁bul	-5398
▁unf	-5399
ansas	-5400
usted	-5401
▁1965	-5402
▁1974	-5403
▁Belg	-5404
▁Upon	-5405
▁chur	-5406
▁join	-5407
illing	-5408
▁Evita	-5409
▁arran	-5410
▁comes	-5411
▁finds	-5412
▁green	-5413
▁items	-5414
iations	-5415
▁exclus	-5416
ographic	-5417
▁Magazine	-5418
▁occupied	-5419
▁centuries	-5420
▁composition	-5421
set	-5422
▁81	-5423
erts	-5424
ompl	-5425
thes	-5426
uate	-5427
▁Gab	-5428
▁Jac	-5429
▁Jud	-5430
▁Men	-5431
ecess	-5432
ublin	-5433
▁Band	-5434
▁Isab	-5435
▁calc	-5436
▁sole	-5437
▁Khánh	-5438
▁MacLe	-5439
▁daily	-5440
▁faith	-5441
▁naval	-5442
▁negot	-5443
▁deaths	-5444
▁losses	-5445
▁slowly	-5446
izations	-5447
▁decades	-5448
▁Commander	-5449
▁treatment	-5450
▁experienced	-5451
▁commissioned	-5452
▁independence	-5453
▁successfully	-5454
amy	-5455
win	-5456
▁71	-5457
▁94	-5458
▁CD	-5459
▁164	-5460
▁Far	-5461
▁Liu	-5462
▁aer	-5463
▁eth	-5464
istan	-5465
▁Rome	-5466
▁cool	-5467
▁didn	-5468
▁flag	-5469
▁trip	-5470
▁Jamal	-5471
▁Songs	-5472
▁benef	-5473
▁Avenue	-5474
▁policy	-5475
▁Project	-5476
▁captain	-5477
▁engaged	-5478
▁sentence	-5479
▁personnel	-5480
▁purchased	-5481
ava	-5482
▁GA	-5483
aire	-5484
anda	-5485
anny	-5486
▁160	-5487
▁Mot	-5488
▁Rol	-5489
▁Sha	-5490
▁eas	-5491
▁1946	-5492
▁Pers	-5493
▁coal	-5494
▁Brian	-5495
▁Chart	-5496
▁Iguan	-5497
▁beach	-5498
▁begun	-5499
▁fresh	-5500
▁labor	-5501
ategory	-5502
▁Dublin	-5503
▁Temple	-5504
▁chorus	-5505
▁elimin	-5506
▁propos	-5507
▁street	-5508
▁supply	-5509
▁Science	-5510
▁accompl	-5511
▁briefly	-5512
▁nothing	-5513
▁reasons	-5514
▁District	-5515
▁Tennyson	-5516
▁concrete	-5517
▁declined	-5518
▁protagon	-5519
▁southwest	-5520
▁worldwide	-5521
▁Throughout	-5522
ela	-5523
aton	-5524
town	-5525
▁Ing	-5526
▁Mov	-5527
▁gas	-5528
▁nor	-5529
ingly	-5530
pring	-5531
uting	-5532
▁Also	-5533
▁Bull	-5534
▁Down	-5535
▁Leon	-5536
▁summ	-5537
▁Track	-5538
▁drawn	-5539
▁moves	-5540
▁roads	-5541
▁theat	-5542
iration	-5543
utation	-5544
▁Simone	-5545
▁escape	-5546
▁normal	-5547
▁leaders	-5548
▁Governor	-5549
▁incident	-5550
▁platform	-5551
▁importance	-5552
bo	-5553
▁#	-5554
erc	-5555
rug	-5556
amin	-5557
born	-5558
elli	-5559
onic	-5560
rupt	-5561
▁Jes	-5562
▁Ray	-5563
▁flu	-5564
▁pet	-5565
▁rac	-5566
quake	-5567
▁1919	-5568
▁1936	-5569
▁1952	-5570
▁1966	-5571
▁Area	-5572
▁Baby	-5573
▁Bern	-5574
▁Team	-5575
▁firm	-5576
▁isol	-5577
▁plum	-5578
▁tall	-5579
▁tend	-5580
▁unsu	-5581
ooking	-5582
▁Brook	-5583
▁Maria	-5584
▁dance	-5585
▁delay	-5586
▁guard	-5587
▁hired	-5588
▁spons	-5589
respond	-5590
▁Family	-5591
▁decade	-5592
▁senior	-5593
▁MacLeod	-5594
▁arrival	-5595
▁billion	-5596
▁chapter	-5597
▁enjoyed	-5598
▁longest	-5599
▁witness	-5600
▁paintings	-5601
▁responded	-5602
▁Production	-5603
▁foundation	-5604
▁Development	-5605
▁accompanied	-5606
▁possibility	-5607
▁participated	-5608
30	-5609
BS	-5610
ls	-5611
ía	-5612
ān	-5613
osa	-5614
rons	-5615
▁110	-5616
▁177	-5617
▁Ali	-5618
▁Dev	-5619
▁Row	-5620
▁Rox	-5621
hetic	-5622
ichol	-5623
isers	-5624
▁Five	-5625
▁Marl	-5626
▁Ulys	-5627
▁jack	-5628
▁ring	-5629
▁subs	-5630
▁vert	-5631
▁Admir	-5632
▁Board	-5633
▁Dream	-5634
▁heard	-5635
▁squad	-5636
▁stret	-5637
▁Albert	-5638
▁Chains	-5639
▁Summer	-5640
▁dollar	-5641
▁oldest	-5642
▁Ulysses	-5643
▁paralle	-5644
▁roughly	-5645
▁setting	-5646
ifications	-5647
▁agreement	-5648
▁developing	-5649
OC	-5650
oe	-5651
▁i	-5652
ano	-5653
pty	-5654
▁77	-5655
imet	-5656
▁Bor	-5657
▁Int	-5658
▁Tim	-5659
▁dog	-5660
▁emp	-5661
▁pal	-5662
chest	-5663
essed	-5664
▁1973	-5665
▁Bond	-5666
▁Wall	-5667
▁remn	-5668
▁Const	-5669
▁Dougl	-5670
▁Phill	-5671
▁calls	-5672
▁decre	-5673
▁towns	-5674
espread	-5675
▁adding	-5676
▁choice	-5677
▁lasted	-5678
▁poetry	-5679
▁symbol	-5680
▁Anthony	-5681
▁Instead	-5682
▁Turkish	-5683
▁transit	-5684
▁Francisc	-5685
▁accident	-5686
▁athletes	-5687
▁consists	-5688
▁violence	-5689
▁dominated	-5690
▁existence	-5691
▁regarding	-5692
▁technology	-5693
▁combination	-5694
▁populations	-5695
war	-5696
▁59	-5697
▁Sk	-5698
aver	-5699
come	-5700
rant	-5701
usal	-5702
▁Ode	-5703
▁ign	-5704
itors	-5705
▁1967	-5706
▁Braz	-5707
▁Conn	-5708
▁door	-5709
▁note	-5710
▁seat	-5711
▁trav	-5712
▁Carib	-5713
▁Radio	-5714
▁acres	-5715
▁altar	-5716
▁clubs	-5717
▁comic	-5718
ressive	-5719
ructure	-5720
▁Bishop	-5721
▁assass	-5722
▁fellow	-5723
▁reserv	-5724
▁submar	-5725
▁undert	-5726
▁Hornung	-5727
▁Theatre	-5728
▁applied	-5729
▁closely	-5730
▁college	-5731
▁contrib	-5732
▁filming	-5733
▁habitat	-5734
▁existing	-5735
▁weakened	-5736
▁Anonymous	-5737
▁committee	-5738
▁unsuccess	-5739
▁performing	-5740
▁association	-5741
▁competitions	-5742
isf	-5743
▁66	-5744
▁98	-5745
▁Bi	-5746
▁ps	-5747
agle	-5748
agre	-5749
vens	-5750
▁175	-5751
▁AML	-5752
iling	-5753
iston	-5754
▁1914	-5755
▁Kenn	-5756
▁Life	-5757
▁Marc	-5758
▁roof	-5759
▁trou	-5760
▁Aston	-5761
▁pilot	-5762
▁tells	-5763
▁truth	-5764
▁appeal	-5765
▁serves	-5766
▁Caribbe	-5767
▁capable	-5768
▁correct	-5769
▁derived	-5770
▁descend	-5771
▁details	-5772
▁fashion	-5773
▁greatly	-5774
▁learned	-5775
▁neither	-5776
▁perhaps	-5777
▁purpose	-5778
▁reconst	-5779
▁Mountain	-5780
▁ceremony	-5781
▁distingu	-5782
▁painting	-5783
▁provides	-5784
▁substant	-5785
▁reinforce	-5786
▁battalions	-5787
▁correspond	-5788
▁opportunity	-5789
▁occasionally	-5790
▁administration	-5791
▁archaeological	-5792
OT	-5793
ona	-5794
var	-5795
▁Oh	-5796
burg	-5797
rait	-5798
▁Hon	-5799
▁Inc	-5800
▁hyp	-5801
▁som	-5802
▁Dota	-5803
▁Stew	-5804
▁neck	-5805
▁ones	-5806
▁skin	-5807
▁sort	-5808
▁Broad	-5809
▁thing	-5810
ountain	-5811
▁Archae	-5812
▁basket	-5813
▁bought	-5814
▁editor	-5815
▁expans	-5816
▁filled	-5817
▁headed	-5818
entially	-5819
▁Chelsea	-5820
▁Douglas	-5821
▁innings	-5822
▁invited	-5823
▁churches	-5824
▁speaking	-5825
▁supposed	-5826
▁vehicles	-5827
▁Caribbean	-5828
▁encounter	-5829
▁household	-5830
▁receiving	-5831
▁storyline	-5832
▁technique	-5833
▁dissipated	-5834
▁protection	-5835
▁sufficient	-5836
GN	-5837
RE	-5838
VN	-5839
la	-5840
agn	-5841
inj	-5842
uri	-5843
▁eu	-5844
abil	-5845
iece	-5846
oral	-5847
pton	-5848
▁Det	-5849
▁ERA	-5850
▁Jay	-5851
▁Low	-5852
▁Mel	-5853
▁Vol	-5854
▁aim	-5855
▁cit	-5856
▁cra	-5857
▁hat	-5858
▁seg	-5859
idden	-5860
ropri	-5861
▁1945	-5862
▁1971	-5863
▁Asia	-5864
▁What	-5865
▁acid	-5866
▁crop	-5867
▁drew	-5868
▁evac	-5869
▁goes	-5870
▁About	-5871
▁Maeda	-5872
▁Perry	-5873
▁drama	-5874
▁Freder	-5875
▁Hibari	-5876
▁astron	-5877
▁motion	-5878
▁viewed	-5879
▁islands	-5880
▁massive	-5881
▁receive	-5882
▁stopped	-5883
▁typical	-5884
▁Cardinal	-5885
▁Georgian	-5886
▁anything	-5887
▁survived	-5888
▁southeast	-5889
▁Lieutenant	-5890
▁classified	-5891
▁widespread	-5892
▁Constantine	-5893
lik	-5894
ola	-5895
tty	-5896
▁Ré	-5897
▁Ye	-5898
apes	-5899
iege	-5900
opes	-5901
rist	-5902
ruli	-5903
▁176	-5904
▁250	-5905
▁Age	-5906
▁Hin	-5907
▁Kil	-5908
▁MTV	-5909
▁Rio	-5910
▁Run	-5911
▁cho	-5912
▁opt	-5913
▁rob	-5914
▁why	-5915
acity	-5916
anned	-5917
ilton	-5918
▁1982	-5919
▁Hard	-5920
▁Wind	-5921
▁fuel	-5922
▁load	-5923
▁soft	-5924
▁subt	-5925
glades	-5926
ibrary	-5927
ighter	-5928
iously	-5929
▁Princ	-5930
▁Qedar	-5931
▁Simon	-5932
▁initi	-5933
▁Golden	-5934
▁Romani	-5935
▁safety	-5936
▁shared	-5937
▁trying	-5938
▁Fantasy	-5939
▁authors	-5940
▁digital	-5941
▁flights	-5942
▁missing	-5943
▁acquired	-5944
▁district	-5945
▁repeated	-5946
▁settlers	-5947
▁converted	-5948
cer	-5949
vis	-5950
iful	-5951
mann	-5952
reme	-5953
rier	-5954
▁Gil	-5955
▁Moz	-5956
▁cab	-5957
▁dub	-5958
▁ice	-5959
▁lin	-5960
idges	-5961
▁1913	-5962
▁1916	-5963
▁1956	-5964
▁1976	-5965
▁Gang	-5966
▁Gram	-5967
▁Holy	-5968
▁Oslo	-5969
▁Patt	-5970
▁Surv	-5971
▁rebu	-5972
▁rich	-5973
ilding	-5974
ivered	-5975
▁Haiti	-5976
▁Jones	-5977
▁Phoen	-5978
▁Venus	-5979
▁exact	-5980
▁glass	-5981
inosaur	-5982
issance	-5983
stances	-5984
▁Brazil	-5985
▁finish	-5986
▁legend	-5987
▁routes	-5988
▁Shortly	-5989
▁Stadium	-5990
▁channel	-5991
▁focused	-5992
▁funding	-5993
▁holding	-5994
▁opinion	-5995
▁spacing	-5996
▁watched	-5997
▁wedding	-5998
▁arranged	-5999
▁baseball	-6000
▁depicted	-6001
▁planning	-6002
▁Iguanodon	-6003
▁locations	-6004
▁permanent	-6005
▁succeeded	-6006
▁atmosphere	-6007
▁experiment	-6008
▁instrument	-6009
oba	-6010
anth	-6011
▁112	-6012
▁Fel	-6013
▁Gra	-6014
▁Kat	-6015
▁Mah	-6016
▁mut	-6017
▁rif	-6018
apers	-6019
▁1943	-6020
▁Arts	-6021
▁Fire	-6022
▁Lenn	-6023
▁bowl	-6024
▁knew	-6025
▁mort	-6026
▁pack	-6027
▁rose	-6028
▁wick	-6029
▁table	-6030
▁urban	-6031
▁Allied	-6032
▁assemb	-6033
▁chance	-6034
▁overse	-6035
▁Similar	-6036
▁charter	-6037
▁creator	-6038
▁decline	-6039
▁defined	-6040
▁penalty	-6041
▁protect	-6042
▁reality	-6043
▁credited	-6044
▁resident	-6045
▁Secretary	-6046
▁providing	-6047
▁earthquake	-6048
▁revolution	-6049
LI	-6050
ét	-6051
evo	-6052
▁87	-6053
pass	-6054
▁Abb	-6055
▁Bul	-6056
▁IGN	-6057
▁rub	-6058
▁sun	-6059
▁1963	-6060
▁Hell	-6061
▁Snow	-6062
▁laws	-6063
▁tied	-6064
▁ways	-6065
▁wins	-6066
▁Gully	-6067
▁Hindu	-6068
▁Homer	-6069
▁heads	-6070
▁moder	-6071
▁pregn	-6072
uration	-6073
▁dating	-6074
▁explos	-6075
▁Chronic	-6076
▁Rangers	-6077
▁Stevens	-6078
▁airport	-6079
▁renamed	-6080
formation	-6081
▁Morrison	-6082
▁download	-6083
▁supplies	-6084
▁delivered	-6085
▁separated	-6086
▁technical	-6087
▁thousands	-6088
▁Everglades	-6089
▁Additionally	-6090
SB	-6091
gé	-6092
hat	-6093
min	-6094
ube	-6095
ador	-6096
crib	-6097
ears	-6098
okes	-6099
▁Top	-6100
▁UTC	-6101
▁dry	-6102
▁enl	-6103
▁gal	-6104
▁san	-6105
attle	-6106
▁Truj	-6107
▁eyes	-6108
▁fair	-6109
essing	-6110
ipping	-6111
issipp	-6112
▁Sound	-6113
▁rural	-6114
ivalent	-6115
▁Arthur	-6116
▁Office	-6117
▁Sunday	-6118
▁Walter	-6119
▁colour	-6120
▁courts	-6121
▁powers	-6122
▁regime	-6123
▁secure	-6124
▁select	-6125
▁surviv	-6126
▁Friends	-6127
▁emperor	-6128
▁journey	-6129
▁turning	-6130
▁Bradford	-6131
▁Columbia	-6132
▁indicate	-6133
▁teaching	-6134
▁Alexander	-6135
▁Committee	-6136
▁Hollywood	-6137
▁certified	-6138
▁commanded	-6139
▁remainder	-6140
▁Mississipp	-6141
▁assistance	-6142
▁consisting	-6143
▁opposition	-6144
▁Australians	-6145
oh	-6146
▁Pu	-6147
aked	-6148
ardo	-6149
rell	-6150
▁Cop	-6151
▁Mul	-6152
▁Ron	-6153
▁Tel	-6154
▁lit	-6155
▁lov	-6156
▁pup	-6157
▁sud	-6158
erted	-6159
opher	-6160
▁1953	-6161
▁1978	-6162
▁card	-6163
▁drug	-6164
▁harm	-6165
▁impr	-6166
estone	-6167
▁aware	-6168
▁camps	-6169
▁hydro	-6170
▁noisy	-6171
▁quite	-6172
▁turns	-6173
▁views	-6174
▁Democr	-6175
▁Marine	-6176
▁Native	-6177
▁occurs	-6178
▁valley	-6179
▁Montana	-6180
▁address	-6181
▁disturb	-6182
▁economy	-6183
▁Critical	-6184
▁Croatian	-6185
▁Director	-6186
▁Maryland	-6187
▁Trujillo	-6188
▁attached	-6189
▁highlight	-6190
▁surrender	-6191
▁references	-6192
▁establishment	-6193
▁−	-6194
dal	-6195
rin	-6196
uma	-6197
▁ML	-6198
nest	-6199
ture	-6200
▁Dom	-6201
▁Exp	-6202
▁Mid	-6203
▁Sav	-6204
▁fan	-6205
▁vic	-6206
agues	-6207
icted	-6208
ients	-6209
othes	-6210
▁Alan	-6211
▁Fish	-6212
▁Stef	-6213
▁pros	-6214
▁puzz	-6215
ewhere	-6216
itsune	-6217
▁Anton	-6218
▁Roxas	-6219
▁immig	-6220
▁leads	-6221
▁store	-6222
ception	-6223
entions	-6224
▁Master	-6225
▁branch	-6226
▁circum	-6227
▁denied	-6228
▁leaves	-6229
▁resist	-6230
▁Charlie	-6231
▁Stephen	-6232
▁adapted	-6233
▁methods	-6234
▁monarch	-6235
▁replace	-6236
▁studied	-6237
▁Engineer	-6238
▁interior	-6239
▁missions	-6240
▁shooting	-6241
▁finishing	-6242
▁portrayed	-6243
▁producing	-6244
▁successor	-6245
▁reputation	-6246
▁Mississippi	-6247
▁distribution	-6248
ić	-6249
aka	-6250
bur	-6251
▁69	-6252
▁Di	-6253
real	-6254
rien	-6255
▁Edu	-6256
▁Hug	-6257
▁NBC	-6258
▁Sap	-6259
▁lic	-6260
▁obt	-6261
▁upd	-6262
break	-6263
onder	-6264
senal	-6265
▁1915	-6266
▁Flow	-6267
▁baby	-6268
▁lane	-6269
▁prey	-6270
▁Plunk	-6271
▁Press	-6272
▁crime	-6273
▁entry	-6274
▁motor	-6275
▁worst	-6276
▁worth	-6277
rations	-6278
▁Howard	-6279
▁Samuel	-6280
▁Within	-6281
▁franch	-6282
▁window	-6283
▁getting	-6284
▁offense	-6285
▁entering	-6286
▁gameplay	-6287
▁maintain	-6288
▁politics	-6289
▁Recording	-6290
▁dismissed	-6291
▁protected	-6292
▁Activision	-6293
▁intelligence	-6294
▁characteristics	-6295
kh	-6296
ni	-6297
ns	-6298
aug	-6299
▁Wy	-6300
▁ru	-6301
elve	-6302
orer	-6303
otes	-6304
▁DNA	-6305
▁Kel	-6306
▁Loc	-6307
▁cry	-6308
▁die	-6309
▁von	-6310
acent	-6311
amber	-6312
ender	-6313
inals	-6314
▁Eliz	-6315
▁shel	-6316
▁tell	-6317
▁tomb	-6318
ctions	-6319
orters	-6320
▁Marsh	-6321
▁Ridge	-6322
▁basin	-6323
▁crown	-6324
▁exerc	-6325
▁holds	-6326
▁joint	-6327
▁knots	-6328
▁Nether	-6329
▁charts	-6330
▁noting	-6331
▁novels	-6332
▁resour	-6333
▁retire	-6334
▁stones	-6335
▁Calvert	-6336
▁charges	-6337
▁classes	-6338
▁dollars	-6339
▁Isabella	-6340
▁capacity	-6341
▁electric	-6342
▁historic	-6343
▁monument	-6344
▁mushroom	-6345
▁discussed	-6346
▁philosoph	-6347
▁attributed	-6348
▁interested	-6349
▁introduction	-6350
aws	-6351
gie	-6352
▁74	-6353
▁79	-6354
▁91	-6355
▁Ts	-6356
osis	-6357
wise	-6358
▁Bos	-6359
▁Cam	-6360
▁fer	-6361
▁sym	-6362
▁van	-6363
ajevo	-6364
eenth	-6365
itage	-6366
itled	-6367
osure	-6368
▁1890	-6369
▁1917	-6370
▁1948	-6371
▁Lisa	-6372
▁Pope	-6373
▁Trib	-6374
▁Walk	-6375
▁Yank	-6376
▁vary	-6377
▁Danny	-6378
▁agent	-6379
▁cinem	-6380
▁pitch	-6381
▁pound	-6382
▁rhyth	-6383
▁ruled	-6384
▁rules	-6385
▁solid	-6386
▁Jersey	-6387
▁Resear	-6388
▁Strand	-6389
▁Weekly	-6390
▁chapel	-6391
▁fields	-6392
▁offers	-6393
▁sector	-6394
▁tribes	-6395
▁vision	-6396
angerous	-6397
▁coastal	-6398
▁contest	-6399
▁younger	-6400
▁Industry	-6401
▁Sarajevo	-6402
▁accounts	-6403
▁colonial	-6404
▁medieval	-6405
▁appearing	-6406
▁predecess	-6407
▁publisher	-6408
▁statement	-6409
▁describing	-6410
▁generation	-6411
ef	-6412
gra	-6413
▁88	-6414
▁Sa	-6415
bles	-6416
rets	-6417
▁Jif	-6418
▁Sor	-6419
▁unn	-6420
ateur	-6421
iders	-6422
ivals	-6423
water	-6424
▁1951	-6425
▁1979	-6426
▁Here	-6427
▁Wars	-6428
▁arts	-6429
▁bond	-6430
▁hope	-6431
▁soil	-6432
▁zone	-6433
engers	-6434
intend	-6435
offman	-6436
▁Campb	-6437
▁Daily	-6438
▁Organ	-6439
▁apart	-6440
▁basic	-6441
▁europ	-6442
▁inner	-6443
▁kings	-6444
▁ninth	-6445
▁releg	-6446
▁caught	-6447
▁desire	-6448
▁manner	-6449
▁plants	-6450
▁rarely	-6451
▁Destiny	-6452
▁article	-6453
▁forests	-6454
▁someone	-6455
▁synthes	-6456
▁Victoria	-6457
▁Yankovic	-6458
▁instruct	-6459
▁Frederick	-6460
▁discovery	-6461
▁emotional	-6462
▁exception	-6463
▁difficulty	-6464
▁everything	-6465
▁restaurant	-6466
▁recognition	-6467
▁considerable	-6468
20	-6469
▁ha	-6470
▁ur	-6471
▁121	-6472
▁Joe	-6473
▁Lee	-6474
▁Rem	-6475
▁nob	-6476
abeth	-6477
ables	-6478
allow	-6479
ician	-6480
union	-6481
using	-6482
▁1954	-6483
▁1961	-6484
▁Chen	-6485
▁Fair	-6486
▁Init	-6487
▁cold	-6488
▁gall	-6489
▁hill	-6490
▁mine	-6491
aments	-6492
graded	-6493
igades	-6494
ultane	-6495
▁Elect	-6496
▁hotel	-6497
▁munic	-6498
▁shore	-6499
▁Around	-6500
▁Mozamb	-6501
▁Somali	-6502
▁landed	-6503
▁settle	-6504
▁sudden	-6505
▁taught	-6506
▁thirty	-6507
▁wealth	-6508
▁wooden	-6509
▁Rolling	-6510
▁evening	-6511
▁volunte	-6512
▁worship	-6513
▁Clarkson	-6514
▁Transport	-6515
▁opponents	-6516
▁Television	-6517
▁nomination	-6518
▁involvement	-6519
▁replacement	-6520
▁specifically	-6521
AC	-6522
lan	-6523
▁99	-6524
▁AR	-6525
▁DA	-6526
▁Si	-6527
▁ju	-6528
aska	-6529
avia	-6530
eper	-6531
iary	-6532
leep	-6533
yles	-6534
▁Ash	-6535
▁Lev	-6536
▁Yan	-6537
▁bal	-6538
▁tal	-6539
▁tie	-6540
Brien	-6541
eless	-6542
istol	-6543
orous	-6544
psons	-6545
reets	-6546
ropol	-6547
verse	-6548
▁1937	-6549
▁Bono	-6550
▁Duke	-6551
▁Fame	-6552
▁Skye	-6553
▁fish	-6554
▁jazz	-6555
▁leuk	-6556
atures	-6557
ceived	-6558
ingale	-6559
inking	-6560
ranean	-6561
usalem	-6562
▁Jifna	-6563
▁Lords	-6564
▁Order	-6565
▁Santa	-6566
▁Wilde	-6567
▁accur	-6568
▁poems	-6569
▁split	-6570
▁veget	-6571
▁Castle	-6572
▁Modern	-6573
▁Muslim	-6574
▁Spring	-6575
▁carbon	-6576
▁divine	-6577
▁fungus	-6578
▁picked	-6579
▁stream	-6580
▁Colonel	-6581
▁Roberts	-6582
▁Singles	-6583
▁consequ	-6584
▁secured	-6585
▁Simpsons	-6586
▁believes	-6587
▁Francisco	-6588
▁Jerusalem	-6589
▁industrial	-6590
▁communities	-6591
▁controversy	-6592
▁recommended	-6593
▁intersection	-6594
va	-6595
▁×	-6596
agu	-6597
ban	-6598
ipe	-6599
▁ic	-6600
rast	-6601
rows	-6602
▁Cab	-6603
▁Dur	-6604
▁Jun	-6605
▁Nap	-6606
▁Rif	-6607
▁Win	-6608
▁dim	-6609
▁fit	-6610
▁sed	-6611
▁1955	-6612
▁Cory	-6613
▁Nick	-6614
▁Plot	-6615
▁Shak	-6616
▁dock	-6617
▁hall	-6618
▁legs	-6619
▁soul	-6620
▁vide	-6621
ussion	-6622
▁Adams	-6623
▁Human	-6624
▁Prime	-6625
▁absor	-6626
▁faces	-6627
▁wrong	-6628
iveness	-6629
theless	-6630
▁Carter	-6631
▁depend	-6632
▁launch	-6633
▁missed	-6634
▁convers	-6635
▁drawing	-6636
▁scholar	-6637
▁signing	-6638
▁strateg	-6639
▁whereas	-6640
▁Hamilton	-6641
▁Military	-6642
▁Olympics	-6643
▁concerns	-6644
▁Argentina	-6645
▁extremely	-6646
▁principal	-6647
▁specimens	-6648
▁standards	-6649
▁leadership	-6650
▁Independent	-6651
▁organizations	-6652
ext	-6653
iar	-6654
rec	-6655
▁89	-6656
▁AD	-6657
adow	-6658
cape	-6659
iday	-6660
imal	-6661
▁Anc	-6662
▁Pan	-6663
▁Pul	-6664
▁bes	-6665
▁ble	-6666
▁ske	-6667
onica	-6668
▁1900	-6669
▁1958	-6670
▁Earl	-6671
▁Sand	-6672
▁grav	-6673
▁warm	-6674
wealth	-6675
▁Banai	-6676
▁Beach	-6677
▁Power	-6678
▁demol	-6679
▁indig	-6680
▁psych	-6681
▁teeth	-6682
▁tries	-6683
▁youth	-6684
pective	-6685
▁Forces	-6686
▁muscar	-6687
▁speech	-6688
▁treaty	-6689
iversary	-6690
▁Writing	-6691
▁emerged	-6692
▁existed	-6693
▁parties	-6694
▁session	-6695
▁showing	-6696
▁chemical	-6697
▁diameter	-6698
▁europium	-6699
▁minister	-6700
▁approached	-6701
▁conference	-6702
▁connection	-6703
▁surrounded	-6704
▁threatened	-6705
▁distributed	-6706
▁relationships	-6707
CA	-6708
amm	-6709
bie	-6710
cho	-6711
eor	-6712
oca	-6713
uda	-6714
utt	-6715
▁CE	-6716
▁IV	-6717
▁WW	-6718
▁ib	-6719
edom	-6720
▁fal	-6721
▁fle	-6722
▁lbw	-6723
aurus	-6724
inger	-6725
itals	-6726
organ	-6727
point	-6728
▁1949	-6729
▁1977	-6730
▁Bank	-6731
▁Disc	-6732
▁Hung	-6733
▁Iron	-6734
▁Ryan	-6735
▁cong	-6736
▁corp	-6737
▁mart	-6738
▁page	-6739
▁rect	-6740
▁stem	-6741
▁Chief	-6742
▁Point	-6743
▁Roger	-6744
▁alien	-6745
▁citiz	-6746
▁decor	-6747
▁hoped	-6748
▁oppos	-6749
▁overw	-6750
▁shark	-6751
▁wants	-6752
▁Lennon	-6753
▁Norman	-6754
▁bright	-6755
▁facing	-6756
▁firing	-6757
▁option	-6758
▁seeing	-6759
▁crossed	-6760
▁partial	-6761
▁pointed	-6762
▁railway	-6763
▁ratings	-6764
▁unusual	-6765
▁admitted	-6766
▁favorite	-6767
▁isolated	-6768
▁expansion	-6769
▁immediate	-6770
▁intention	-6771
▁regularly	-6772
▁Depression	-6773
▁department	-6774
▁expedition	-6775
▁historians	-6776
▁alternative	-6777
▁documentary	-6778
▁constitution	-6779
▁institutions	-6780
ba	-6781
aya	-6782
nes	-6783
sch	-6784
zen	-6785
▁07	-6786
eman	-6787
emia	-6788
iour	-6789
ooth	-6790
spec	-6791
usad	-6792
uses	-6793
wich	-6794
ívar	-6795
▁Ald	-6796
▁flo	-6797
▁lap	-6798
ledon	-6799
ombat	-6800
▁Desc	-6801
▁Fern	-6802
▁Fras	-6803
▁sulf	-6804
formed	-6805
▁Hergé	-6806
▁marks	-6807
▁owner	-6808
▁recre	-6809
▁watch	-6810
ossible	-6811
▁Kilmer	-6812
▁Person	-6813
▁Rhodes	-6814
▁Territ	-6815
▁Unlike	-6816
▁ancest	-6817
▁consum	-6818
▁duties	-6819
▁eighth	-6820
▁gather	-6821
▁inland	-6822
▁sequel	-6823
▁Bolívar	-6824
▁Goffman	-6825
▁Janeiro	-6826
▁Saprang	-6827
▁assumed	-6828
▁inhabit	-6829
▁message	-6830
▁treated	-6831
▁breaking	-6832
▁bringing	-6833
▁champion	-6834
▁changing	-6835
▁examples	-6836
▁literary	-6837
▁protests	-6838
▁regional	-6839
▁reviewer	-6840
▁romantic	-6841
▁strongly	-6842
▁franchise	-6843
▁languages	-6844
▁watershed	-6845
▁destroyers	-6846
▁anniversary	-6847
▁designation	-6848
▁protagonist	-6849
sta	-6850
▁06	-6851
▁63	-6852
▁93	-6853
▁PA	-6854
ekān	-6855
erog	-6856
eton	-6857
inet	-6858
nell	-6859
otic	-6860
▁BCE	-6861
▁Bal	-6862
▁Guy	-6863
▁Kit	-6864
ockey	-6865
rates	-6866
worth	-6867
▁1910	-6868
▁1983	-6869
▁Ball	-6870
▁Base	-6871
▁Bert	-6872
▁Jean	-6873
▁Lanc	-6874
▁Mand	-6875
▁Pine	-6876
▁Test	-6877
▁Wimb	-6878
▁aged	-6879
▁coup	-6880
▁eggs	-6881
▁grey	-6882
▁outf	-6883
encies	-6884
rapped	-6885
▁Burns	-6886
▁Color	-6887
▁Stock	-6888
▁Story	-6889
▁Tower	-6890
▁crest	-6891
▁genre	-6892
▁meets	-6893
istered	-6894
ogether	-6895
▁Gerard	-6896
▁Hearts	-6897
▁Lawton	-6898
▁Square	-6899
▁easily	-6900
▁rescue	-6901
▁winner	-6902
▁Georgia	-6903
▁Journal	-6904
▁Station	-6905
▁airline	-6906
▁improve	-6907
▁orchest	-6908
▁retreat	-6909
▁stadium	-6910
▁wearing	-6911
▁Research	-6912
▁academic	-6913
▁approved	-6914
▁detailed	-6915
▁sections	-6916
▁specimen	-6917
▁Wimbledon	-6918
▁attracted	-6919
▁indicated	-6920
onnaissance	-6921
▁completion	-6922
▁engineering	-6923
aga	-6924
how	-6925
ois	-6926
osm	-6927
▁Xe	-6928
agas	-6929
know	-6930
lets	-6931
oked	-6932
ppet	-6933
▁Cru	-6934
▁Neb	-6935
▁Raj	-6936
▁bay	-6937
▁cul	-6938
▁lob	-6939
▁sam	-6940
range	-6941
▁Bass	-6942
▁Conc	-6943
▁Cook	-6944
▁Corn	-6945
▁Sher	-6946
▁Wolf	-6947
▁ethn	-6948
▁flat	-6949
▁pric	-6950
▁rhym	-6951
▁sell	-6952
▁shif	-6953
▁Offic	-6954
▁Third	-6955
▁catch	-6956
▁cloud	-6957
▁conqu	-6958
▁coord	-6959
▁depos	-6960
▁equal	-6961
▁happy	-6962
▁ocean	-6963
igation	-6964
▁acknow	-6965
▁looked	-6966
▁medium	-6967
▁preced	-6968
▁spaces	-6969
▁streak	-6970
▁Admiral	-6971
▁Somalia	-6972
▁accused	-6973
▁feeling	-6974
▁proport	-6975
▁reading	-6976
▁settled	-6977
▁Attorney	-6978
▁adjacent	-6979
▁civilian	-6980
▁starling	-6981
▁terminus	-6982
▁traveled	-6983
▁Cambridge	-6984
▁assistant	-6985
▁challenge	-6986
▁implement	-6987
▁practices	-6988
▁surviving	-6989
▁Richardson	-6990
▁attempting	-6991
▁encouraged	-6992
▁effectively	-6993
▁inspiration	-6994
▁interchange	-6995
▁territories	-6996
▁agricultural	-6997
hl	-6998
mel	-6999
▁05	-7000
▁Sb	-7001
▁et	-7002
dess	-7003
emet	-7004
heim	-7005
ifer	-7006
▁122	-7007
▁Bed	-7008
▁Hun	-7009
▁Lab	-7010
▁Now	-7011
▁Tam	-7012
▁orn	-7013
▁swe	-7014
▁vac	-7015
abled	-7016
aware	-7017
ennis	-7018
ewhat	-7019
going	-7020
ommod	-7021
▁1880	-7022
▁1909	-7023
▁Garc	-7024
▁Marg	-7025
▁Pass	-7026
▁anth	-7027
▁evil	-7028
▁hear	-7029
▁nick	-7030
▁none	-7031
▁tick	-7032
cation	-7033
itated	-7034
▁Every	-7035
▁Jesus	-7036
▁Keamy	-7037
▁armor	-7038
▁multi	-7039
▁plain	-7040
▁races	-7041
▁shots	-7042
▁sight	-7043
▁stead	-7044
attered	-7045
▁Kombat	-7046
▁Mortal	-7047
▁convoy	-7048
▁partly	-7049
▁patron	-7050
▁ritual	-7051
▁seemed	-7052
▁serial	-7053
▁stands	-7054
▁towers	-7055
▁videos	-7056
▁Aniston	-7057
▁Formula	-7058
▁chronic	-7059
▁extreme	-7060
▁painted	-7061
▁visible	-7062
▁accommod	-7063
▁brothers	-7064
▁challeng	-7065
▁identity	-7066
▁obtained	-7067
▁recalled	-7068
▁somewhat	-7069
▁candidate	-7070
▁compounds	-7071
▁recovered	-7072
▁possession	-7073
▁scientific	-7074
▁arrangement	-7075
▁Commonwealth	-7076
SA	-7077
ds	-7078
utz	-7079
▁08	-7080
▁58	-7081
espe	-7082
idae	-7083
isis	-7084
oven	-7085
▁FIA	-7086
▁Gun	-7087
▁Hor	-7088
▁Joy	-7089
▁Ton	-7090
▁bat	-7091
▁hip	-7092
achus	-7093
annah	-7094
icate	-7095
icity	-7096
igins	-7097
iques	-7098
▁1912	-7099
▁1931	-7100
▁1935	-7101
▁Bron	-7102
▁Owen	-7103
▁Type	-7104
▁acts	-7105
▁cens	-7106
▁exha	-7107
▁fled	-7108
▁hits	-7109
▁impl	-7110
▁raid	-7111
▁tone	-7112
roscop	-7113
▁Islam	-7114
▁absol	-7115
▁cycle	-7116
▁funds	-7117
▁gross	-7118
▁schem	-7119
▁teach	-7120
▁verse	-7121
entures	-7122
▁Arabic	-7123
▁Coryth	-7124
▁Design	-7125
▁Fraser	-7126
▁Poland	-7127
▁convin	-7128
▁custom	-7129
▁estate	-7130
▁hosted	-7131
▁linked	-7132
▁reduce	-7133
▁spirit	-7134
▁twelve	-7135
▁Germans	-7136
▁Islands	-7137
▁Marines	-7138
▁consult	-7139
▁footage	-7140
▁passage	-7141
▁proceed	-7142
▁theatre	-7143
stitution	-7144
▁Hospital	-7145
▁Johnston	-7146
▁relative	-7147
▁Elizabeth	-7148
▁Plunketts	-7149
▁preserved	-7150
▁sculpture	-7151
▁suffering	-7152
▁basketball	-7153
▁Corythosaurus	-7154
▁controversial	-7155
ait	-7156
oli	-7157
uts	-7158
▁68	-7159
▁86	-7160
▁DC	-7161
▁Wi	-7162
▁au	-7163
amic	-7164
amps	-7165
elin	-7166
illy	-7167
lete	-7168
olay	-7169
▁Div	-7170
▁Dyn	-7171
▁Gib	-7172
▁Tig	-7173
ensis	-7174
▁1932	-7175
▁Bark	-7176
▁Late	-7177
▁Prof	-7178
▁Rele	-7179
▁Your	-7180
▁cart	-7181
▁musc	-7182
▁shut	-7183
▁thin	-7184
▁wars	-7185
athers	-7186
bishop	-7187
▁Allah	-7188
▁Hotel	-7189
▁Palmy	-7190
▁alleg	-7191
▁inaug	-7192
▁moral	-7193
▁siege	-7194
▁steel	-7195
▁verte	-7196
espeare	-7197
ificial	-7198
intendo	-7199
▁adults	-7200
▁blocks	-7201
▁debate	-7202
▁divers	-7203
▁income	-7204
▁prohib	-7205
▁stayed	-7206
▁tailed	-7207
▁Protest	-7208
▁Special	-7209
▁context	-7210
erogative	-7211
▁Nintendo	-7212
▁composer	-7213
▁defended	-7214
▁equipped	-7215
▁learning	-7216
▁opposite	-7217
▁parallel	-7218
▁province	-7219
▁sessions	-7220
▁Peninsula	-7221
▁attacking	-7222
▁concerned	-7223
▁expensive	-7224
▁reviewers	-7225
▁continuing	-7226
▁understand	-7227
▁Marlborough	-7228
▁Shakespeare	-7229
▁circulation	-7230
▁destruction	-7231
▁incorporated	-7232
▁responsibility	-7233
MO	-7234
aku	-7235
nal	-7236
osl	-7237
rif	-7238
▁82	-7239
▁Ur	-7240
▁ow	-7241
aste	-7242
body	-7243
hews	-7244
▁Fei	-7245
▁Sem	-7246
▁map	-7247
arked	-7248
iplom	-7249
ithic	-7250
state	-7251
▁1911	-7252
▁1921	-7253
▁1929	-7254
▁Dark	-7255
▁Pict	-7256
▁Real	-7257
▁answ	-7258
▁gone	-7259
▁pool	-7260
▁repr	-7261
iminal	-7262
▁Geoff	-7263
▁Media	-7264
▁Space	-7265
▁Sweet	-7266
▁Techn	-7267
▁agree	-7268
▁limit	-7269
▁renew	-7270
▁strip	-7271
▁trick	-7272
▁voted	-7273
uscript	-7274
▁Flight	-7275
▁Palace	-7276
▁Pitman	-7277
▁elabor	-7278
▁lowest	-7279
▁patrol	-7280
▁pushed	-7281
▁rebels	-7282
▁Channel	-7283
▁Patrick	-7284
▁Stanley	-7285
▁driving	-7286
▁falling	-7287
▁kitsune	-7288
▁promote	-7289
▁reserve	-7290
▁victims	-7291
▁willing	-7292
▁Lawrence	-7293
▁crossing	-7294
▁governor	-7295
▁measures	-7296
▁meetings	-7297
▁remnants	-7298
▁songwrit	-7299
▁throwing	-7300
▁classical	-7301
▁musicians	-7302
▁occasions	-7303
▁initiative	-7304
▁passengers	-7305
▁Netherlands	-7306
▁Construction	-7307
▁observations	-7308
AT	-7309
uv	-7310
zi	-7311
hol	-7312
▁Ak	-7313
acle	-7314
alky	-7315
fare	-7316
onia	-7317
otal	-7318
pent	-7319
quez	-7320
yard	-7321
ymph	-7322
▁161	-7323
▁Hob	-7324
▁Our	-7325
▁Wic	-7326
▁obl	-7327
▁ray	-7328
▁rum	-7329
eline	-7330
ifies	-7331
otton	-7332
▁1938	-7333
▁1959	-7334
▁1962	-7335
▁Free	-7336
▁Link	-7337
▁Mega	-7338
▁Rain	-7339
▁diet	-7340
▁hang	-7341
▁prol	-7342
▁sees	-7343
▁ster	-7344
rating	-7345
▁Labor	-7346
▁Treat	-7347
▁brick	-7348
▁fixed	-7349
▁raise	-7350
emetery	-7351
vention	-7352
▁García	-7353
▁Korean	-7354
▁Player	-7355
▁Queens	-7356
▁global	-7357
▁praise	-7358
▁rhythm	-7359
▁Atlanta	-7360
▁Emperor	-7361
▁Stefani	-7362
▁acclaim	-7363
▁batsman	-7364
▁goddess	-7365
▁objects	-7366
▁pitcher	-7367
▁returns	-7368
▁vessels	-7369
oceratops	-7370
▁Cambodia	-7371
▁Guardian	-7372
▁Imperial	-7373
▁carrying	-7374
▁comments	-7375
▁defences	-7376
▁purchase	-7377
▁retained	-7378
▁superior	-7379
▁villages	-7380
▁biography	-7381
▁involving	-7382
▁equivalent	-7383
▁intensified	-7384
▁difficulties	-7385
▁representing	-7386
▁unsuccessful	-7387
don	-7388
mes	-7389
yer	-7390
▁67	-7391
▁AP	-7392
icop	-7393
wald	-7394
▁162	-7395
▁gro	-7396
▁hem	-7397
chang	-7398
icide	-7399
iform	-7400
overs	-7401
rator	-7402
ureau	-7403
▁Bang	-7404
▁Cult	-7405
▁Furt	-7406
▁Hind	-7407
▁Raff	-7408
▁blow	-7409
▁bone	-7410
▁fine	-7411
▁fold	-7412
▁pure	-7413
echism	-7414
▁Prior	-7415
▁amino	-7416
▁cloth	-7417
▁needs	-7418
▁tight	-7419
▁union	-7420
resents	-7421
species	-7422
terbury	-7423
▁Aerith	-7424
▁Grammy	-7425
▁camera	-7426
▁commit	-7427
▁covers	-7428
▁escort	-7429
▁online	-7430
▁voiced	-7431
▁Mediter	-7432
▁collaps	-7433
▁periods	-7434
▁reveals	-7435
▁Athletic	-7436
▁Phillies	-7437
▁concerts	-7438
▁exchange	-7439
▁internal	-7440
▁Palestine	-7441
▁accompany	-7442
▁behaviour	-7443
▁committed	-7444
▁defeating	-7445
▁divisions	-7446
▁narrative	-7447
▁preferred	-7448
▁resources	-7449
▁simultane	-7450
▁survivors	-7451
▁Canterbury	-7452
▁Enterprise	-7453
▁disappoint	-7454
▁influences	-7455
▁Mediterranean	-7456
ár	-7457
boy	-7458
▁09	-7459
burn	-7460
elle	-7461
graf	-7462
inje	-7463
iped	-7464
math	-7465
rene	-7466
rich	-7467
▁Hou	-7468
▁Ken	-7469
▁McG	-7470
▁Mir	-7471
▁USD	-7472
▁bor	-7473
after	-7474
▁Kann	-7475
▁Krak	-7476
▁Prog	-7477
▁deck	-7478
▁dens	-7479
▁else	-7480
▁exit	-7481
▁feed	-7482
urrent	-7483
▁Along	-7484
▁Front	-7485
▁Rugby	-7486
▁doesn	-7487
▁panel	-7488
▁rugby	-7489
ishment	-7490
vements	-7491
▁Mother	-7492
▁Sports	-7493
▁closer	-7494
▁pupils	-7495
▁refers	-7496
▁tribut	-7497
▁Fernand	-7498
▁Furtado	-7499
▁Raffles	-7500
▁absence	-7501
▁classic	-7502
▁cruiser	-7503
▁Colorado	-7504
▁Markgraf	-7505
▁arrested	-7506
▁astronom	-7507
▁covering	-7508
▁deployed	-7509
▁dialogue	-7510
▁feelings	-7511
▁formally	-7512
▁hundreds	-7513
▁normally	-7514
▁products	-7515
▁proposal	-7516
▁visitors	-7517
▁Cathedral	-7518
▁considers	-7519
▁followers	-7520
▁interpret	-7521
▁municipal	-7522
▁operating	-7523
▁criticised	-7524
▁represents	-7525
▁legislation	-7526
▁Championships	-7527
CC	-7528
OK	-7529
iy	-7530
ean	-7531
▁Ly	-7532
▁aw	-7533
ishn	-7534
rage	-7535
staš	-7536
▁140	-7537
▁166	-7538
▁DAG	-7539
▁Hok	-7540
▁Hud	-7541
▁NHL	-7542
▁Nad	-7543
▁Nar	-7544
▁Roc	-7545
▁orb	-7546
ashed	-7547
hered	-7548
onomy	-7549
otype	-7550
ullen	-7551
▁Bath	-7552
▁Bell	-7553
▁Comb	-7554
▁deem	-7555
▁enth	-7556
▁fram	-7557
▁ille	-7558
▁outl	-7559
▁tank	-7560
▁tele	-7561
cribed	-7562
▁Satur	-7563
▁Ustaš	-7564
▁Valky	-7565
▁check	-7566
▁choir	-7567
▁devot	-7568
▁drums	-7569
▁liber	-7570
▁skull	-7571
▁surpr	-7572
▁Nichol	-7573
▁Sholay	-7574
▁ensure	-7575
▁extent	-7576
▁poorly	-7577
▁satisf	-7578
▁stable	-7579
▁forming	-7580
▁infrast	-7581
▁moments	-7582
▁trading	-7583
▁annually	-7584
▁appropri	-7585
▁displays	-7586
▁muscaria	-7587
▁overwhel	-7588
▁Dominican	-7589
▁stationed	-7590
▁submarine	-7591
▁biographer	-7592
▁convection	-7593
▁manuscript	-7594
▁prerogative	-7595
▁researchers	-7596
▁reconnaissance	-7597
▁reconstruction	-7598
DH	-7599
ogy	-7600
ori	-7601
zac	-7602
anti	-7603
life	-7604
niow	-7605
vati	-7606
▁Alb	-7607
▁Bat	-7608
▁Rom	-7609
▁Who	-7610
▁Wiś	-7611
▁jun	-7612
▁loy	-7613
▁nav	-7614
▁phr	-7615
ateau	-7616
inian	-7617
rants	-7618
▁Cape	-7619
▁FIFA	-7620
▁Jenn	-7621
▁Show	-7622
▁belt	-7623
▁lose	-7624
▁obst	-7625
▁sunk	-7626
▁util	-7627
friend	-7628
ricted	-7629
▁Blood	-7630
▁abund	-7631
▁brand	-7632
▁clock	-7633
▁creek	-7634
▁divor	-7635
▁doubt	-7636
▁dream	-7637
▁emerg	-7638
▁frame	-7639
▁lists	-7640
▁orbit	-7641
▁saves	-7642
▁steam	-7643
▁wings	-7644
niowiec	-7645
▁Maggie	-7646
▁Record	-7647
▁driven	-7648
▁memory	-7649
▁posted	-7650
▁useful	-7651
entional	-7652
▁Mexican	-7653
▁bombard	-7654
▁dynasty	-7655
▁intense	-7656
▁streets	-7657
▁Richmond	-7658
▁dinosaur	-7659
▁dramatic	-7660
▁entitled	-7661
▁injuries	-7662
▁modified	-7663
▁purposes	-7664
▁withdrew	-7665
▁essential	-7666
▁extension	-7667
▁transition	-7668
▁influential	-7669
▁understanding	-7670
ng	-7671
ker	-7672
lie	-7673
oom	-7674
ugh	-7675
▁78	-7676
▁Sn	-7677
acks	-7678
andy	-7679
arth	-7680
hist	-7681
ilst	-7682
lock	-7683
rous	-7684
▁101	-7685
▁155	-7686
▁900	-7687
▁Ark	-7688
▁Bab	-7689
▁Bow	-7690
▁CBS	-7691
▁Ele	-7692
▁Mun	-7693
▁VII	-7694
▁ago	-7695
▁ash	-7696
▁bed	-7697
eared	-7698
inson	-7699
itzer	-7700
ugosl	-7701
▁1928	-7702
▁Benn	-7703
▁Mach	-7704
▁Rest	-7705
▁gard	-7706
▁loan	-7707
teenth	-7708
▁Found	-7709
▁Jacob	-7710
▁Moore	-7711
▁ammun	-7712
▁chess	-7713
▁persu	-7714
▁plane	-7715
▁rated	-7716
▁rates	-7717
▁ridge	-7718
▁saved	-7719
▁spoke	-7720
▁tests	-7721
▁trail	-7722
ekāntav	-7723
▁Barker	-7724
▁Norway	-7725
▁actual	-7726
▁burned	-7727
▁demand	-7728
▁diplom	-7729
▁excess	-7730
▁formal	-7731
▁listen	-7732
▁parish	-7733
restling	-7734
▁Federal	-7735
▁Israeli	-7736
▁Parvati	-7737
▁Réunion	-7738
▁crosses	-7739
▁engines	-7740
▁factors	-7741
▁helicop	-7742
▁jackrab	-7743
▁kingdom	-7744
▁picture	-7745
achusetts	-7746
criptions	-7747
▁Portugal	-7748
▁Township	-7749
▁chairman	-7750
▁exposure	-7751
▁happened	-7752
▁informed	-7753
▁restrict	-7754
▁severely	-7755
▁shipping	-7756
▁watching	-7757
▁writings	-7758
▁Education	-7759
▁generated	-7760
▁installed	-7761
▁interests	-7762
▁materials	-7763
▁otherwise	-7764
▁Wiśniowiec	-7765
▁ammunition	-7766
▁apparently	-7767
▁journalist	-7768
▁originated	-7769
▁subspecies	-7770
▁suggesting	-7771
▁Massachusetts	-7772
▁circumstances	-7773
DS	-7774
oko	-7775
▁84	-7776
▁Dh	-7777
iang	-7778
oren	-7779
ryce	-7780
urse	-7781
▁Cec	-7782
▁Dig	-7783
▁Kim	-7784
▁Sab	-7785
▁See	-7786
▁Sid	-7787
▁ori	-7788
▁sky	-7789
acter	-7790
heera	-7791
inder	-7792
▁1927	-7793
▁Gary	-7794
▁Gwen	-7795
▁Hamp	-7796
▁Lang	-7797
▁Lith	-7798
▁Niel	-7799
▁Prom	-7800
▁RAAF	-7801
▁Roth	-7802
▁wine	-7803
forced	-7804
rorist	-7805
▁Baker	-7806
▁Death	-7807
▁Eagle	-7808
▁Eaton	-7809
▁Guide	-7810
▁Khand	-7811
▁Minor	-7812
▁consc	-7813
▁latex	-7814
▁layer	-7815
▁merch	-7816
▁paras	-7817
▁ready	-7818
▁relie	-7819
ilation	-7820
western	-7821
▁Branch	-7822
▁Having	-7823
▁Intern	-7824
▁Silver	-7825
▁Ustaše	-7826
▁Wilson	-7827
▁Yugosl	-7828
▁cancer	-7829
▁carved	-7830
▁causes	-7831
▁citing	-7832
▁eleven	-7833
▁resign	-7834
▁shells	-7835
▁unlike	-7836
▁Kannada	-7837
▁Swedish	-7838
▁burning	-7839
▁climate	-7840
▁mixture	-7841
▁operate	-7842
▁survive	-7843
urricanes	-7844
▁Historic	-7845
▁Ministry	-7846
▁behavior	-7847
▁disaster	-7848
▁festival	-7849
▁generals	-7850
▁memorial	-7851
▁overseas	-7852
▁predomin	-7853
▁thousand	-7854
ekāntavāda	-7855
▁departure	-7856
▁movements	-7857
▁partially	-7858
▁starlings	-7859
▁victories	-7860
▁impossible	-7861
▁resistance	-7862
▁institution	-7863
▁instruments	-7864
▁substantial	-7865
▁transportation	-7866
EC	-7867
Hg	-7868
de	-7869
ASA	-7870
cru	-7871
err	-7872
gov	-7873
pan	-7874
put	-7875
▁Az	-7876
▁Ra	-7877
onto	-7878
pson	-7879
urst	-7880
▁113	-7881
▁178	-7882
▁Már	-7883
▁Sup	-7884
▁eat	-7885
▁tex	-7886
inery	-7887
obile	-7888
piece	-7889
▁1860	-7890
▁1933	-7891
▁Budd	-7892
▁Celt	-7893
▁Glad	-7894
▁Howe	-7895
▁Last	-7896
▁Sans	-7897
▁Soon	-7898
▁copy	-7899
▁heat	-7900
▁mamm	-7901
▁safe	-7902
▁tack	-7903
▁turb	-7904
▁wasn	-7905
encing	-7906
weight	-7907
▁Midge	-7908
▁Yanke	-7909
▁advis	-7910
▁autom	-7911
▁looks	-7912
▁marry	-7913
▁nickn	-7914
▁recur	-7915
▁rooms	-7916
▁spend	-7917
▁subst	-7918
▁Bureau	-7919
▁Police	-7920
▁Season	-7921
▁commem	-7922
▁models	-7923
▁spores	-7924
▁Gilbert	-7925
▁Masters	-7926
▁Márquez	-7927
▁Perfect	-7928
▁Simpson	-7929
▁Stewart	-7930
▁amateur	-7931
▁bearing	-7932
▁compete	-7933
▁congreg	-7934
▁listing	-7935
▁temples	-7936
▁tribute	-7937
▁windows	-7938
▁Khandoba	-7939
▁Veronica	-7940
▁instance	-7941
▁musician	-7942
▁resigned	-7943
▁restored	-7944
▁squadron	-7945
▁struggle	-7946
▁thinking	-7947
▁beautiful	-7948
▁dangerous	-7949
▁documents	-7950
▁engineers	-7951
▁premiered	-7952
▁sequences	-7953
▁spiritual	-7954
▁afterwards	-7955
▁electronic	-7956
▁supporters	-7957
▁techniques	-7958
▁interaction	-7959
▁interesting	-7960
▁establishing	-7961
▁opportunities	-7962
ti	-7963
za	-7964
oma	-7965
opl	-7966
▁Ba	-7967
▁Jr	-7968
▁ty	-7969
LIMO	-7970
apse	-7971
mate	-7972
roit	-7973
udes	-7974
umin	-7975
▁123	-7976
▁165	-7977
▁Bah	-7978
▁Cob	-7979
▁Dak	-7980
▁FRE	-7981
▁Ira	-7982
▁McL	-7983
▁Pur	-7984
▁Vul	-7985
▁Wag	-7986
▁els	-7987
isler	-7988
omura	-7989
uable	-7990
▁1957	-7991
▁Fall	-7992
▁Then	-7993
▁bord	-7994
▁inHg	-7995
▁mode	-7996
▁myst	-7997
▁pale	-7998
▁poll	-7999
▁sale	-8000
▁toll	-8001
▁vast	-8002
▁Girls	-8003
▁coins	-8004
▁prove	-8005
▁recru	-8006
ologies	-8007
ulating	-8008
▁Miller	-8009
▁Mulder	-8010
▁Wright	-8011
▁attrib	-8012
▁consol	-8013
▁desert	-8014
▁helmet	-8015
▁storms	-8016
▁vessel	-8017
▁weapon	-8018
▁Detroit	-8019
▁FRELIMO	-8020
▁Jurchen	-8021
▁Justice	-8022
▁Phoenix	-8023
▁Toronto	-8024
▁achieve	-8025
▁artwork	-8026
▁designs	-8027
▁forcing	-8028
▁minimum	-8029
▁notably	-8030
▁offices	-8031
▁readers	-8032
▁reprodu	-8033
▁Saturday	-8034
▁criminal	-8035
▁neighbor	-8036
▁regiment	-8037
▁remember	-8038
▁situated	-8039
▁acknowled	-8040
▁adventure	-8041
▁elsewhere	-8042
▁Mozambique	-8043
▁artificial	-8044
▁properties	-8045
▁recognised	-8046
▁retirement	-8047
▁experiences	-8048
▁conservation	-8049
zo	-8050
asm	-8051
lyn	-8052
mit	-8053
phy	-8054
uls	-8055
▁CP	-8056
▁Ky	-8057
▁PC	-8058
arte	-8059
book	-8060
rees	-8061
wick	-8062
▁Ara	-8063
▁Cas	-8064
▁Esh	-8065
▁Imp	-8066
▁Pot	-8067
▁Ren	-8068
▁bod	-8069
▁enh	-8070
▁rib	-8071
▁sad	-8072
chell	-8073
oyage	-8074
yline	-8075
▁1850	-8076
▁Gray	-8077
▁Such	-8078
▁Vice	-8079
▁alle	-8080
▁bell	-8081
▁fant	-8082
▁frig	-8083
▁horn	-8084
▁sons	-8085
▁sung	-8086
▁surg	-8087
▁tiss	-8088
▁Barry	-8089
▁Bulls	-8090
▁Canal	-8091
▁Kevin	-8092
▁antic	-8093
▁costs	-8094
▁crops	-8095
▁giant	-8096
▁tanks	-8097
▁Albums	-8098
▁Hudson	-8099
▁Kansas	-8100
▁Russia	-8101
▁Scully	-8102
▁Warren	-8103
▁agents	-8104
▁burial	-8105
▁cooper	-8106
▁engage	-8107
▁fallen	-8108
▁format	-8109
atherine	-8110
▁Coleman	-8111
▁Journey	-8112
▁Network	-8113
▁Univers	-8114
▁biggest	-8115
▁cleared	-8116
▁delayed	-8117
▁depicts	-8118
▁founder	-8119
▁grounds	-8120
▁holiday	-8121
▁starred	-8122
▁trained	-8123
▁vehicle	-8124
▁Memorial	-8125
▁citizens	-8126
▁counties	-8127
▁formerly	-8128
▁fountain	-8129
▁measured	-8130
▁networks	-8131
▁remarked	-8132
▁westward	-8133
▁convinced	-8134
▁depending	-8135
▁objective	-8136
▁programme	-8137
▁radiation	-8138
▁selection	-8139
▁Management	-8140
▁excavation	-8141
▁photograph	-8142
▁statistics	-8143
▁Wiśniowiecki	-8144
▁characterized	-8145
▁infrastructure	-8146
Ch	-8147
yo	-8148
esh	-8149
iac	-8150
osh	-8151
ruz	-8152
▁02	-8153
▁03	-8154
▁Tu	-8155
▁id	-8156
acec	-8157
icit	-8158
icul	-8159
iggs	-8160
olen	-8161
warf	-8162
▁163	-8163
▁Bad	-8164
▁Beh	-8165
▁Mrs	-8166
▁Nob	-8167
▁Pow	-8168
▁vul	-8169
acked	-8170
aints	-8171
alley	-8172
ellar	-8173
emies	-8174
night	-8175
shore	-8176
▁1926	-8177
▁Dave	-8178
▁Gate	-8179
▁Kong	-8180
▁Much	-8181
▁Plat	-8182
▁Stal	-8183
▁Trek	-8184
▁fert	-8185
▁moon	-8186
▁vote	-8187
avalry	-8188
ellect	-8189
rupted	-8190
▁Anzac	-8191
▁Davis	-8192
▁Oscar	-8193
▁crake	-8194
▁deleg	-8195
▁dwarf	-8196
▁flash	-8197
▁frust	-8198
▁funer	-8199
▁steep	-8200
amental	-8201
assador	-8202
▁Hokies	-8203
▁Magdal	-8204
▁Peters	-8205
▁condem	-8206
▁render	-8207
▁rivers	-8208
▁skills	-8209
▁styles	-8210
▁tunnel	-8211
▁Arsenal	-8212
▁Persian	-8213
▁Profess	-8214
▁Stories	-8215
▁benefit	-8216
▁clearly	-8217
▁closest	-8218
▁decides	-8219
▁housing	-8220
▁hunting	-8221
▁playoff	-8222
▁ranging	-8223
▁Confeder	-8224
▁claiming	-8225
▁describe	-8226
▁feathers	-8227
▁imprison	-8228
▁opponent	-8229
▁railroad	-8230
▁Initially	-8231
▁Territory	-8232
▁audiences	-8233
▁determine	-8234
▁displayed	-8235
▁predators	-8236
▁reservoir	-8237
▁residence	-8238
▁Originally	-8239
▁Protestant	-8240
▁Republican	-8241
▁differences	-8242
▁inscription	-8243
▁predecessor	-8244
▁restoration	-8245
▁Nevertheless	-8246
▁Organization	-8247
▁reinforcements	-8248
ta	-8249
ön	-8250
▁μ	-8251
SBN	-8252
eld	-8253
gam	-8254
iao	-8255
oux	-8256
rep	-8257
uez	-8258
▁01	-8259
icia	-8260
▁Gro	-8261
▁Hay	-8262
▁Ple	-8263
▁Tal	-8264
▁cyt	-8265
▁err	-8266
▁myc	-8267
acles	-8268
alymp	-8269
mouth	-8270
uthor	-8271
▁1905	-8272
▁Abby	-8273
▁Corb	-8274
▁Hope	-8275
▁ISBN	-8276
▁Wing	-8277
▁easy	-8278
▁lake	-8279
▁teen	-8280
Malley	-8281
▁Allen	-8282
▁Event	-8283
▁Kelly	-8284
▁Magad	-8285
▁Rocky	-8286
▁Turks	-8287
▁Until	-8288
▁badly	-8289
▁bones	-8290
▁breed	-8291
▁cargo	-8292
▁comed	-8293
▁false	-8294
▁grown	-8295
▁prime	-8296
▁slide	-8297
ignment	-8298
▁Chagas	-8299
▁Chapel	-8300
▁Legacy	-8301
▁Leslie	-8302
▁Wagner	-8303
▁anyone	-8304
▁argues	-8305
▁arrive	-8306
▁aspect	-8307
▁corner	-8308
▁poison	-8309
▁priest	-8310
▁ranges	-8311
▁ruling	-8312
▁smooth	-8313
▁throne	-8314
▁underw	-8315
atically	-8316
▁Express	-8317
▁Mathews	-8318
▁alleged	-8319
▁degrees	-8320
▁install	-8321
▁ranking	-8322
sequently	-8323
▁Category	-8324
▁Jonathan	-8325
▁Paralymp	-8326
▁Valkyria	-8327
▁announce	-8328
▁attained	-8329
▁moderate	-8330
▁promised	-8331
▁prompted	-8332
▁relation	-8333
▁Communist	-8334
▁Victorian	-8335
▁childhood	-8336
▁defending	-8337
▁elections	-8338
▁intellect	-8339
▁magnitude	-8340
▁temporary	-8341
▁adaptation	-8342
▁restricted	-8343
▁scientists	-8344
▁thereafter	-8345
▁commandment	-8346
▁exclusively	-8347
▁perspective	-8348
▁preparation	-8349
▁representative	-8350
▁“	-8351
ASP	-8352
EFA	-8353
aft	-8354
ski	-8355
▁Pf	-8356
arsh	-8357
hire	-8358
ilty	-8359
rawn	-8360
zhou	-8361
▁Ace	-8362
▁Amb	-8363
▁Lud	-8364
▁Mit	-8365
▁bra	-8366
▁cup	-8367
▁fee	-8368
▁lat	-8369
▁mac	-8370
▁sup	-8371
▁wet	-8372
borne	-8373
burgh	-8374
eries	-8375
leton	-8376
raska	-8377
zegov	-8378
▁Emmy	-8379
▁Glob	-8380
▁Hans	-8381
▁Imag	-8382
▁Iraq	-8383
▁Kurt	-8384
▁Lamb	-8385
▁Nash	-8386
▁Poly	-8387
▁Shel	-8388
▁UEFA	-8389
▁bear	-8390
▁bind	-8391
▁bulk	-8392
▁cake	-8393
▁earn	-8394
▁fate	-8395
▁huge	-8396
▁offs	-8397
▁pine	-8398
▁snow	-8399
▁spur	-8400
▁symp	-8401
active	-8402
amount	-8403
orious	-8404
▁aster	-8405
▁bands	-8406
▁caves	-8407
▁consp	-8408
▁deity	-8409
▁explo	-8410
▁fatal	-8411
▁gates	-8412
▁innov	-8413
▁manga	-8414
▁nurse	-8415
▁rifle	-8416
▁trust	-8417
itively	-8418
olithic	-8419
▁Bertin	-8420
▁Brooks	-8421
▁Celtic	-8422
▁Cheval	-8423
▁Treaty	-8424
▁aftern	-8425
▁deemed	-8426
▁discip	-8427
▁exists	-8428
▁owners	-8429
▁revers	-8430
▁amounts	-8431
▁charged	-8432
▁deliber	-8433
▁erected	-8434
▁handled	-8435
▁injured	-8436
▁resumed	-8437
▁sisters	-8438
▁theater	-8439
▁Herzegov	-8440
▁Nebraska	-8441
▁boundary	-8442
▁colonies	-8443
▁engineer	-8444
▁everyone	-8445
▁explains	-8446
▁outbreak	-8447
▁portrait	-8448
▁Catechism	-8449
▁Waterfall	-8450
▁northward	-8451
▁Democratic	-8452
▁Magadheera	-8453
▁celebrated	-8454
▁Outstanding	-8455
▁advertising	-8456
▁inhabitants	-8457
▁architecture	-8458
▁strengthened	-8459
NL	-8460
SP	-8461
aki	-8462
aks	-8463
erg	-8464
oes	-8465
ugu	-8466
▁92	-8467
▁Yo	-8468
▁py	-8469
agen	-8470
ashi	-8471
char	-8472
olia	-8473
unes	-8474
urer	-8475
xual	-8476
▁117	-8477
▁Dog	-8478
▁Dum	-8479
▁Kam	-8480
▁Let	-8481
▁Reb	-8482
▁Ult	-8483
▁alt	-8484
adier	-8485
ategy	-8486
enden	-8487
inate	-8488
inton	-8489
omtav	-8490
otten	-8491
plete	-8492
▁1924	-8493
▁1925	-8494
▁Djok	-8495
▁Thus	-8496
▁cars	-8497
▁rend	-8498
azines	-8499
ivated	-8500
orable	-8501
▁Lower	-8502
▁Pryce	-8503
▁Sheff	-8504
▁analy	-8505
▁categ	-8506
▁chrom	-8507
▁judge	-8508
▁reven	-8509
▁texts	-8510
▁Alfred	-8511
▁Harold	-8512
▁Heaven	-8513
▁Madrid	-8514
▁Murray	-8515
▁Priest	-8516
▁Rifles	-8517
▁banned	-8518
▁bishop	-8519
▁driver	-8520
▁enters	-8521
▁ethnic	-8522
▁prompt	-8523
▁propag	-8524
▁pursue	-8525
▁sounds	-8526
▁supern	-8527
▁therap	-8528
▁triple	-8529
▁Asomtav	-8530
▁Houston	-8531
▁Nielsen	-8532
▁Railway	-8533
▁Yankees	-8534
▁chamber	-8535
▁demands	-8536
▁exposed	-8537
▁neutral	-8538
▁partner	-8539
▁princip	-8540
▁profile	-8541
▁tactics	-8542
▁turrets	-8543
▁warning	-8544
▁Business	-8545
▁Djokovic	-8546
▁designer	-8547
▁dominant	-8548
▁executed	-8549
▁garrison	-8550
▁graphics	-8551
▁landings	-8552
▁strategy	-8553
▁monuments	-8554
▁prevented	-8555
▁scattered	-8556
▁uncertain	-8557
eorological	-8558
▁difference	-8559
▁recordings	-8560
▁substitute	-8561
▁Asomtavruli	-8562
▁Herzegovina	-8563
▁application	-8564
▁distinctive	-8565
▁excavations	-8566
▁productions	-8567
▁settlements	-8568
▁demonstrated	-8569
▁inscriptions	-8570
▁collaboration	-8571
▁distinguished	-8572
NC	-8573
PA	-8574
ji	-8575
uz	-8576
box	-8577
bre	-8578
ige	-8579
isp	-8580
tah	-8581
▁NL	-8582
▁SS	-8583
▁ax	-8584
gars	-8585
ints	-8586
rior	-8587
usic	-8588
usts	-8589
▁170	-8590
▁Abd	-8591
▁Ext	-8592
▁Jen	-8593
▁Nav	-8594
▁Rap	-8595
▁Web	-8596
▁hen	-8597
▁kit	-8598
▁pap	-8599
arant	-8600
eland	-8601
essee	-8602
oster	-8603
tered	-8604
▁1934	-8605
▁Barn	-8606
▁Dean	-8607
▁Jews	-8608
▁Kirk	-8609
▁Mant	-8610
▁Supp	-8611
▁coin	-8612
▁duty	-8613
▁mbar	-8614
▁nurs	-8615
▁sure	-8616
apping	-8617
ellite	-8618
father	-8619
ieties	-8620
▁Anglo	-8621
▁Bible	-8622
▁Brand	-8623
▁Carre	-8624
▁Congo	-8625
▁Ghost	-8626
▁Those	-8627
▁Women	-8628
▁adopt	-8629
▁carri	-8630
▁drain	-8631
▁edges	-8632
▁elder	-8633
▁feels	-8634
▁forty	-8635
▁liked	-8636
▁stood	-8637
▁tenth	-8638
▁usage	-8639
▁Berlin	-8640
▁Eshmun	-8641
▁Hawaii	-8642
▁Philip	-8643
▁boxing	-8644
▁expect	-8645
▁pounds	-8646
▁sacred	-8647
▁scheme	-8648
ervative	-8649
▁Gallery	-8650
▁Madison	-8651
▁Overall	-8652
▁abandon	-8653
▁altered	-8654
▁amongst	-8655
▁centers	-8656
▁charity	-8657
▁martial	-8658
▁succeed	-8659
▁Original	-8660
▁approval	-8661
▁assisted	-8662
▁asteroid	-8663
▁ceratops	-8664
▁commemor	-8665
▁downtown	-8666
▁interpre	-8667
▁premiere	-8668
▁releases	-8669
▁striking	-8670
▁subjects	-8671
▁Tennessee	-8672
▁afternoon	-8673
▁defenders	-8674
▁emergency	-8675
▁initiated	-8676
▁magazines	-8677
▁suspended	-8678
▁indicating	-8679
▁philosophy	-8680
▁Corporation	-8681
▁considering	-8682
▁quarterback	-8683
▁residential	-8684
▁tournaments	-8685
▁translation	-8686
▁Conservation	-8687
▁Independence	-8688
▁archaeologist	-8689
IA	-8690
ci	-8691
rh	-8692
ami	-8693
aza	-8694
egr	-8695
oto	-8696
owa	-8697
rik	-8698
sex	-8699
urd	-8700
zym	-8701
▁AT	-8702
▁CO	-8703
▁NS	-8704
▁Ot	-8705
▁gh	-8706
alog	-8707
away	-8708
ctor	-8709
eled	-8710
gers	-8711
ieth	-8712
iney	-8713
isms	-8714
ping	-8715
umps	-8716
▁114	-8717
▁Beg	-8718
▁Dah	-8719
▁Fem	-8720
▁NDH	-8721
▁Non	-8722
▁SAS	-8723
▁Tax	-8724
▁Tok	-8725
▁net	-8726
▁spr	-8727
anyon	-8728
apped	-8729
neath	-8730
odore	-8731
regon	-8732
tario	-8733
▁1000	-8734
▁1870	-8735
▁1908	-8736
▁Aman	-8737
▁Anne	-8738
▁Caes	-8739
▁Cond	-8740
▁Cubs	-8741
▁Diam	-8742
▁Magn	-8743
▁Next	-8744
▁Omar	-8745
▁Sign	-8746
▁Stav	-8747
▁cous	-8748
▁fill	-8749
▁foss	-8750
▁pull	-8751
▁tale	-8752
action	-8753
▁Again	-8754
▁Evans	-8755
▁Grade	-8756
▁Hills	-8757
▁Naval	-8758
▁Peach	-8759
▁Sorra	-8760
▁Swiss	-8761
▁Wicca	-8762
▁Xenon	-8763
▁coinc	-8764
▁crews	-8765
▁diagn	-8766
▁fifty	-8767
▁roots	-8768
▁valid	-8769
itarian	-8770
raction	-8771
rapping	-8772
▁Finals	-8773
▁Giants	-8774
▁Labour	-8775
▁Michel	-8776
▁crisis	-8777
▁guilty	-8778
▁reveal	-8779
▁toured	-8780
inations	-8781
▁Imagine	-8782
▁Mariana	-8783
▁Ontario	-8784
▁Program	-8785
▁Release	-8786
▁Village	-8787
▁nations	-8788
▁rebuilt	-8789
▁talking	-8790
▁testing	-8791
▁uniform	-8792
▁violent	-8793
▁Romanian	-8794
▁delivery	-8795
▁frequent	-8796
▁ordering	-8797
▁realized	-8798
▁receives	-8799
▁reducing	-8800
▁schedule	-8801
▁Mountains	-8802
▁Sheffield	-8803
▁battlecru	-8804
▁impressed	-8805
▁requested	-8806
▁variation	-8807
▁Chevaliers	-8808
▁colleagues	-8809
▁conclusion	-8810
▁definition	-8811
▁eliminated	-8812
▁impression	-8813
▁occupation	-8814
▁respective	-8815
▁personality	-8816
▁northeastern	-8817
▁communication	-8818
▁environmental	-8819
▁simultaneously	-8820
Pa	-8821
alf	-8822
lem	-8823
nda	-8824
ulu	-8825
uty	-8826
wan	-8827
▁DD	-8828
▁Ey	-8829
aski	-8830
bing	-8831
eign	-8832
gets	-8833
idel	-8834
ipes	-8835
pled	-8836
rose	-8837
▁125	-8838
▁ABC	-8839
▁Cyr	-8840
▁Dor	-8841
▁Dud	-8842
▁McD	-8843
▁Say	-8844
▁Vic	-8845
▁obv	-8846
▁wel	-8847
byter	-8848
enses	-8849
etime	-8850
incol	-8851
inted	-8852
jamin	-8853
oples	-8854
uster	-8855
▁1923	-8856
▁Bush	-8857
▁Main	-8858
▁Near	-8859
▁Publ	-8860
▁Rhys	-8861
▁alph	-8862
▁asks	-8863
▁clim	-8864
▁dict	-8865
▁gets	-8866
▁gray	-8867
▁isot	-8868
▁jobs	-8869
▁lamb	-8870
▁sang	-8871
▁surf	-8872
ardine	-8873
ettles	-8874
▁Asian	-8875
▁Banks	-8876
▁Cress	-8877
▁Leigh	-8878
▁Polit	-8879
▁Prest	-8880
▁Tracy	-8881
▁Trust	-8882
▁decay	-8883
▁diver	-8884
▁metre	-8885
▁overt	-8886
▁prosp	-8887
▁renov	-8888
▁rhyme	-8889
▁surge	-8890
▁trend	-8891
▁upset	-8892
▁yield	-8893
angular	-8894
nership	-8895
▁Carmel	-8896
▁Dakota	-8897
▁Ernest	-8898
▁Lincol	-8899
▁Oregon	-8900
▁Social	-8901
▁Survey	-8902
▁cotton	-8903
▁helium	-8904
▁mathem	-8905
▁refuge	-8906
▁rounds	-8907
▁strict	-8908
▁superv	-8909
▁tempor	-8910
▁venues	-8911
acecraft	-8912
overeign	-8913
▁Ancient	-8914
▁Commons	-8915
▁Pulaski	-8916
▁disagre	-8917
▁fifteen	-8918
▁peaking	-8919
▁runners	-8920
▁trouble	-8921
▁Benjamin	-8922
▁Harrison	-8923
▁Hawaiian	-8924
▁operates	-8925
▁shoulder	-8926
▁visiting	-8927
▁Christine	-8928
▁collapsed	-8929
▁elaborate	-8930
▁employees	-8931
▁molecules	-8932
▁organised	-8933
▁sentences	-8934
▁sentiment	-8935
▁Eventually	-8936
▁Queensland	-8937
▁components	-8938
▁expression	-8939
▁mechanical	-8940
▁newspapers	-8941
▁withdrawal	-8942
▁potentially	-8943
▁assassination	-8944
ES	-8945
cl	-8946
pe	-8947
cks	-8948
iri	-8949
▁Hy	-8950
▁Vi	-8951
▁WN	-8952
acts	-8953
agod	-8954
enic	-8955
krit	-8956
otyp	-8957
oust	-8958
seud	-8959
unch	-8960
vant	-8961
▁766	-8962
▁Aut	-8963
▁Die	-8964
▁Nat	-8965
▁Pir	-8966
▁Sat	-8967
▁Str	-8968
▁Ten	-8969
▁USS	-8970
▁nom	-8971
▁ped	-8972
▁tom	-8973
aired	-8974
apore	-8975
arded	-8976
chens	-8977
ernon	-8978
▁1830	-8979
▁Bald	-8980
▁Case	-8981
▁Eric	-8982
▁Face	-8983
▁Farm	-8984
▁Lost	-8985
▁Mack	-8986
▁Maur	-8987
▁Sony	-8988
▁WASP	-8989
▁abol	-8990
▁amph	-8991
▁cook	-8992
▁dams	-8993
▁dies	-8994
▁phen	-8995
▁ride	-8996
▁scar	-8997
▁twin	-8998
▁vice	-8999
atinum	-9000
esters	-9001
▁Cater	-9002
▁Chron	-9003
▁Heart	-9004
▁Korea	-9005
▁Valve	-9006
▁acids	-9007
▁chest	-9008
▁drove	-9009
▁inhab	-9010
▁kills	-9011
▁quant	-9012
illiant	-9013
imetres	-9014
minster	-9015
▁Canyon	-9016
▁Charts	-9017
▁Cooper	-9018
▁Sisler	-9019
▁anthem	-9020
▁antiqu	-9021
▁asking	-9022
▁expert	-9023
▁extrat	-9024
▁parody	-9025
▁remove	-9026
▁stores	-9027
▁Gardner	-9028
▁Islamic	-9029
▁Lincoln	-9030
▁Section	-9031
▁Sorraia	-9032
▁Supreme	-9033
▁columns	-9034
▁dispute	-9035
▁earning	-9036
▁factory	-9037
▁putting	-9038
▁seeking	-9039
▁surgery	-9040
▁Campbell	-9041
▁Children	-9042
▁Sanskrit	-9043
▁artistic	-9044
▁compound	-9045
▁constant	-9046
▁creative	-9047
▁machines	-9048
▁suitable	-9049
▁vertical	-9050
▁youngest	-9051
▁Similarly	-9052
▁Singapore	-9053
▁Woodhouse	-9054
▁advancing	-9055
▁directors	-9056
▁entertain	-9057
▁referring	-9058
▁Foundation	-9059
▁boundaries	-9060
▁comparison	-9061
▁compliment	-9062
▁documented	-9063
▁spacecraft	-9064
▁structural	-9065
▁theatrical	-9066
▁translated	-9067
▁Christopher	-9068
▁contribution	-9069
▁extratropical	-9070
▁classification	-9071
ua	-9072
ée	-9073
esi	-9074
gon	-9075
ira	-9076
unc	-9077
▁af	-9078
Grom	-9079
ails	-9080
atum	-9081
eloc	-9082
fire	-9083
gian	-9084
imon	-9085
nels	-9086
star	-9087
zong	-9088
▁Imm	-9089
▁Las	-9090
▁McE	-9091
▁Nel	-9092
▁hyg	-9093
▁mir	-9094
▁rid	-9095
▁rig	-9096
▁tub	-9097
▁ump	-9098
acruz	-9099
akers	-9100
bound	-9101
entle	-9102
ester	-9103
odrom	-9104
ydney	-9105
▁1907	-9106
▁Bidd	-9107
▁Cred	-9108
▁Deep	-9109
▁Know	-9110
▁Mars	-9111
▁Panz	-9112
▁Plan	-9113
▁Priv	-9114
▁Prix	-9115
▁Veer	-9116
▁beam	-9117
▁cave	-9118
▁coff	-9119
▁conj	-9120
▁fasc	-9121
▁hook	-9122
▁hull	-9123
▁lies	-9124
▁mask	-9125
▁plus	-9126
▁sket	-9127
▁stim	-9128
▁swim	-9129
ennium	-9130
▁Jason	-9131
▁Neves	-9132
▁Obser	-9133
▁Prize	-9134
▁Somet	-9135
▁Where	-9136
▁bases	-9137
▁brain	-9138
▁effic	-9139
▁enzym	-9140
▁falls	-9141
▁fault	-9142
▁forth	-9143
▁infer	-9144
▁semif	-9145
▁shaft	-9146
▁solar	-9147
▁stock	-9148
▁toler	-9149
▁tooth	-9150
▁twent	-9151
▁unlik	-9152
ensions	-9153
▁Briggs	-9154
▁Cullen	-9155
▁Ingres	-9156
▁Telugu	-9157
▁Wander	-9158
▁aggreg	-9159
▁enthus	-9160
▁honour	-9161
▁notice	-9162
▁profit	-9163
▁rising	-9164
▁sample	-9165
▁topped	-9166
▁trials	-9167
▁Belgium	-9168
▁Digital	-9169
▁Jardine	-9170
▁Natural	-9171
▁Nettles	-9172
▁Species	-9173
▁bridges	-9174
▁contrad	-9175
▁explain	-9176
▁fishing	-9177
▁library	-9178
▁powered	-9179
▁prepare	-9180
▁removal	-9181
▁revised	-9182
▁segment	-9183
ropolitan	-9184
▁Together	-9185
▁Veracruz	-9186
▁armament	-9187
▁birthday	-9188
▁collapse	-9189
▁produces	-9190
▁spending	-9191
▁Biddenden	-9192
▁Champions	-9193
▁Cresswell	-9194
▁Louisiana	-9195
▁favorable	-9196
▁inclusion	-9197
▁professor	-9198
▁questions	-9199
▁reflected	-9200
▁satellite	-9201
▁submitted	-9202
▁Chronicles	-9203
▁completing	-9204
▁personally	-9205
▁sculptures	-9206
▁Furthermore	-9207
▁archaeology	-9208
▁battleships	-9209
▁encountered	-9210
▁programming	-9211
▁temporarily	-9212
▁anekāntavāda	-9213
▁organisation	-9214
▁communications	-9215
▁representation	-9216
CO	-9217
po	-9218
tz	-9219
▁”	-9220
aho	-9221
bra	-9222
equ	-9223
hum	-9224
ibl	-9225
ili	-9226
uki	-9227
▁Da	-9228
▁Ep	-9229
▁Ty	-9230
azer	-9231
grad	-9232
rift	-9233
rite	-9234
▁105	-9235
▁Dub	-9236
▁Ecc	-9237
▁Son	-9238
▁Stu	-9239
▁XII	-9240
▁bom	-9241
▁buy	-9242
▁gap	-9243
▁tip	-9244
▁tor	-9245
▁tox	-9246
aceae	-9247
anzib	-9248
brace	-9249
ewise	-9250
herry	-9251
oking	-9252
phoon	-9253
ycake	-9254
▁1922	-9255
▁ARVN	-9256
▁Cant	-9257
▁Cass	-9258
▁Ders	-9259
▁Lind	-9260
▁Tony	-9261
▁bare	-9262
▁bore	-9263
▁boys	-9264
▁clay	-9265
▁encl	-9266
▁liqu	-9267
agogue	-9268
howitz	-9269
incial	-9270
ishops	-9271
▁Freak	-9272
▁Magic	-9273
▁Prote	-9274
▁Sioux	-9275
▁Upper	-9276
▁Youth	-9277
▁canal	-9278
▁ideal	-9279
▁mines	-9280
▁revol	-9281
▁wives	-9282
inction	-9283
osexual	-9284
▁Caesar	-9285
▁Chrono	-9286
▁Dudley	-9287
▁Zanzib	-9288
▁apprec	-9289
▁choose	-9290
▁dispat	-9291
▁empire	-9292
▁export	-9293
▁fitted	-9294
▁genera	-9295
▁hidden	-9296
▁indeed	-9297
▁junior	-9298
▁meters	-9299
▁phrase	-9300
▁pretty	-9301
▁pulled	-9302
▁repair	-9303
▁sailed	-9304
▁shares	-9305
▁traded	-9306
▁weekly	-9307
▁wishes	-9308
ansfield	-9309
▁Amanita	-9310
▁Bennett	-9311
▁Clinton	-9312
▁Switzer	-9313
▁armored	-9314
▁beliefs	-9315
▁charted	-9316
▁disband	-9317
▁dispers	-9318
▁evident	-9319
▁illegal	-9320
▁joining	-9321
▁keeping	-9322
▁origins	-9323
▁updated	-9324
▁Register	-9325
▁arriving	-9326
▁confront	-9327
▁emphasis	-9328
▁highways	-9329
▁mainland	-9330
▁pleasure	-9331
▁upgraded	-9332
▁Nevesinje	-9333
▁Pattycake	-9334
▁assembled	-9335
▁struggled	-9336
▁underwent	-9337
▁Dershowitz	-9338
▁accomplish	-9339
▁biological	-9340
▁convention	-9341
▁demolished	-9342
▁discussion	-9343
▁objectives	-9344
▁publishing	-9345
▁supplement	-9346
▁Westminster	-9347
▁nominations	-9348
▁conversation	-9349
▁investigation	-9350
Xe	-9351
ja	-9352
▁₹	-9353
acc	-9354
adi	-9355
ikk	-9356
ito	-9357
uzz	-9358
zed	-9359
▁Kō	-9360
acre	-9361
aria	-9362
dale	-9363
iper	-9364
itic	-9365
otte	-9366
rams	-9367
ygen	-9368
▁115	-9369
▁127	-9370
▁360	-9371
▁Gen	-9372
▁Hop	-9373
▁Hur	-9374
▁Hyd	-9375
▁Ian	-9376
▁McN	-9377
▁WWF	-9378
▁Wik	-9379
▁ban	-9380
▁jew	-9381
enger	-9382
itter	-9383
luded	-9384
power	-9385
yclic	-9386
▁1861	-9387
▁Bird	-9388
▁Cart	-9389
▁Gael	-9390
▁Mall	-9391
▁Mort	-9392
▁Pier	-9393
▁Pohl	-9394
▁Weir	-9395
▁feud	-9396
▁ibis	-9397
▁pace	-9398
▁pion	-9399
▁sect	-9400
▁suit	-9401
aceous	-9402
embers	-9403
icians	-9404
linger	-9405
ternal	-9406
▁Abbey	-9407
▁Andre	-9408
▁Eight	-9409
▁Idaho	-9410
▁Keith	-9411
▁Parks	-9412
▁Usher	-9413
▁deter	-9414
▁facil	-9415
▁lanes	-9416
▁pages	-9417
▁reass	-9418
▁sharp	-9419
▁shift	-9420
▁threw	-9421
ecution	-9422
▁McCart	-9423
▁Observ	-9424
▁Sweden	-9425
▁advice	-9426
▁beings	-9427
▁cinema	-9428
▁devast	-9429
▁finale	-9430
▁fusion	-9431
▁merely	-9432
▁neighb	-9433
▁rebell	-9434
▁signal	-9435
▁string	-9436
▁whilst	-9437
▁Country	-9438
▁Defense	-9439
▁Indones	-9440
▁Jackets	-9441
▁Perform	-9442
▁Philipp	-9443
▁Preston	-9444
▁Without	-9445
▁carries	-9446
▁ceremon	-9447
▁feeding	-9448
▁genetic	-9449
▁peoples	-9450
▁reforms	-9451
▁shorter	-9452
▁tourist	-9453
▁unnamed	-9454
▁Building	-9455
▁Columbus	-9456
▁Mitchell	-9457
▁advertis	-9458
▁electron	-9459
▁eventual	-9460
▁facility	-9461
▁recovery	-9462
▁rotation	-9463
▁starring	-9464
▁unlikely	-9465
▁Argentine	-9466
▁Charlotte	-9467
▁Wanderers	-9468
▁abilities	-9469
▁certainly	-9470
▁daughters	-9471
▁intercept	-9472
▁reduction	-9473
▁controller	-9474
▁percentage	-9475
▁punishment	-9476
▁resolution	-9477
▁Switzerland	-9478
▁appointment	-9479
▁illustrated	-9480
▁measurements	-9481
▁negotiations	-9482
▁neighborhood	-9483
▁presentation	-9484
▁publications	-9485
▁southeastern	-9486
▁architectural	-9487
▁É	-9488
RNA	-9489
iga	-9490
iná	-9491
obi	-9492
una	-9493
van	-9494
yll	-9495
▁83	-9496
▁Mk	-9497
▁Zh	-9498
▁sq	-9499
▁vs	-9500
Tube	-9501
asha	-9502
asks	-9503
imer	-9504
isle	-9505
lesh	-9506
oken	-9507
oyle	-9508
pert	-9509
rett	-9510
soft	-9511
ucky	-9512
▁168	-9513
▁174	-9514
▁350	-9515
▁Cad	-9516
▁Joh	-9517
▁Lad	-9518
▁Nag	-9519
▁Sau	-9520
▁Tan	-9521
▁ben	-9522
▁dod	-9523
▁sew	-9524
▁vir	-9525
berry	-9526
ospel	-9527
ultan	-9528
▁Circ	-9529
▁Feel	-9530
▁Food	-9531
▁Gill	-9532
▁Lane	-9533
▁List	-9534
▁Nazi	-9535
▁Rick	-9536
▁bran	-9537
▁garn	-9538
▁hosp	-9539
▁loud	-9540
▁pref	-9541
▁soci	-9542
▁tonn	-9543
imeter	-9544
penter	-9545
rehens	-9546
riarch	-9547
terior	-9548
▁Dover	-9549
▁Isesi	-9550
▁Nadal	-9551
▁Tales	-9552
▁acute	-9553
▁advoc	-9554
▁anime	-9555
▁chain	-9556
▁inher	-9557
▁lover	-9558
▁manip	-9559
▁ninet	-9560
▁signs	-9561
▁sleep	-9562
▁suppl	-9563
▁wider	-9564
▁Gaelic	-9565
▁Health	-9566
▁Herald	-9567
▁Hoover	-9568
▁Madero	-9569
▁Stuart	-9570
▁Toniná	-9571
▁Twenty	-9572
▁Walker	-9573
▁Yellow	-9574
▁chicks	-9575
▁circle	-9576
▁mobile	-9577
▁reader	-9578
▁sevent	-9579
▁themed	-9580
▁Alberta	-9581
▁Belgian	-9582
▁Credits	-9583
▁Everton	-9584
▁Leonard	-9585
▁Lessing	-9586
▁Welling	-9587
▁YouTube	-9588
▁closure	-9589
▁compens	-9590
▁enemies	-9591
▁gravity	-9592
▁helping	-9593
▁illness	-9594
▁ongoing	-9595
▁onwards	-9596
▁stellar	-9597
▁suicide	-9598
▁telling	-9599
▁waiting	-9600
▁Arkansas	-9601
▁Delaware	-9602
▁Heritage	-9603
▁Province	-9604
▁brigades	-9605
▁controls	-9606
▁duration	-9607
▁magnetic	-9608
▁offering	-9609
▁patterns	-9610
▁McCartney	-9611
▁Paramount	-9612
▁batteries	-9613
▁decisions	-9614
▁depicting	-9615
▁elevation	-9616
▁pregnancy	-9617
▁travelled	-9618
▁Christians	-9619
▁aggressive	-9620
▁profession	-9621
▁proportion	-9622
▁Interchange	-9623
▁fundamental	-9624
▁accompanying	-9625
▁historically	-9626
▁significance	-9627
60	-9628
CU	-9629
aja	-9630
ila	-9631
▁Ah	-9632
▁DS	-9633
▁Ru	-9634
▁ca	-9635
▁ho	-9636
aman	-9637
appy	-9638
athy	-9639
erto	-9640
iger	-9641
mont	-9642
osph	-9643
raid	-9644
▁118	-9645
▁Bou	-9646
▁Cit	-9647
▁Dod	-9648
▁Fif	-9649
▁Got	-9650
▁Kau	-9651
▁Pak	-9652
▁Pic	-9653
▁Rav	-9654
▁Syn	-9655
▁Vis	-9656
▁kid	-9657
▁liv	-9658
▁rot	-9659
▁tut	-9660
andra	-9661
emble	-9662
endar	-9663
phant	-9664
sters	-9665
where	-9666
yself	-9667
▁1840	-9668
▁1895	-9669
▁1902	-9670
▁Buck	-9671
▁Dick	-9672
▁Dram	-9673
▁Kate	-9674
▁Khan	-9675
▁Utah	-9676
▁bull	-9677
▁caps	-9678
▁cler	-9679
▁clin	-9680
▁dual	-9681
▁gang	-9682
▁jury	-9683
▁shop	-9684
▁spin	-9685
▁wish	-9686
▁wors	-9687
coming	-9688
elaide	-9689
estyle	-9690
inners	-9691
▁Derff	-9692
▁Falls	-9693
▁Lover	-9694
▁accum	-9695
▁aimed	-9696
▁girls	-9697
▁pairs	-9698
▁pseud	-9699
▁shear	-9700
▁shirt	-9701
▁spots	-9702
▁steps	-9703
hemical	-9704
regular	-9705
usaders	-9706
▁Bulgar	-9707
▁Centre	-9708
▁Living	-9709
▁Rivers	-9710
▁Sydney	-9711
▁Watson	-9712
▁assess	-9713
▁dubbed	-9714
▁favour	-9715
▁handed	-9716
▁oxygen	-9717
▁promin	-9718
▁refere	-9719
▁riding	-9720
▁subsid	-9721
▁values	-9722
▁Canning	-9723
▁Cricket	-9724
▁Critics	-9725
▁Madonna	-9726
▁Seattle	-9727
▁acyclic	-9728
▁anticip	-9729
▁closing	-9730
▁donated	-9731
▁exactly	-9732
▁farmers	-9733
▁freedom	-9734
▁passion	-9735
▁platoon	-9736
▁printed	-9737
▁raising	-9738
▁terrain	-9739
▁trapped	-9740
▁Adelaide	-9741
▁accurate	-9742
▁category	-9743
▁commands	-9744
▁doctrine	-9745
▁embarked	-9746
▁hydrogen	-9747
▁phenomen	-9748
▁policies	-9749
▁requires	-9750
▁Stavanger	-9751
▁cancelled	-9752
▁conflicts	-9753
▁decorated	-9754
▁destroyer	-9755
▁execution	-9756
▁indicates	-9757
▁molecular	-9758
▁preparing	-9759
▁searching	-9760
▁similarly	-9761
▁Allosaurus	-9762
▁commanders	-9763
▁connecting	-9764
▁conversion	-9765
▁permission	-9766
▁partnership	-9767
▁Headquarters	-9768
▁concentrated	-9769
▁universities	-9770
▁characteristic	-9771
nh	-9772
pa	-9773
adh	-9774
ova	-9775
oyd	-9776
rad	-9777
▁04	-9778
alsa	-9779
asts	-9780
ilda	-9781
itia	-9782
olis	-9783
▁169	-9784
▁Ale	-9785
▁Arn	-9786
▁Ful	-9787
▁Fut	-9788
▁HNC	-9789
▁Hit	-9790
▁McM	-9791
▁Mix	-9792
▁Rag	-9793
▁Zoo	-9794
▁fru	-9795
▁gor	-9796
▁hPa	-9797
dream	-9798
ramid	-9799
romet	-9800
▁Bapt	-9801
▁Beau	-9802
▁Born	-9803
▁Boys	-9804
▁Coll	-9805
▁Eccl	-9806
▁Halo	-9807
▁Hugh	-9808
▁Race	-9809
▁anch	-9810
▁fulf	-9811
▁gift	-9812
▁mand	-9813
▁nave	-9814
▁reop	-9815
▁wore	-9816
atever	-9817
ficial	-9818
inness	-9819
schild	-9820
street	-9821
▁Books	-9822
▁Harry	-9823
▁Kings	-9824
▁Leeds	-9825
▁Serbs	-9826
▁admin	-9827
▁banks	-9828
▁bears	-9829
▁beats	-9830
▁crash	-9831
▁dense	-9832
▁fewer	-9833
▁flesh	-9834
▁laugh	-9835
▁logic	-9836
▁phone	-9837
▁ranks	-9838
▁seats	-9839
▁sympt	-9840
aration	-9841
ighters	-9842
▁Author	-9843
▁Batter	-9844
▁Corpus	-9845
▁Donald	-9846
▁Ground	-9847
▁Import	-9848
▁Jeremy	-9849
▁Morgan	-9850
▁Return	-9851
▁Tigers	-9852
▁abroad	-9853
▁ashore	-9854
▁ballad	-9855
▁cousin	-9856
▁credit	-9857
▁danger	-9858
▁golden	-9859
▁inning	-9860
▁melody	-9861
▁mental	-9862
▁metall	-9863
▁operas	-9864
▁pilots	-9865
▁solely	-9866
▁tenure	-9867
▁tissue	-9868
▁vertex	-9869
issioned	-9870
▁Angelou	-9871
▁Christi	-9872
▁Coldrum	-9873
▁Dynasty	-9874
▁Francis	-9875
▁Wyoming	-9876
▁backing	-9877
▁beating	-9878
▁clothes	-9879
▁credits	-9880
▁distrib	-9881
▁evolved	-9882
▁failing	-9883
▁harbour	-9884
▁pursuit	-9885
▁reaches	-9886
▁rushing	-9887
▁touring	-9888
▁unclear	-9889
▁wealthy	-9890
▁wickets	-9891
itchcraft	-9892
▁Baseball	-9893
▁Broadway	-9894
▁Daydream	-9895
▁Internet	-9896
▁animated	-9897
▁detected	-9898
▁friendly	-9899
▁leukemia	-9900
▁solution	-9901
ographical	-9902
▁Fernandez	-9903
▁Hungarian	-9904
▁civilians	-9905
▁evolution	-9906
▁functions	-9907
▁irregular	-9908
▁mountains	-9909
▁prisoners	-9910
▁qualified	-9911
▁recommend	-9912
▁strongest	-9913
▁withdrawn	-9914
▁positively	-9915
▁vegetation	-9916
▁Derfflinger	-9917
▁Description	-9918
▁Nightingale	-9919
▁continental	-9920
▁internation	-9921
▁maintaining	-9922
▁compositions	-9923
▁interactions	-9924
▁temperatures	-9925
▁transmission	-9926
MA	-9927
fe	-9928
ht	-9929
agi	-9930
bro	-9931
exp	-9932
hua	-9933
igs	-9934
ima	-9935
zer	-9936
▁AA	-9937
▁Dw	-9938
▁Ow	-9939
ambo	-9940
amer	-9941
anya	-9942
atom	-9943
itsu	-9944
oded	-9945
orph	-9946
uras	-9947
▁106	-9948
▁167	-9949
▁Dot	-9950
▁Had	-9951
▁Mes	-9952
▁Mol	-9953
▁bon	-9954
▁fil	-9955
▁hym	-9956
▁pec	-9957
▁shr	-9958
ashes	-9959
eness	-9960
iscus	-9961
izers	-9962
mates	-9963
ormal	-9964
ourse	-9965
ricts	-9966
uters	-9967
uther	-9968
▁1889	-9969
▁1903	-9970
▁Kody	-9971
▁Maya	-9972
▁Neil	-9973
▁Ship	-9974
▁Sora	-9975
▁Uran	-9976
▁XIII	-9977
▁cosm	-9978
▁epic	-9979
▁hind	-9980
▁rede	-9981
▁scre	-9982
▁tort	-9983
▁wait	-9984
alling	-9985
blazer	-9986
eltown	-9987
olence	-9988
ulates	-9989
▁Actor	-9990
▁Arabs	-9991
▁Cyrus	-9992
▁Heavy	-9993
▁Honor	-9994
▁Trees	-9995
▁Trond	-9996
▁Years	-9997
▁acted	-9998
▁balls	-9999
▁goods	-10000
▁noble	-10001
▁overs	-10002
▁penet	-10003
▁redes	-10004
▁resol	-10005
▁sanct	-10006
▁simpl	-10007
▁veter	-10008
legraph	-10009
tenance	-10010
underst	-10011
▁Almost	-10012
▁Barbar	-10013
▁Bedell	-10014
▁Econom	-10015
▁beauty	-10016
▁excell	-10017
▁obtain	-10018
▁victim	-10019
▁Library	-10020
▁Mantell	-10021
▁Romania	-10022
▁bowling	-10023
▁cougars	-10024
▁diamond	-10025
▁gaining	-10026
▁heavier	-10027
▁inflict	-10028
▁restore	-10029
▁revival	-10030
▁starter	-10031
▁targets	-10032
▁walking	-10033
▁Administ	-10034
▁Antimony	-10035
▁Jurchens	-10036
▁assembly	-10037
▁coverage	-10038
▁cruisers	-10039
▁identify	-10040
▁lifetime	-10041
▁numbered	-10042
▁platinum	-10043
▁pregnant	-10044
▁reviewed	-10045
▁surprise	-10046
▁Hampshire	-10047
▁animation	-10048
▁champions	-10049
▁increases	-10050
▁measuring	-10051
▁occurring	-10052
▁ownership	-10053
▁permitted	-10054
▁relegated	-10055
▁seriously	-10056
▁virtually	-10057
▁Bradstreet	-10058
▁Rothschild	-10059
▁Wellington	-10060
▁consistent	-10061
▁reinforced	-10062
▁succession	-10063
▁successive	-10064
▁appropriate	-10065
▁grandfather	-10066
▁interpreted	-10067
▁observation	-10068
▁photographs	-10069
▁parliamentary	-10070
▁Transportation	-10071
▁administrative	-10072
Ar	-10073
CW	-10074
ED	-10075
bow	-10076
har	-10077
rav	-10078
roc	-10079
rub	-10080
zes	-10081
▁Eg	-10082
▁Gw	-10083
▁Lü	-10084
▁Rä	-10085
▁da	-10086
▁pp	-10087
anka	-10088
arya	-10089
emen	-10090
inae	-10091
olin	-10092
stal	-10093
▁230	-10094
▁240	-10095
▁Est	-10096
▁Hem	-10097
▁IOC	-10098
▁MLB	-10099
▁Mas	-10100
▁gat	-10101
▁jet	-10102
▁lad	-10103
enous	-10104
ework	-10105
ifest	-10106
inces	-10107
osity	-10108
rinth	-10109
rowed	-10110
▁1849	-10111
▁Boss	-10112
▁Come	-10113
▁Data	-10114
▁Etty	-10115
▁Harv	-10116
▁Mong	-10117
▁Ohio	-10118
▁Pole	-10119
▁Room	-10120
▁Shim	-10121
▁Stop	-10122
▁code	-10123
▁dust	-10124
▁fame	-10125
▁forg	-10126
▁herd	-10127
▁styl	-10128
icking	-10129
lights	-10130
rieved	-10131
urance	-10132
▁Bruce	-10133
▁Grace	-10134
▁Humph	-10135
▁Liter	-10136
▁Local	-10137
▁Shell	-10138
▁Tommy	-10139
▁canon	-10140
▁crick	-10141
▁grade	-10142
▁helps	-10143
▁hills	-10144
▁morph	-10145
▁prize	-10146
▁queen	-10147
▁rains	-10148
▁scrap	-10149
▁sings	-10150
▁sized	-10151
▁taste	-10152
▁tours	-10153
▁vault	-10154
▁votes	-10155
▁Bright	-10156
▁Contem	-10157
▁Joyful	-10158
▁Manuel	-10159
▁agency	-10160
▁armies	-10161
▁backed	-10162
▁extend	-10163
▁guides	-10164
▁hamper	-10165
▁heroes	-10166
▁housed	-10167
▁lumber	-10168
▁naming	-10169
▁parent	-10170
▁roller	-10171
▁runway	-10172
▁seized	-10173
▁tasked	-10174
▁varied	-10175
abyrinth	-10176
▁Foreign	-10177
▁Looking	-10178
▁Studies	-10179
▁Tristan	-10180
▁balance	-10181
▁blocked	-10182
▁consent	-10183
▁extinct	-10184
▁flooded	-10185
▁pounder	-10186
▁predict	-10187
▁prefect	-10188
▁puzzles	-10189
▁revived	-10190
▁sitting	-10191
▁sixteen	-10192
▁Campaign	-10193
▁Margaret	-10194
▁Zanzibar	-10195
▁attitude	-10196
▁audition	-10197
▁bodyline	-10198
▁clothing	-10199
▁constitu	-10200
▁departed	-10201
▁descript	-10202
▁explicit	-10203
▁habitats	-10204
▁pitching	-10205
▁resemble	-10206
▁sporting	-10207
▁suddenly	-10208
▁Rhodesian	-10209
▁believing	-10210
▁capturing	-10211
▁depiction	-10212
▁displaced	-10213
▁hospitals	-10214
▁infection	-10215
▁perceived	-10216
▁reactions	-10217
▁secretary	-10218
▁synagogue	-10219
▁Collection	-10220
▁authorized	-10221
▁commenting	-10222
▁continuous	-10223
▁downstream	-10224
▁engagement	-10225
▁kilometers	-10226
▁questioned	-10227
▁registered	-10228
▁understood	-10229
▁Palestinian	-10230
▁manuscripts	-10231
▁participate	-10232
▁promotional	-10233
▁Christianity	-10234
▁announcement	-10235
▁championships	-10236
▁entertainment	-10237
▁representatives	-10238
CE	-10239
mn	-10240
éd	-10241
asa	-10242
ocy	-10243
▁Cy	-10244
▁NM	-10245
apur	-10246
atha	-10247
egas	-10248
icus	-10249
ilis	-10250
irts	-10251
önen	-10252
▁108	-10253
▁151	-10254
▁Alg	-10255
▁Aub	-10256
▁Blu	-10257
▁Heb	-10258
▁Hom	-10259
▁Lyn	-10260
▁Nev	-10261
▁Pam	-10262
▁Sel	-10263
▁nit	-10264
▁sib	-10265
▁sin	-10266
▁unt	-10267
▁wre	-10268
arest	-10269
brush	-10270
cover	-10271
guard	-10272
itely	-10273
oping	-10274
racks	-10275
thren	-10276
▁Beat	-10277
▁Bosn	-10278
▁Iowa	-10279
▁Isle	-10280
▁Jess	-10281
▁Kyle	-10282
▁Moon	-10283
▁NCAA	-10284
▁Nine	-10285
▁Raid	-10286
▁Sant	-10287
▁Verm	-10288
▁boot	-10289
▁brut	-10290
▁echo	-10291
▁flew	-10292
▁gene	-10293
▁icon	-10294
▁lect	-10295
▁pron	-10296
▁rays	-10297
▁reun	-10298
▁salv	-10299
▁unst	-10300
▁wolf	-10301
▁zomb	-10302
itches	-10303
ocaust	-10304
wegian	-10305
▁Charm	-10306
▁Dress	-10307
▁Räikk	-10308
▁Stars	-10309
▁Tokyo	-10310
▁Troph	-10311
▁Vegas	-10312
▁Zagre	-10313
▁celeb	-10314
▁conce	-10315
▁favou	-10316
▁flies	-10317
▁grave	-10318
▁humor	-10319
▁juven	-10320
▁lumin	-10321
▁resid	-10322
▁rocks	-10323
▁ruler	-10324
mingham	-10325
uations	-10326
▁Beeton	-10327
▁Creutz	-10328
▁Dennis	-10329
▁Hannah	-10330
▁Monkey	-10331
▁Slayer	-10332
▁Staley	-10333
▁alphab	-10334
▁convey	-10335
▁edited	-10336
▁endors	-10337
▁factor	-10338
▁insurg	-10339
▁pistol	-10340
▁puppet	-10341
▁recept	-10342
▁scorer	-10343
▁shrine	-10344
▁stabil	-10345
ensively	-10346
▁Gregory	-10347
▁Haitian	-10348
▁Morning	-10349
▁Popular	-10350
▁Skinner	-10351
▁Wrapped	-10352
▁affairs	-10353
▁comfort	-10354
▁denomin	-10355
▁fastest	-10356
▁kickoff	-10357
▁lacking	-10358
▁multipl	-10359
▁mystery	-10360
▁obvious	-10361
▁persist	-10362
▁replied	-10363
▁rescued	-10364
▁speaker	-10365
▁tickets	-10366
▁absorbed	-10367
▁aerodrom	-10368
▁coaching	-10369
▁fragment	-10370
▁mathemat	-10371
▁memories	-10372
▁teachers	-10373
▁vicinity	-10374
▁Palmyrene	-10375
▁Räikkönen	-10376
▁Trondheim	-10377
▁Wrestling	-10378
▁component	-10379
▁comprised	-10380
▁dependent	-10381
▁distances	-10382
▁districts	-10383
▁strategic	-10384
▁Birmingham	-10385
▁Ecclestone	-10386
▁Hellblazer	-10387
▁Interstate	-10388
▁approaches	-10389
▁archbishop	-10390
▁candidates	-10391
▁concession	-10392
▁industries	-10393
▁mainstream	-10394
▁touchdowns	-10395
▁undertaken	-10396
▁compilation	-10397
▁disturbance	-10398
▁territorial	-10399
▁arrangements	-10400
▁restrictions	-10401
▁transcription	-10402
no	-10403
ss	-10404
ags	-10405
jan	-10406
nyi	-10407
tym	-10408
ình	-10409
▁1.	-10410
▁IA	-10411
▁Ni	-10412
▁Ze	-10413
ario	-10414
inaw	-10415
nall	-10416
ocal	-10417
vent	-10418
zona	-10419
▁111	-10420
▁220	-10421
▁261	-10422
▁Jag	-10423
▁Kle	-10424
▁Liz	-10425
▁Loy	-10426
▁Ord	-10427
▁Ost	-10428
▁Rat	-10429
▁Rul	-10430
▁Tit	-10431
▁Vik	-10432
aters	-10433
odium	-10434
olics	-10435
orage	-10436
rooms	-10437
▁1819	-10438
▁1897	-10439
▁1901	-10440
▁1906	-10441
▁Ages	-10442
▁Chan	-10443
▁Curt	-10444
▁Dead	-10445
▁Hair	-10446
▁Hong	-10447
▁Less	-10448
▁Serb	-10449
▁Tong	-10450
▁Tree	-10451
▁True	-10452
▁atop	-10453
▁edit	-10454
▁punt	-10455
▁reag	-10456
▁ward	-10457
▁worn	-10458
achute	-10459
anther	-10460
luence	-10461
uating	-10462
unning	-10463
veland	-10464
▁Brack	-10465
▁Hobbs	-10466
▁Joint	-10467
▁Krist	-10468
▁Marie	-10469
▁Navar	-10470
▁Opera	-10471
▁Pagan	-10472
▁Singh	-10473
▁Stand	-10474
▁audio	-10475
▁enorm	-10476
▁genes	-10477
▁horiz	-10478
▁incur	-10479
▁liner	-10480
▁medal	-10481
▁poets	-10482
▁popul	-10483
▁sugar	-10484
▁sweet	-10485
▁tubes	-10486
▁vital	-10487
▁wrest	-10488
idation	-10489
▁Corbet	-10490
▁Hughes	-10491
▁Places	-10492
▁Quiney	-10493
▁Reagan	-10494
▁Sultan	-10495
▁Zagreb	-10496
▁aboard	-10497
▁acoust	-10498
▁aerial	-10499
▁behalf	-10500
▁curved	-10501
▁mature	-10502
▁miners	-10503
▁myster	-10504
▁phosph	-10505
▁rubber	-10506
▁talent	-10507
▁trough	-10508
▁Arizona	-10509
▁Baptist	-10510
▁Kennedy	-10511
▁Matthew	-10512
▁Senator	-10513
▁arguing	-10514
▁batsmen	-10515
▁bombing	-10516
▁circuit	-10517
▁cutting	-10518
▁escaped	-10519
▁hearing	-10520
▁hitting	-10521
▁justice	-10522
▁locally	-10523
▁matters	-10524
▁minimal	-10525
▁possess	-10526
▁sending	-10527
▁Highland	-10528
▁Princess	-10529
▁chapters	-10530
▁concepts	-10531
▁crickets	-10532
▁drinking	-10533
▁fourteen	-10534
▁membrane	-10535
▁opposing	-10536
▁pictures	-10537
▁praising	-10538
▁universe	-10539
▁Cambodian	-10540
▁Cleveland	-10541
▁Norwegian	-10542
▁Professor	-10543
▁brilliant	-10544
▁exclusive	-10545
▁extending	-10546
▁machinery	-10547
▁marketing	-10548
▁peninsula	-10549
▁recurring	-10550
▁relatives	-10551
▁traveling	-10552
▁Federation	-10553
▁businesses	-10554
▁exhibition	-10555
▁laboratory	-10556
▁agriculture	-10557
▁conjunction	-10558
▁extensively	-10559
▁maintenance	-10560
▁observatory	-10561
▁complimented	-10562
▁consistently	-10563
▁intellectual	-10564
▁requirements	-10565
▁Archaeological	-10566
▁Meteorological	-10567
▁archaeologists	-10568
EA	-10569
VP	-10570
rí	-10571
ali	-10572
kef	-10573
kes	-10574
umi	-10575
▁BM	-10576
▁Cu	-10577
▁RI	-10578
acon	-10579
iner	-10580
ipel	-10581
oric	-10582
ribi	-10583
time	-10584
▁154	-10585
▁Aud	-10586
▁Box	-10587
▁Dra	-10588
▁Fat	-10589
▁Lam	-10590
▁Set	-10591
▁Sox	-10592
▁Tak	-10593
▁ath	-10594
▁ecc	-10595
▁ing	-10596
▁unw	-10597
aduct	-10598
agers	-10599
agoda	-10600
aping	-10601
azing	-10602
ensus	-10603
ested	-10604
iller	-10605
ocent	-10606
overy	-10607
parts	-10608
ético	-10609
▁1878	-10610
▁Anti	-10611
▁Assy	-10612
▁Crab	-10613
▁Finn	-10614
▁José	-10615
▁Kyra	-10616
▁Liao	-10617
▁Mond	-10618
▁NASA	-10619
▁Vand	-10620
▁cash	-10621
▁dece	-10622
▁duet	-10623
▁intr	-10624
▁mini	-10625
▁mood	-10626
▁obsc	-10627
▁sick	-10628
▁zinc	-10629
ducted	-10630
earing	-10631
htwald	-10632
ingray	-10633
ocking	-10634
▁Cloud	-10635
▁Crash	-10636
▁Dance	-10637
▁Doyle	-10638
▁Files	-10639
▁Globe	-10640
▁Guine	-10641
▁Laure	-10642
▁Lucas	-10643
▁Marge	-10644
▁Metro	-10645
▁Seven	-10646
▁Sixth	-10647
▁Trail	-10648
▁Works	-10649
▁abuse	-10650
▁affil	-10651
▁alive	-10652
▁apply	-10653
▁camer	-10654
▁climb	-10655
▁deals	-10656
▁demon	-10657
▁enlar	-10658
▁guide	-10659
▁incom	-10660
▁motif	-10661
▁portr	-10662
▁sheep	-10663
▁spawn	-10664
▁stere	-10665
▁tombs	-10666
▁users	-10667
▁usual	-10668
▁venue	-10669
iblical	-10670
ocation	-10671
ometric	-10672
▁Brenda	-10673
▁Comedy	-10674
▁Europa	-10675
▁Flower	-10676
▁Graham	-10677
▁Invest	-10678
▁Johnny	-10679
▁Justin	-10680
▁Legend	-10681
▁Leices	-10682
▁Reines	-10683
▁Rockef	-10684
▁Urania	-10685
▁Vulcan	-10686
▁ascend	-10687
▁assert	-10688
▁autobi	-10689
▁beaten	-10690
▁couldn	-10691
▁decomm	-10692
▁device	-10693
▁exceed	-10694
▁faster	-10695
▁integr	-10696
▁lacked	-10697
▁legacy	-10698
▁margin	-10699
▁myself	-10700
▁precip	-10701
▁racing	-10702
▁tested	-10703
▁timber	-10704
▁trails	-10705
▁trains	-10706
▁unrest	-10707
bracelet	-10708
▁Finally	-10709
▁Kenneth	-10710
▁Plateau	-10711
▁acceler	-10712
▁advised	-10713
▁comprom	-10714
▁courses	-10715
▁discont	-10716
▁enforce	-10717
▁explore	-10718
▁funeral	-10719
▁guarant	-10720
▁hostile	-10721
▁pushing	-10722
▁pyramid	-10723
▁renewed	-10724
▁revenue	-10725
▁soldier	-10726
▁tracked	-10727
▁weekend	-10728
▁Atlético	-10729
▁Champion	-10730
▁Humphrey	-10731
▁argument	-10732
▁familiar	-10733
▁imperial	-10734
▁presents	-10735
▁steadily	-10736
▁Carpenter	-10737
▁Community	-10738
▁Egyptians	-10739
▁Holocaust	-10740
▁allocated	-10741
▁commenced	-10742
▁neighbour	-10743
▁predicted	-10744
▁twentieth	-10745
▁universal	-10746
▁Hurricanes	-10747
▁Operations	-10748
▁Partington	-10749
▁complement	-10750
▁contradict	-10751
▁households	-10752
▁indigenous	-10753
▁investment	-10754
▁propaganda	-10755
▁provincial	-10756
▁statements	-10757
▁Archaeology	-10758
▁centimetres	-10759
▁examination	-10760
▁exploration	-10761
▁governments	-10762
▁immigration	-10763
▁operational	-10764
▁transported	-10765
▁Contemporary	-10766
▁presidential	-10767
āh	-10768
aro	-10769
aze	-10770
bal	-10771
gas	-10772
mat	-10773
ods	-10774
udo	-10775
▁Ps	-10776
▁hi	-10777
adic	-10778
anga	-10779
aple	-10780
awny	-10781
ayne	-10782
eded	-10783
ogan	-10784
oret	-10785
osts	-10786
terf	-10787
▁102	-10788
▁131	-10789
▁171	-10790
▁ATP	-10791
▁Cov	-10792
▁Cry	-10793
▁Dal	-10794
▁Eve	-10795
▁Ins	-10796
▁Ker	-10797
▁Kon	-10798
▁McK	-10799
▁Myc	-10800
▁Raf	-10801
▁Ric	-10802
▁Sle	-10803
▁Yam	-10804
▁gri	-10805
▁jaw	-10806
▁mal	-10807
▁nut	-10808
▁sav	-10809
▁tel	-10810
arthy	-10811
ifeng	-10812
illas	-10813
onian	-10814
▁1800	-10815
▁Alfa	-10816
▁Ferd	-10817
▁Glan	-10818
▁Keys	-10819
▁Stat	-10820
▁Thai	-10821
▁acre	-10822
▁amid	-10823
▁beds	-10824
▁clar	-10825
▁mate	-10826
▁pink	-10827
▁plag	-10828
▁pled	-10829
▁pole	-10830
▁quad	-10831
▁seas	-10832
▁trio	-10833
ernoot	-10834
laimed	-10835
orough	-10836
▁Blues	-10837
▁Cecil	-10838
▁Chang	-10839
▁Fried	-10840
▁Guild	-10841
▁Lloyd	-10842
▁Mkhed	-10843
▁Movie	-10844
▁Remix	-10845
▁Symph	-10846
▁legit	-10847
▁mayor	-10848
▁plate	-10849
▁ports	-10850
▁posts	-10851
▁prest	-10852
▁quiet	-10853
▁smoke	-10854
▁talks	-10855
athetic	-10856
issions	-10857
ivation	-10858
mediate	-10859
▁Agency	-10860
▁Colomb	-10861
▁Hebrew	-10862
▁Hockey	-10863
▁Trophy	-10864
▁autumn	-10865
▁breaks	-10866
▁canals	-10867
▁eating	-10868
▁funded	-10869
▁happen	-10870
▁horror	-10871
▁quoted	-10872
▁retail	-10873
▁retain	-10874
▁reward	-10875
▁rivals	-10876
▁shield	-10877
▁slopes	-10878
▁visits	-10879
▁voices	-10880
▁warned	-10881
▁wicket	-10882
▁Banksia	-10883
▁Bernard	-10884
▁Kaifeng	-10885
▁Machine	-10886
▁Mission	-10887
▁Navarro	-10888
▁Pirates	-10889
▁Players	-10890
▁Russell	-10891
▁continu	-10892
▁convict	-10893
▁density	-10894
▁disrupt	-10895
▁distant	-10896
▁divorce	-10897
▁envelop	-10898
▁ignored	-10899
▁insects	-10900
▁magical	-10901
▁marking	-10902
▁persons	-10903
▁placing	-10904
▁priests	-10905
▁repairs	-10906
▁screens	-10907
▁singers	-10908
▁threats	-10909
▁volumes	-10910
▁Austrian	-10911
▁Cantrell	-10912
▁Computer	-10913
▁Franklin	-10914
▁Railroad	-10915
▁Superman	-10916
▁Villaret	-10917
▁absolute	-10918
▁airports	-10919
▁cemetery	-10920
▁flagship	-10921
▁minority	-10922
▁offshore	-10923
▁portions	-10924
▁studying	-10925
▁valuable	-10926
▁Africaine	-10927
▁Companies	-10928
▁Glanville	-10929
▁Lancaster	-10930
▁Mkhedruli	-10931
▁celebrate	-10932
▁condemned	-10933
▁exhausted	-10934
▁inaugural	-10935
▁proceeded	-10936
▁sexuality	-10937
▁sponsored	-10938
▁Vandernoot	-10939
▁calculated	-10940
▁constantly	-10941
▁developers	-10942
▁homosexual	-10943
▁reportedly	-10944
▁storylines	-10945
▁Composition	-10946
▁approaching	-10947
▁challenging	-10948
▁connections	-10949
▁speculation	-10950
▁tributaries	-10951
▁conventional	-10952
▁Charmbracelet	-10953
▁concentration	-10954
OM	-10955
Sh	-10956
bi	-10957
eh	-10958
▁Æ	-10959
aud	-10960
gud	-10961
iko	-10962
nik	-10963
osy	-10964
pet	-10965
rix	-10966
sis	-10967
▁Lt	-10968
▁Uk	-10969
▁Uy	-10970
asco	-10971
atra	-10972
aulk	-10973
dict	-10974
fish	-10975
inai	-10976
iors	-10977
isen	-10978
itis	-10979
orms	-10980
oves	-10981
owed	-10982
wall	-10983
▁116	-10984
▁129	-10985
▁135	-10986
▁Bes	-10987
▁CPS	-10988
▁Eug	-10989
▁Hod	-10990
▁Hub	-10991
▁MVP	-10992
▁Oak	-10993
▁Occ	-10994
▁Saf	-10995
▁Sug	-10996
▁WNO	-10997
▁duo	-10998
▁pin	-10999
▁spo	-11000
aiman	-11001
andal	-11002
arius	-11003
icism	-11004
place	-11005
raits	-11006
rible	-11007
uedoc	-11008
▁1857	-11009
▁1904	-11010
▁Airc	-11011
▁Brun	-11012
▁Ford	-11013
▁Full	-11014
▁Giel	-11015
▁Gran	-11016
▁McEl	-11017
▁Tell	-11018
▁Tide	-11019
▁Vist	-11020
▁heir	-11021
▁indu	-11022
▁rejo	-11023
▁scen	-11024
▁soph	-11025
▁torn	-11026
bourne	-11027
igious	-11028
itudes	-11029
oplasm	-11030
▁Adult	-11031
▁Bhair	-11032
▁Billy	-11033
▁Chand	-11034
▁Elgin	-11035
▁Exper	-11036
▁Faulk	-11037
▁Isles	-11038
▁Larry	-11039
▁Rajam	-11040
▁Ruler	-11041
▁Sinai	-11042
▁Small	-11043
▁Still	-11044
▁buoys	-11045
▁dozen	-11046
▁dying	-11047
▁essay	-11048
▁flows	-11049
▁grows	-11050
▁loved	-11051
▁march	-11052
▁moist	-11053
▁monit	-11054
▁noise	-11055
▁saint	-11056
▁spore	-11057
▁tasks	-11058
▁truly	-11059
▁urged	-11060
▁waves	-11061
▁Auburn	-11062
▁Austro	-11063
▁Clocks	-11064
▁Commer	-11065
▁Ganges	-11066
▁Nelson	-11067
▁Ronald	-11068
▁Studio	-11069
▁Ulster	-11070
▁clergy	-11071
▁decide	-11072
▁enroll	-11073
▁execut	-11074
▁finest	-11075
▁gentle	-11076
▁hamlet	-11077
▁hoping	-11078
▁indigo	-11079
▁linear	-11080
▁manage	-11081
▁puzzle	-11082
▁reconc	-11083
▁remind	-11084
▁salary	-11085
▁unless	-11086
isations	-11087
▁Actress	-11088
▁Austria	-11089
▁Bristol	-11090
▁Destroy	-11091
▁Freakum	-11092
▁Gielgud	-11093
▁antagon	-11094
▁colours	-11095
▁devoted	-11096
▁drivers	-11097
▁dynamic	-11098
▁imagery	-11099
▁knocked	-11100
▁lyrical	-11101
▁physics	-11102
▁roadway	-11103
▁surpass	-11104
▁travels	-11105
▁undergo	-11106
▁venture	-11107
ibilities	-11108
▁Aviation	-11109
▁Loverboy	-11110
▁McCarthy	-11111
▁airfield	-11112
▁attorney	-11113
▁centered	-11114
▁deterior	-11115
▁emotions	-11116
▁gathered	-11117
▁graduate	-11118
▁hypothes	-11119
▁passages	-11120
▁preserve	-11121
▁stronger	-11122
▁survival	-11123
▁teammate	-11124
▁vertices	-11125
▁Berhtwald	-11126
▁Catholics	-11127
▁Commandos	-11128
▁Languedoc	-11129
▁Leicester	-11130
▁Neolithic	-11131
▁Qedarites	-11132
▁Telegraph	-11133
▁Yorkshire	-11134
▁belonging	-11135
▁boyfriend	-11136
▁fragments	-11137
▁memorable	-11138
▁microscop	-11139
▁presbyter	-11140
▁replacing	-11141
▁shipments	-11142
▁stretched	-11143
▁diplomatic	-11144
▁intersects	-11145
▁jackrabbit	-11146
▁occasional	-11147
▁progressed	-11148
▁reflecting	-11149
▁repeatedly	-11150
▁traditions	-11151
▁variations	-11152
▁Performance	-11153
▁Rockefeller	-11154
▁battlefield	-11155
▁collections	-11156
▁consumption	-11157
▁cooperation	-11158
▁essentially	-11159
▁improvement	-11160
▁permanently	-11161
▁politicians	-11162
▁surrendered	-11163
▁experimental	-11164
▁similarities	-11165
eu	-11166
▁→	-11167
ams	-11168
die	-11169
isa	-11170
mad	-11171
oni	-11172
rov	-11173
ugs	-11174
▁Ay	-11175
▁CG	-11176
▁DE	-11177
▁Ko	-11178
▁Mh	-11179
▁Va	-11180
▁cy	-11181
ache	-11182
acko	-11183
akim	-11184
ante	-11185
atch	-11186
boro	-11187
case	-11188
geon	-11189
hesh	-11190
irty	-11191
ivan	-11192
lane	-11193
odox	-11194
omic	-11195
saku	-11196
▁Bod	-11197
▁Gri	-11198
▁Lem	-11199
▁Tar	-11200
▁Tow	-11201
▁Wed	-11202
▁alg	-11203
▁avo	-11204
▁mit	-11205
▁rit	-11206
▁sic	-11207
▁ton	-11208
▁urg	-11209
▁vig	-11210
asted	-11211
enson	-11212
illes	-11213
isons	-11214
ocese	-11215
ricus	-11216
ships	-11217
▁1848	-11218
▁Belt	-11219
▁Bour	-11220
▁Cret	-11221
▁Earn	-11222
▁Expl	-11223
▁Fast	-11224
▁Harm	-11225
▁Hein	-11226
▁Holl	-11227
▁Lead	-11228
▁Mole	-11229
▁Pink	-11230
▁Prop	-11231
▁Sout	-11232
▁Want	-11233
▁Whit	-11234
▁Yang	-11235
▁genu	-11236
▁mild	-11237
▁navy	-11238
▁pill	-11239
▁push	-11240
▁span	-11241
▁tape	-11242
anelli	-11243
cially	-11244
enesis	-11245
entine	-11246
ounced	-11247
reated	-11248
season	-11249
ylogen	-11250
▁Devin	-11251
▁Gacko	-11252
▁Glass	-11253
▁Jimmy	-11254
▁Leban	-11255
▁Loose	-11256
▁Scots	-11257
▁Scout	-11258
▁Staff	-11259
▁Worth	-11260
▁adequ	-11261
▁angle	-11262
▁bombs	-11263
▁cards	-11264
▁disgu	-11265
▁draws	-11266
▁funny	-11267
▁grain	-11268
▁links	-11269
▁magic	-11270
▁naked	-11271
▁price	-11272
▁rever	-11273
▁stanz	-11274
▁stern	-11275
▁stick	-11276
▁sweep	-11277
▁sword	-11278
▁tools	-11279
igadier	-11280
ruption	-11281
▁Kōsaku	-11282
▁Nevada	-11283
▁afford	-11284
▁amphib	-11285
▁ceased	-11286
▁compan	-11287
▁expand	-11288
▁fertil	-11289
▁invent	-11290
▁kicked	-11291
▁limits	-11292
▁opined	-11293
▁planes	-11294
▁sacked	-11295
▁subord	-11296
▁summar	-11297
▁tonnes	-11298
▁verses	-11299
▁Antonio	-11300
▁Bradman	-11301
▁Maurice	-11302
▁Weather	-11303
▁athlete	-11304
▁avoided	-11305
▁barrier	-11306
▁dealing	-11307
▁dressed	-11308
▁planets	-11309
▁shallow	-11310
▁shifted	-11311
▁tunnels	-11312
▁Aircraft	-11313
▁Cultural	-11314
▁Faulkner	-11315
▁Montreal	-11316
▁Robinson	-11317
▁aviation	-11318
▁devotion	-11319
▁drainage	-11320
▁enormous	-11321
▁garnered	-11322
▁involves	-11323
▁isotopes	-11324
▁junction	-11325
▁landmark	-11326
▁narrator	-11327
▁opinions	-11328
▁publicly	-11329
▁screened	-11330
▁siblings	-11331
▁symptoms	-11332
▁Barbarian	-11333
▁Formation	-11334
▁Represent	-11335
▁Shimomura	-11336
▁confusion	-11337
▁directing	-11338
▁evacuated	-11339
▁mythology	-11340
▁perfectly	-11341
▁seemingly	-11342
▁stability	-11343
▁substance	-11344
▁violation	-11345
▁Cretaceous	-11346
▁Millennium	-11347
▁Yugoslavia	-11348
▁acceptable	-11349
▁ambassador	-11350
▁battleship	-11351
▁dedication	-11352
▁employment	-11353
▁processing	-11354
▁prohibited	-11355
▁relegation	-11356
▁remarkable	-11357
▁songwriter	-11358
▁accommodate	-11359
▁bombardment	-11360
▁complicated	-11361
▁destination	-11362
▁disappeared	-11363
▁nightingale	-11364
▁rectangular	-11365
▁sufficiently	-11366
▁manufacturing	-11367
▁predominantly	-11368
ho	-11369
ko	-11370
ín	-11371
ươ	-11372
▁Í	-11373
abl	-11374
apa	-11375
gom	-11376
iph	-11377
irm	-11378
rez	-11379
uen	-11380
ums	-11381
▁CN	-11382
▁EP	-11383
▁Fr	-11384
▁IR	-11385
▁Tz	-11386
▁Wu	-11387
▁mg	-11388
aels	-11389
avan	-11390
budo	-11391
hous	-11392
omyc	-11393
ouli	-11394
ques	-11395
rino	-11396
roke	-11397
umph	-11398
usan	-11399
uskh	-11400
zing	-11401
ương	-11402
▁172	-11403
▁173	-11404
▁Cow	-11405
▁FIT	-11406
▁Jar	-11407
▁Pok	-11408
▁Sac	-11409
▁Sax	-11410
▁abn	-11411
▁ion	-11412
▁nep	-11413
enged	-11414
found	-11415
inisc	-11416
onsin	-11417
ourag	-11418
owski	-11419
phone	-11420
urers	-11421
▁1854	-11422
▁1856	-11423
▁Berg	-11424
▁Beth	-11425
▁Boot	-11426
▁Bình	-11427
▁Chop	-11428
▁Days	-11429
▁Edge	-11430
▁Gamb	-11431
▁Mend	-11432
▁Mile	-11433
▁Pete	-11434
▁Poet	-11435
▁Shaw	-11436
▁Site	-11437
▁Ster	-11438
▁Todd	-11439
▁Uygh	-11440
▁Well	-11441
▁Wisc	-11442
▁Xbox	-11443
▁Xook	-11444
▁boil	-11445
▁bold	-11446
▁cuts	-11447
▁eval	-11448
▁fier	-11449
▁item	-11450
▁merc	-11451
▁milk	-11452
▁tent	-11453
▁terr	-11454
▁ther	-11455
▁thro	-11456
▁warn	-11457
itious	-11458
▁Gabri	-11459
▁Medal	-11460
▁Month	-11461
▁Sword	-11462
▁drift	-11463
▁fires	-11464
▁lying	-11465
▁reper	-11466
▁veloc	-11467
▁walks	-11468
▁weigh	-11469
▁wound	-11470
achment	-11471
ounters	-11472
ullivan	-11473
uskhuri	-11474
▁Combat	-11475
▁Dwight	-11476
▁Garden	-11477
▁Imbudo	-11478
▁Julian	-11479
▁Mahesh	-11480
▁Malays	-11481
▁Napole	-11482
▁Senate	-11483
▁bypass	-11484
▁colors	-11485
▁desper	-11486
▁gender	-11487
▁halted	-11488
▁learns	-11489
▁licens	-11490
▁liquid	-11491
▁movies	-11492
▁rushed	-11493
▁sacrif	-11494
▁varies	-11495
▁vulner	-11496
aturally	-11497
rosaurus	-11498
urrently	-11499
▁Brother	-11500
▁Defence	-11501
▁Earnest	-11502
▁Filming	-11503
▁Liberal	-11504
▁Pfaster	-11505
▁Raymond	-11506
▁Wikiped	-11507
▁cabinet	-11508
▁caliber	-11509
▁cavalry	-11510
▁experts	-11511
▁extends	-11512
▁grasses	-11513
▁imposed	-11514
▁options	-11515
▁spotted	-11516
▁supreme	-11517
▁therapy	-11518
▁warfare	-11519
rehensive	-11520
▁Brigades	-11521
▁Montfort	-11522
▁Nicholas	-11523
▁Official	-11524
▁Pakistan	-11525
▁acoustic	-11526
▁advances	-11527
▁cyclones	-11528
▁defender	-11529
▁demanded	-11530
▁governed	-11531
▁heritage	-11532
▁hygromet	-11533
▁inducted	-11534
▁petition	-11535
▁realised	-11536
▁relieved	-11537
▁variable	-11538
▁Beginning	-11539
▁Gladstone	-11540
▁Wisconsin	-11541
▁alternate	-11542
▁computers	-11543
▁disbanded	-11544
▁landscape	-11545
▁limestone	-11546
▁offerings	-11547
▁populated	-11548
▁releasing	-11549
▁sensitive	-11550
▁surprised	-11551
▁weakening	-11552
▁Technology	-11553
▁Witchcraft	-11554
▁challenges	-11555
▁electrical	-11556
▁helicopter	-11557
▁immigrants	-11558
▁competitive	-11559
▁highlighted	-11560
▁Constitution	-11561
▁collaborated	-11562
▁deliberately	-11563
▁improvements	-11564
▁participants	-11565
▁decommissioned	-11566
.1	-11567
orf	-11568
oso	-11569
rox	-11570
say	-11571
sts	-11572
usa	-11573
ław	-11574
▁AL	-11575
▁AN	-11576
▁Ec	-11577
▁Hi	-11578
▁MP	-11579
▁Na	-11580
▁Nu	-11581
▁yd	-11582
ayan	-11583
beat	-11584
bits	-11585
fric	-11586
iban	-11587
inge	-11588
izer	-11589
sole	-11590
▁109	-11591
▁737	-11592
▁Kub	-11593
▁Lin	-11594
▁Nik	-11595
▁Pil	-11596
▁SMS	-11597
▁Sey	-11598
▁Spe	-11599
▁Tun	-11600
▁Was	-11601
▁bol	-11602
▁eld	-11603
▁isn	-11604
▁lie	-11605
▁lig	-11606
▁mud	-11607
▁nic	-11608
▁oct	-11609
angle	-11610
assed	-11611
icken	-11612
lando	-11613
oting	-11614
umble	-11615
▁1200	-11616
▁1832	-11617
▁1851	-11618
▁1881	-11619
▁1894	-11620
▁1898	-11621
▁Adri	-11622
▁Amyl	-11623
▁Dian	-11624
▁Ferr	-11625
▁Fund	-11626
▁Lear	-11627
▁Loch	-11628
▁Moro	-11629
▁Note	-11630
▁PAVN	-11631
▁Wald	-11632
▁Ward	-11633
▁butt	-11634
▁cats	-11635
▁dawn	-11636
▁deer	-11637
▁fart	-11638
▁forb	-11639
▁gran	-11640
▁guid	-11641
▁knee	-11642
▁myel	-11643
▁pian	-11644
▁pret	-11645
▁rape	-11646
▁rush	-11647
▁Ímar	-11648
ashire	-11649
enburg	-11650
escope	-11651
gomery	-11652
▁Apart	-11653
▁Derby	-11654
▁Gross	-11655
▁Katia	-11656
▁Level	-11657
▁Loren	-11658
▁Motor	-11659
▁Pitts	-11660
▁Rhode	-11661
▁Style	-11662
▁Terry	-11663
▁Total	-11664
▁Vishn	-11665
▁accus	-11666
▁aside	-11667
▁blend	-11668
▁casem	-11669
▁chanc	-11670
▁clust	-11671
▁dealt	-11672
▁guerr	-11673
▁gusts	-11674
▁inver	-11675
▁resur	-11676
▁shall	-11677
▁skill	-11678
▁stall	-11679
▁tawny	-11680
▁tempo	-11681
▁uncle	-11682
umbered	-11683
▁Action	-11684
▁Attack	-11685
▁Bergen	-11686
▁Blacks	-11687
▁Darwin	-11688
▁Energy	-11689
▁Gabbar	-11690
▁Guinea	-11691
▁Harris	-11692
▁Humpty	-11693
▁Mariah	-11694
▁Mhalsa	-11695
▁Puerto	-11696
▁Stakes	-11697
▁Vargas	-11698
▁affect	-11699
▁cattle	-11700
▁crowds	-11701
▁entert	-11702
▁extant	-11703
▁floods	-11704
▁intact	-11705
▁interc	-11706
▁labour	-11707
▁lawyer	-11708
▁metric	-11709
▁paying	-11710
aliation	-11711
anthodon	-11712
etheless	-11713
expected	-11714
ressions	-11715
▁Blackie	-11716
▁McElroy	-11717
▁Members	-11718
▁Nazaire	-11719
▁Orlando	-11720
▁Reviews	-11721
▁Trinity	-11722
▁Wallace	-11723
▁arrives	-11724
▁casting	-11725
▁conspir	-11726
▁dancing	-11727
▁descent	-11728
▁diverse	-11729
▁divines	-11730
▁enabled	-11731
▁exhaust	-11732
▁flowers	-11733
▁heading	-11734
▁invaded	-11735
▁pressed	-11736
▁promise	-11737
▁rituals	-11738
▁secular	-11739
umberland	-11740
▁Colonies	-11741
▁Greatest	-11742
▁Guinness	-11743
▁Nuskhuri	-11744
▁Personal	-11745
▁Taxonomy	-11746
▁circular	-11747
▁competed	-11748
▁connects	-11749
▁estimate	-11750
▁examined	-11751
▁guidance	-11752
▁mentions	-11753
▁merchant	-11754
▁playable	-11755
▁reminisc	-11756
▁thirteen	-11757
▁Bracknell	-11758
▁Brazilian	-11759
▁Katherine	-11760
▁Rajamouli	-11761
▁Retrieved	-11762
▁Strapping	-11763
▁addressed	-11764
▁aftermath	-11765
▁apartment	-11766
▁attending	-11767
▁communist	-11768
▁declaring	-11769
▁exhibited	-11770
▁ministers	-11771
▁portrayal	-11772
▁preceding	-11773
▁rebellion	-11774
▁recognize	-11775
▁Ganganelli	-11776
▁Lancashire	-11777
▁Montgomery	-11778
▁adventures	-11779
▁altarpiece	-11780
▁categories	-11781
▁commentary	-11782
▁comprising	-11783
▁concerning	-11784
▁mysterious	-11785
▁perception	-11786
▁qualifying	-11787
▁reservoirs	-11788
▁speculated	-11789
▁volunteers	-11790
▁Paranthodon	-11791
▁dissipating	-11792
▁outstanding	-11793
▁subtropical	-11794
▁transformed	-11795
▁overwhelming	-11796
▁recreational	-11797
▁hygrometricus	-11798
▁interpretation	-11799
▁internationally	-11800
wa	-11801
▁Å	-11802
ema	-11803
erb	-11804
ked	-11805
pts	-11806
íaz	-11807
▁Ax	-11808
▁cu	-11809
bach	-11810
ctic	-11811
even	-11812
igon	-11813
lide	-11814
mers	-11815
olar	-11816
olph	-11817
ovac	-11818
ovil	-11819
pack	-11820
pike	-11821
quis	-11822
tery	-11823
uber	-11824
▁103	-11825
▁152	-11826
▁Bry	-11827
▁Doc	-11828
▁Kal	-11829
▁Kan	-11830
▁NEA	-11831
▁Pel	-11832
▁Pra	-11833
▁SNL	-11834
▁Sit	-11835
▁Tat	-11836
▁bin	-11837
▁cel	-11838
▁dad	-11839
▁jur	-11840
▁mos	-11841
▁pig	-11842
▁reh	-11843
aland	-11844
apter	-11845
backs	-11846
eling	-11847
entin	-11848
esque	-11849
iland	-11850
izong	-11851
odont	-11852
ommun	-11853
quest	-11854
ragon	-11855
taker	-11856
usade	-11857
▁1865	-11858
▁1882	-11859
▁1891	-11860
▁Crim	-11861
▁Dawn	-11862
▁Díaz	-11863
▁Forb	-11864
▁Gene	-11865
▁Hosp	-11866
▁Lein	-11867
▁Mail	-11868
▁Pand	-11869
▁Past	-11870
▁Rand	-11871
▁Sean	-11872
▁Spir	-11873
▁Talk	-11874
▁Wave	-11875
▁ages	-11876
▁bron	-11877
▁coat	-11878
▁debt	-11879
▁extr	-11880
▁fest	-11881
▁loop	-11882
▁nose	-11883
▁outs	-11884
▁prox	-11885
▁pulp	-11886
▁unre	-11887
apolis	-11888
atters	-11889
intage	-11890
overed	-11891
racted	-11892
tering	-11893
▁Baron	-11894
▁Based	-11895
▁Bloom	-11896
▁Cobra	-11897
▁Fifth	-11898
▁Llosa	-11899
▁Quinn	-11900
▁Start	-11901
▁angry	-11902
▁arose	-11903
▁bread	-11904
▁cakes	-11905
▁cease	-11906
▁fears	-11907
▁hosts	-11908
▁loyal	-11909
▁parad	-11910
▁paths	-11911
▁pione	-11912
▁ratio	-11913
▁repet	-11914
▁slave	-11915
▁stalk	-11916
▁zones	-11917
ipelago	-11918
istical	-11919
▁Archer	-11920
▁Artist	-11921
▁Davies	-11922
▁Fastra	-11923
▁Father	-11924
▁Gibson	-11925
▁Monten	-11926
▁Parker	-11927
▁Rafael	-11928
▁Stewie	-11929
▁Yeovil	-11930
▁advent	-11931
▁answer	-11932
▁brings	-11933
▁coffee	-11934
▁conven	-11935
▁deGrom	-11936
▁dislik	-11937
▁genres	-11938
▁hockey	-11939
▁incred	-11940
▁layers	-11941
▁lights	-11942
▁metaph	-11943
▁mounts	-11944
▁occupy	-11945
▁radius	-11946
▁statue	-11947
▁thesis	-11948
▁wished	-11949
▁wonder	-11950
lamation	-11951
▁Battery	-11952
▁Cadmium	-11953
▁Denmark	-11954
▁Jenkins	-11955
▁McLaren	-11956
▁batting	-11957
▁coaster	-11958
▁confirm	-11959
▁conform	-11960
▁emotion	-11961
▁farming	-11962
▁graphic	-11963
▁honours	-11964
▁involve	-11965
▁jumping	-11966
▁leagues	-11967
▁marched	-11968
▁organic	-11969
▁reactor	-11970
▁reverse	-11971
▁scripts	-11972
▁wanting	-11973
▁Algernon	-11974
▁Medieval	-11975
▁Sullivan	-11976
▁asserted	-11977
▁commerce	-11978
▁decrease	-11979
▁drawings	-11980
▁elevated	-11981
▁eleventh	-11982
▁ensemble	-11983
▁hampered	-11984
▁honorary	-11985
▁indirect	-11986
▁insisted	-11987
▁ordinary	-11988
▁partners	-11989
▁redesign	-11990
▁reversed	-11991
▁thoughts	-11992
▁tourists	-11993
▁transits	-11994
▁velocity	-11995
▁weakness	-11996
▁Chronicle	-11997
▁Terrorist	-11998
▁Therefore	-11999
▁alignment	-12000
▁dinosaurs	-12001
▁eliminate	-12002
▁framework	-12003
▁inhabited	-12004
▁orchestra	-12005
▁platforms	-12006
▁principle	-12007
▁realistic	-12008
▁responses	-12009
▁teachings	-12010
▁torpedoes	-12011
▁witnesses	-12012
▁Electronic	-12013
▁counteratt	-12014
▁destroying	-12015
▁impressive	-12016
▁interviews	-12017
▁invitation	-12018
▁positioned	-12019
▁protesters	-12020
▁semifinals	-12021
▁situations	-12022
▁travelling	-12023
▁unexpected	-12024
▁astronomers	-12025
▁educational	-12026
▁interviewed	-12027
▁scholarship	-12028
▁accomplished	-12029
▁acknowledged	-12030
▁commercially	-12031
▁conservative	-12032
▁instrumental	-12033
▁supernatural	-12034
▁revolutionary	-12035
▁advertisements	-12036
▁battlecruisers	-12037
40	-12038
BO	-12039
fl	-12040
gs	-12041
iè	-12042
vy	-12043
agh	-12044
arr	-12045
ele	-12046
jib	-12047
thi	-12048
uru	-12049
ādv	-12050
▁Aw	-12051
▁Pa	-12052
▁VI	-12053
▁Ve	-12054
▁Vo	-12055
▁ol	-12056
abad	-12057
hand	-12058
idia	-12059
incl	-12060
lude	-12061
mede	-12062
onso	-12063
plex	-12064
rice	-12065
uchi	-12066
ucks	-12067
ught	-12068
▁156	-12069
▁Aff	-12070
▁Chu	-12071
▁Fez	-12072
▁Maj	-12073
▁RNA	-12074
▁Ral	-12075
▁Rub	-12076
▁Rut	-12077
▁Sic	-12078
▁Tai	-12079
▁Tob	-12080
▁Wol	-12081
▁asc	-12082
▁cro	-12083
▁fab	-12084
▁fed	-12085
▁gam	-12086
angel	-12087
appen	-12088
emark	-12089
inand	-12090
othic	-12091
ratch	-12092
riors	-12093
stown	-12094
ucker	-12095
▁1862	-12096
▁1896	-12097
▁Berk	-12098
▁Boat	-12099
▁Goat	-12100
▁Hang	-12101
▁Hend	-12102
▁Maid	-12103
▁Mint	-12104
▁Pesh	-12105
▁PopM	-12106
▁Sour	-12107
▁Tang	-12108
▁Trad	-12109
▁alco	-12110
▁bath	-12111
▁boss	-12112
▁exem	-12113
▁glac	-12114
▁herb	-12115
▁judo	-12116
▁logs	-12117
▁meat	-12118
▁murd	-12119
▁outd	-12120
▁puma	-12121
▁ramp	-12122
▁riff	-12123
▁rout	-12124
▁spar	-12125
▁subd	-12126
ailing	-12127
berger	-12128
boards	-12129
bridge	-12130
castle	-12131
herent	-12132
idated	-12133
igible	-12134
issart	-12135
keeper	-12136
ompson	-12137
ostere	-12138
oulder	-12139
rosaur	-12140
umping	-12141
▁Being	-12142
▁Bobby	-12143
▁Exped	-12144
▁Gwend	-12145
▁Jamie	-12146
▁Janet	-12147
▁Peron	-12148
▁Verst	-12149
▁aided	-12150
▁annoy	-12151
▁bills	-12152
▁bonus	-12153
▁cable	-12154
▁chord	-12155
▁drugs	-12156
▁dynam	-12157
▁eagle	-12158
▁elite	-12159
▁enact	-12160
▁filed	-12161
▁fungi	-12162
▁integ	-12163
▁lacks	-12164
▁opens	-12165
▁radar	-12166
▁relax	-12167
▁satir	-12168
▁sixty	-12169
▁spell	-12170
▁troop	-12171
▁trunk	-12172
▁twins	-12173
▁uncon	-12174
▁waste	-12175
onation	-12176
▁Annals	-12177
▁Behind	-12178
▁Bruins	-12179
▁Durham	-12180
▁Exeter	-12181
▁Indies	-12182
▁Inside	-12183
▁Johann	-12184
▁Kaiman	-12185
▁Panzer	-12186
▁Puppet	-12187
▁Voyage	-12188
▁agrees	-12189
▁barrel	-12190
▁blamed	-12191
▁census	-12192
▁coined	-12193
▁corrid	-12194
▁deeply	-12195
▁deputy	-12196
▁fairly	-12197
▁feared	-12198
▁garden	-12199
▁gospel	-12200
▁handle	-12201
▁memoir	-12202
▁mutual	-12203
▁nephew	-12204
▁skelet	-12205
▁staged	-12206
▁suburb	-12207
▁switch	-12208
▁symmet	-12209
▁thrown	-12210
arnation	-12211
iousness	-12212
▁Edition	-12213
▁Freedom	-12214
▁Liberty	-12215
▁Maryang	-12216
▁Medical	-12217
▁Newport	-12218
▁Private	-12219
▁Shaolin	-12220
▁absolut	-12221
▁anthrop	-12222
▁binding	-12223
▁bombers	-12224
▁borders	-12225
▁cameras	-12226
▁centres	-12227
▁conclus	-12228
▁confron	-12229
▁console	-12230
▁debated	-12231
▁desired	-12232
▁distort	-12233
▁enthusi	-12234
▁exhibit	-12235
▁focuses	-12236
▁gallery	-12237
▁lasting	-12238
▁markets	-12239
▁painter	-12240
▁patrols	-12241
▁plumage	-12242
▁radical	-12243
▁rounded	-12244
▁sailors	-12245
▁staying	-12246
▁storage	-12247
▁studios	-12248
▁villain	-12249
▁winners	-12250
▁Intellig	-12251
▁Magdalen	-12252
▁McNichol	-12253
▁Thompson	-12254
▁Wolfpack	-12255
▁alphabet	-12256
▁belonged	-12257
▁borrowed	-12258
▁confused	-12259
▁costumes	-12260
▁elephant	-12261
▁encourag	-12262
▁enlisted	-12263
▁entirety	-12264
▁exciting	-12265
▁exterior	-12266
▁extraord	-12267
▁founding	-12268
▁frigates	-12269
▁messages	-12270
▁printing	-12271
▁spelling	-12272
▁targeted	-12273
▁unstable	-12274
▁vocalist	-12275
▁whatever	-12276
▁Aftermath	-12277
▁Artillery	-12278
▁Athletics	-12279
▁Executive	-12280
▁Ferdinand	-12281
▁Wikipedia	-12282
▁advocated	-12283
▁affecting	-12284
▁aggregate	-12285
▁athletics	-12286
▁awareness	-12287
▁campaigns	-12288
▁conceived	-12289
▁developer	-12290
▁discovers	-12291
▁efficient	-12292
▁frequency	-12293
▁gathering	-12294
▁governing	-12295
▁graduated	-12296
▁identical	-12297
▁persisted	-12298
▁proposals	-12299
▁provision	-12300
▁recruited	-12301
▁rendition	-12302
▁Amylostere	-12303
▁Verstappen	-12304
▁dispatched	-12305
▁emphasized	-12306
▁friendship	-12307
▁submarines	-12308
▁Campbeltown	-12309
▁achievement	-12310
▁declaration	-12311
▁progression	-12312
▁reminiscent	-12313
▁restaurants	-12314
▁administered	-12315
▁applications	-12316
▁commentators	-12317
▁developments	-12318
▁comprehensive	-12319
▁corresponding	-12320
▁participation	-12321
▁Administration	-12322
▁Northumberland	-12323
IV	-12324
OS	-12325
SU	-12326
iu	-12327
mo	-12328
▁Ō	-12329
▁ˈ	-12330
aux	-12331
emi	-12332
vor	-12333
▁Fu	-12334
▁Ga	-12335
▁Kr	-12336
▁MI	-12337
▁NF	-12338
ESCO	-12339
airn	-12340
cont	-12341
enne	-12342
idal	-12343
iths	-12344
lass	-12345
oons	-12346
othy	-12347
phan	-12348
quet	-12349
tzow	-12350
uble	-12351
unta	-12352
▁107	-12353
▁978	-12354
▁Any	-12355
▁ECU	-12356
▁Ech	-12357
▁Fle	-12358
▁Gao	-12359
▁ITV	-12360
▁Kur	-12361
▁Lat	-12362
▁Mak	-12363
▁Mom	-12364
▁Ori	-12365
▁Pas	-12366
▁Ran	-12367
▁SEC	-12368
▁Sag	-12369
▁Sri	-12370
▁Tag	-12371
▁Typ	-12372
▁Tzu	-12373
▁cod	-12374
▁ecl	-12375
▁lib	-12376
▁nas	-12377
▁sle	-12378
adesh	-12379
avery	-12380
avian	-12381
ayana	-12382
erves	-12383
etics	-12384
icial	-12385
igger	-12386
ighed	-12387
imity	-12388
isive	-12389
leans	-12390
lides	-12391
oderm	-12392
ushes	-12393
▁1874	-12394
▁1893	-12395
▁1899	-12396
▁Andr	-12397
▁Arik	-12398
▁Away	-12399
▁Bach	-12400
▁Buen	-12401
▁Chau	-12402
▁Clay	-12403
▁Euro	-12404
▁Guth	-12405
▁Hold	-12406
▁IAAF	-12407
▁Indu	-12408
▁Joan	-12409
▁MDOT	-12410
▁Rook	-12411
▁Ruth	-12412
▁Sche	-12413
▁Schm	-12414
▁Than	-12415
▁Timb	-12416
▁Trip	-12417
▁Trou	-12418
▁Unit	-12419
▁abst	-12420
▁bush	-12421
▁cock	-12422
▁culm	-12423
▁diff	-12424
▁dign	-12425
▁flav	-12426
▁hurd	-12427
▁marg	-12428
▁nice	-12429
▁oral	-12430
▁pose	-12431
▁sink	-12432
▁slip	-12433
▁swit	-12434
ailand	-12435
ealous	-12436
estock	-12437
itaire	-12438
rained	-12439
ulator	-12440
usader	-12441
▁Clair	-12442
▁Clear	-12443
▁Copia	-12444
▁Ellis	-12445
▁Grant	-12446
▁Hakim	-12447
▁Muham	-12448
▁Saxon	-12449
▁Sport	-12450
▁Syria	-12451
▁Twins	-12452
▁Wells	-12453
▁assum	-12454
▁blind	-12455
▁doors	-12456
▁error	-12457
▁exile	-12458
▁flown	-12459
▁foxes	-12460
▁harsh	-12461
▁hence	-12462
▁holes	-12463
▁knows	-12464
▁maneu	-12465
▁oribi	-12466
▁oxide	-12467
▁polar	-12468
▁ruins	-12469
▁scope	-12470
▁spear	-12471
changed	-12472
▁Aldean	-12473
▁Career	-12474
▁Carlos	-12475
▁Curtis	-12476
▁Dumpty	-12477
▁Former	-12478
▁Hairan	-12479
▁Ingram	-12480
▁Joshua	-12481
▁Judith	-12482
▁Lützow	-12483
▁Moritz	-12484
▁Murphy	-12485
▁Others	-12486
▁Rowley	-12487
▁Savage	-12488
▁Susque	-12489
▁UNESCO	-12490
▁affair	-12491
▁blacks	-12492
▁breeds	-12493
▁canons	-12494
▁corpor	-12495
▁debris	-12496
▁forget	-12497
▁incons	-12498
▁mining	-12499
▁mixing	-12500
▁poetic	-12501
▁rifles	-12502
▁saving	-12503
▁scores	-12504
▁stress	-12505
▁suffer	-12506
▁tennis	-12507
▁thread	-12508
acements	-12509
▁Capital	-12510
▁Classic	-12511
▁Cruiser	-12512
▁Diamond	-12513
▁Gaozong	-12514
▁Greater	-12515
▁Guthrie	-12516
▁Lithuan	-12517
▁Marshal	-12518
▁Soviets	-12519
▁Vistara	-12520
▁chances	-12521
▁connect	-12522
▁delight	-12523
▁fantasy	-12524
▁labeled	-12525
▁lessons	-12526
▁nearest	-12527
▁recount	-12528
▁refuses	-12529
▁reorgan	-12530
▁reperto	-12531
▁romance	-12532
▁samples	-12533
▁statues	-12534
▁symbols	-12535
▁totally	-12536
▁Bhairava	-12537
▁Brethren	-12538
▁Cemetery	-12539
▁Leinster	-12540
▁Napoleon	-12541
▁Security	-12542
▁abundant	-12543
▁alliance	-12544
▁armoured	-12545
▁deposits	-12546
▁disabled	-12547
▁eighteen	-12548
▁exercise	-12549
▁explored	-12550
▁focusing	-12551
▁handling	-12552
▁humanity	-12553
▁manifest	-12554
▁mistaken	-12555
▁nickname	-12556
▁overcome	-12557
▁phylogen	-12558
▁playoffs	-12559
▁princess	-12560
▁rendered	-12561
▁reporter	-12562
▁sexually	-12563
▁stingray	-12564
▁thorough	-12565
▁turbines	-12566
▁ultimate	-12567
▁woodland	-12568
▁Chanology	-12569
▁Commodore	-12570
▁Engineers	-12571
▁Northwest	-12572
▁Parachute	-12573
▁Regiments	-12574
▁Universal	-12575
▁abundance	-12576
▁arguments	-12577
▁coastline	-12578
▁contempor	-12579
▁contracts	-12580
▁disappear	-12581
▁estimates	-12582
▁explosive	-12583
▁guitarist	-12584
▁listeners	-12585
▁migration	-12586
▁naturally	-12587
▁obstacles	-12588
▁prompting	-12589
▁proximity	-12590
▁sanctuary	-12591
▁subjected	-12592
▁synthesis	-12593
▁witnessed	-12594
▁Importance	-12595
▁Industrial	-12596
▁Underneath	-12597
▁acceptance	-12598
▁attendance	-12599
▁confidence	-12600
▁decoration	-12601
▁encounters	-12602
▁explaining	-12603
▁functional	-12604
▁incomplete	-12605
▁introduces	-12606
▁suggestion	-12607
▁expeditions	-12608
▁implemented	-12609
▁intelligent	-12610
▁overwhelmed	-12611
▁reconstruct	-12612
▁descriptions	-12613
▁intervention	-12614
▁demonstration	-12615
bu	-12616
él	-12617
▁☉	-12618
ZAC	-12619
aba	-12620
aco	-12621
apy	-12622
cle	-12623
cos	-12624
cut	-12625
ece	-12626
ikh	-12627
opy	-12628
oub	-12629
rut	-12630
ugg	-12631
▁AS	-12632
▁EU	-12633
▁Ku	-12634
▁Ok	-12635
▁ST	-12636
▁kW	-12637
▁ts	-12638
acht	-12639
adir	-12640
anus	-12641
ardi	-12642
arma	-12643
assy	-12644
cock	-12645
cope	-12646
full	-12647
grid	-12648
ilyn	-12649
ithm	-12650
obee	-12651
omal	-12652
opol	-12653
orrh	-12654
oved	-12655
tona	-12656
▁104	-12657
▁Dry	-12658
▁Fal	-12659
▁Fig	-12660
▁Fil	-12661
▁Inv	-12662
▁Kaw	-12663
▁Leo	-12664
▁Mut	-12665
▁NOK	-12666
▁Oke	-12667
▁Rud	-12668
▁Sud	-12669
▁cyl	-12670
▁dug	-12671
▁ine	-12672
▁tag	-12673
▁upr	-12674
andin	-12675
asant	-12676
elope	-12677
ilogy	-12678
inich	-12679
insky	-12680
itars	-12681
music	-12682
opsis	-12683
uania	-12684
▁1859	-12685
▁1892	-12686
▁Alph	-12687
▁Anim	-12688
▁Aren	-12689
▁Call	-12690
▁Cuba	-12691
▁Deal	-12692
▁Doof	-12693
▁Flet	-12694
▁Half	-12695
▁Hand	-12696
▁Have	-12697
▁Josh	-12698
▁Kahn	-12699
▁Karl	-12700
▁Liam	-12701
▁Mets	-12702
▁Ojib	-12703
▁Rush	-12704
▁Sang	-12705
▁Suez	-12706
▁Yoko	-12707
▁boom	-12708
▁dull	-12709
▁emig	-12710
▁gram	-12711
▁hide	-12712
▁mRNA	-12713
▁maps	-12714
▁mere	-12715
▁root	-12716
▁seed	-12717
▁spor	-12718
▁tong	-12719
▁tune	-12720
alties	-12721
ingham	-12722
osomes	-12723
sville	-12724
uclear	-12725
ādvāda	-12726
▁ANZAC	-12727
▁Ansel	-12728
▁Ferry	-12729
▁Flair	-12730
▁Helen	-12731
▁Horiz	-12732
▁Jerry	-12733
▁Julio	-12734
▁Ralph	-12735
▁Robyn	-12736
▁Round	-12737
▁Urban	-12738
▁anger	-12739
▁besie	-12740
▁chann	-12741
▁cliff	-12742
▁curve	-12743
▁digit	-12744
▁dimin	-12745
▁grace	-12746
▁joins	-12747
▁kinds	-12748
▁recip	-12749
▁tales	-12750
▁wheel	-12751
echobee	-12752
inating	-12753
isphere	-12754
itional	-12755
ivorous	-12756
reation	-12757
veloped	-12758
▁Cadets	-12759
▁Cruise	-12760
▁Damage	-12761
▁Doctor	-12762
▁Easter	-12763
▁Fisher	-12764
▁Flying	-12765
▁Gerald	-12766
▁Ingrid	-12767
▁Market	-12768
▁Metall	-12769
▁Monica	-12770
▁Palmer	-12771
▁Period	-12772
▁Rapids	-12773
▁Rebbie	-12774
▁Saigon	-12775
▁Stones	-12776
▁Turkey	-12777
▁barely	-12778
▁crafts	-12779
▁detect	-12780
▁dining	-12781
▁explan	-12782
▁hiatus	-12783
▁insult	-12784
▁lesser	-12785
▁lifted	-12786
▁mammal	-12787
▁orange	-12788
▁relied	-12789
▁remake	-12790
▁seated	-12791
▁slaves	-12792
▁spoken	-12793
tymology	-12794
▁Carroll	-12795
▁Crimson	-12796
▁Domnall	-12797
▁Lorenzo	-12798
▁Marilyn	-12799
▁Notable	-12800
▁Officer	-12801
▁Orleans	-12802
▁Outside	-12803
▁Peshkin	-12804
▁Present	-12805
▁Susqueh	-12806
▁Warrior	-12807
▁ceiling	-12808
▁cooking	-12809
▁crucial	-12810
▁damages	-12811
▁dischar	-12812
▁drafted	-12813
▁electro	-12814
▁monster	-12815
▁remixes	-12816
▁streams	-12817
▁summary	-12818
foundland	-12819
▁Basement	-12820
▁Buddhist	-12821
▁Europium	-12822
▁Fountain	-12823
▁Monument	-12824
▁Observer	-12825
▁Starting	-12826
▁Thailand	-12827
▁averaged	-12828
▁deciding	-12829
▁editions	-12830
▁everyday	-12831
▁external	-12832
▁horizont	-12833
▁likewise	-12834
▁maternal	-12835
▁minerals	-12836
▁pointing	-12837
▁reflects	-12838
▁segments	-12839
▁stopping	-12840
▁Biography	-12841
▁Kaimanawa	-12842
▁Lithuania	-12843
▁associate	-12844
▁breakdown	-12845
▁competing	-12846
▁discontin	-12847
▁dispersed	-12848
▁donations	-12849
▁excellent	-12850
▁expanding	-12851
▁favourite	-12852
▁improving	-12853
▁passenger	-12854
▁persuaded	-12855
▁portraits	-12856
▁retreated	-12857
▁suspected	-12858
▁transform	-12859
▁Adventures	-12860
▁Archbishop	-12861
▁Confession	-12862
▁Constantin	-12863
▁Expedition	-12864
▁Generation	-12865
▁Okeechobee	-12866
▁challenged	-12867
▁nineteenth	-12868
▁phenomenon	-12869
▁preventing	-12870
▁principles	-12871
▁separately	-12872
▁strikeouts	-12873
▁consequence	-12874
▁distinguish	-12875
▁imagination	-12876
▁journalists	-12877
▁specialized	-12878
▁transmitted	-12879
▁Newfoundland	-12880
▁Subsequently	-12881
▁considerably	-12882
▁humanitarian	-12883
▁intersections	-12884
▁organisations	-12885
▁instrumentation	-12886
aic	-12887
aos	-12888
auc	-12889
enz	-12890
ggy	-12891
jin	-12892
run	-12893
▁Il	-12894
▁PD	-12895
▁Ta	-12896
aude	-12897
ayed	-12898
bled	-12899
bone	-12900
eria	-12901
grim	-12902
lore	-12903
mund	-12904
ogns	-12905
olly	-12906
oria	-12907
rost	-12908
ulty	-12909
▁119	-12910
▁126	-12911
▁137	-12912
▁355	-12913
▁Eps	-12914
▁Gry	-12915
▁Ket	-12916
▁Kod	-12917
▁Lim	-12918
▁ROK	-12919
▁Rey	-12920
▁Yet	-12921
▁mad	-12922
▁pir	-12923
▁toy	-12924
▁unl	-12925
about	-12926
acrit	-12927
agger	-12928
amedu	-12929
ellor	-12930
encer	-12931
enshm	-12932
icing	-12933
inter	-12934
itall	-12935
itate	-12936
nance	-12937
osely	-12938
▁1836	-12939
▁1863	-12940
▁1877	-12941
▁1888	-12942
▁Arbe	-12943
▁Boom	-12944
▁Cann	-12945
▁Emma	-12946
▁FITs	-12947
▁Gand	-12948
▁Hern	-12949
▁Hond	-12950
▁Kend	-12951
▁Pear	-12952
▁Pion	-12953
▁Pomp	-12954
▁Prim	-12955
▁Visc	-12956
▁Wang	-12957
▁Wilf	-12958
▁carn	-12959
▁clad	-12960
▁dads	-12961
▁danc	-12962
▁fing	-12963
▁hemm	-12964
▁infl	-12965
▁kiss	-12966
▁mold	-12967
▁naut	-12968
▁outp	-12969
▁peer	-12970
▁perc	-12971
▁ties	-12972
▁vent	-12973
alsock	-12974
astian	-12975
ellers	-12976
ennial	-12977
ogenic	-12978
orrhiz	-12979
points	-12980
thodox	-12981
▁Aires	-12982
▁Carty	-12983
▁Chile	-12984
▁Franz	-12985
▁Hutch	-12986
▁Manor	-12987
▁Mayor	-12988
▁Merri	-12989
▁Sarah	-12990
▁Sincl	-12991
▁Thing	-12992
▁Trade	-12993
▁Truth	-12994
▁Winds	-12995
▁Zhang	-12996
▁algor	-12997
▁annex	-12998
▁chase	-12999
▁dread	-13000
▁drink	-13001
▁drown	-13002
▁fails	-13003
▁gains	-13004
▁hopes	-13005
▁inhib	-13006
▁modes	-13007
▁probe	-13008
▁proof	-13009
▁stump	-13010
▁swept	-13011
▁tends	-13012
▁unrel	-13013
▁venom	-13014
inental	-13015
ipality	-13016
itating	-13017
rection	-13018
rescent	-13019
▁Anselm	-13020
▁Barnes	-13021
▁Beyond	-13022
▁Buenos	-13023
▁Charan	-13024
▁Comair	-13025
▁Comics	-13026
▁Delano	-13027
▁Durand	-13028
▁Escape	-13029
▁Gothic	-13030
▁Harmon	-13031
▁Morris	-13032
▁Moving	-13033
▁Shadow	-13034
▁Vishnu	-13035
▁acquis	-13036
▁breast	-13037
▁doctor	-13038
▁fights	-13039
▁fisher	-13040
▁fossil	-13041
▁hotels	-13042
▁latest	-13043
▁ornith	-13044
▁parade	-13045
▁preval	-13046
▁recapt	-13047
▁remote	-13048
▁rumors	-13049
▁salmon	-13050
▁sketch	-13051
▁throws	-13052
leroderm	-13053
otherapy	-13054
restrial	-13055
▁Barbara	-13056
▁Casting	-13057
▁Clement	-13058
▁Control	-13059
▁Mothers	-13060
▁Musical	-13061
▁Reserve	-13062
▁Scandin	-13063
▁depends	-13064
▁enzymes	-13065
▁guitars	-13066
▁harvest	-13067
▁leather	-13068
▁mammals	-13069
▁neutron	-13070
▁prolong	-13071
▁recalls	-13072
▁recruit	-13073
▁remnant	-13074
▁superst	-13075
▁thereby	-13076
▁traders	-13077
▁Chemical	-13078
▁Leonardo	-13079
▁Sinclair	-13080
▁agencies	-13081
▁articles	-13082
▁blockade	-13083
▁branches	-13084
▁canceled	-13085
▁channels	-13086
▁contrace	-13087
▁diseases	-13088
▁disorder	-13089
▁enlarged	-13090
▁infected	-13091
▁millions	-13092
▁nautical	-13093
▁profound	-13094
▁register	-13095
▁reopened	-13096
▁reserves	-13097
▁resolved	-13098
▁scenario	-13099
▁securing	-13100
▁sediment	-13101
▁skeleton	-13102
▁sometime	-13103
▁supplied	-13104
▁Arikamedu	-13105
▁Character	-13106
▁Doofenshm	-13107
▁Gwendolen	-13108
▁Hospitall	-13109
▁Indolence	-13110
▁Loyalsock	-13111
▁Nashville	-13112
▁Nicholson	-13113
▁chemistry	-13114
▁comparing	-13115
▁confident	-13116
▁demanding	-13117
▁livestock	-13118
▁mechanism	-13119
▁solitaire	-13120
▁terrorist	-13121
▁tributary	-13122
▁Historical	-13123
▁Paralympic	-13124
▁Stansfield	-13125
▁attractive	-13126
▁attributes	-13127
▁fatalities	-13128
▁repertoire	-13129
▁vulnerable	-13130
▁Confessions	-13131
▁Information	-13132
▁Observatory	-13133
▁demographic	-13134
▁descendants	-13135
▁helicopters	-13136
▁investigate	-13137
▁philosopher	-13138
▁Commandments	-13139
▁Intelligence	-13140
▁Metropolitan	-13141
▁achievements	-13142
▁downloadable	-13143
▁incorporates	-13144
▁manufacturer	-13145
▁characterised	-13146
▁contributions	-13147
▁precipitation	-13148
▁concentrations	-13149
▁correspondence	-13150
▁unsuccessfully	-13151
mi	-13152
alo	-13153
eus	-13154
fam	-13155
imp	-13156
inh	-13157
lad	-13158
lon	-13159
occ	-13160
pur	-13161
éra	-13162
▁CA	-13163
▁Gy	-13164
▁Ib	-13165
▁UC	-13166
▁Wa	-13167
▁ov	-13168
anim	-13169
aras	-13170
bard	-13171
elia	-13172
elih	-13173
enna	-13174
iker	-13175
lims	-13176
oles	-13177
riet	-13178
ritt	-13179
uits	-13180
unct	-13181
▁139	-13182
▁153	-13183
▁157	-13184
▁750	-13185
▁APF	-13186
▁Avt	-13187
▁Cul	-13188
▁Cur	-13189
▁Eno	-13190
▁Ern	-13191
▁Giã	-13192
▁Hip	-13193
▁Kra	-13194
▁Kum	-13195
▁NME	-13196
▁Nam	-13197
▁Ref	-13198
▁Sak	-13199
▁Seb	-13200
▁Tro	-13201
▁cub	-13202
▁gay	-13203
▁las	-13204
▁sor	-13205
▁tet	-13206
▁web	-13207
cedes	-13208
elfth	-13209
ettel	-13210
immer	-13211
leted	-13212
onium	-13213
plain	-13214
ppets	-13215
swick	-13216
uckle	-13217
▁1853	-13218
▁1858	-13219
▁1885	-13220
▁Appl	-13221
▁Carn	-13222
▁Carr	-13223
▁Cert	-13224
▁Feld	-13225
▁Glas	-13226
▁Hadd	-13227
▁Hoys	-13228
▁Karn	-13229
▁Khoo	-13230
▁Lars	-13231
▁Laud	-13232
▁Meth	-13233
▁Phys	-13234
▁RIAA	-13235
▁Rico	-13236
▁adds	-13237
▁beak	-13238
▁dodo	-13239
▁ease	-13240
▁epit	-13241
▁flaw	-13242
▁flee	-13243
▁hier	-13244
▁hunt	-13245
▁lion	-13246
▁ment	-13247
▁quit	-13248
▁sear	-13249
▁unem	-13250
ambers	-13251
assing	-13252
asting	-13253
ischer	-13254
levard	-13255
omanry	-13256
otilla	-13257
overty	-13258
rowing	-13259
▁Chair	-13260
▁Draft	-13261
▁Films	-13262
▁Fruit	-13263
▁GameS	-13264
▁Hamar	-13265
▁Megan	-13266
▁Micro	-13267
▁Plant	-13268
▁Randy	-13269
▁Squad	-13270
▁Tanya	-13271
▁Veeru	-13272
▁admir	-13273
▁boost	-13274
▁corps	-13275
▁dried	-13276
▁facts	-13277
▁farms	-13278
▁fever	-13279
▁incor	-13280
▁jumps	-13281
▁junta	-13282
▁megal	-13283
▁melod	-13284
▁rebel	-13285
▁snake	-13286
▁spite	-13287
▁stuff	-13288
▁worse	-13289
atorial	-13290
elihood	-13291
ocratic	-13292
osystem	-13293
prising	-13294
▁Assist	-13295
▁Bolton	-13296
▁Duarte	-13297
▁Indeed	-13298
▁Jagann	-13299
▁Mostar	-13300
▁Ojibwe	-13301
▁Ortona	-13302
▁Pokiri	-13303
▁Regard	-13304
▁Strong	-13305
▁Sussex	-13306
▁Things	-13307
▁Tucker	-13308
▁Vettel	-13309
▁Winter	-13310
▁Wonder	-13311
▁analys	-13312
▁assign	-13313
▁beside	-13314
▁cannon	-13315
▁clouds	-13316
▁comics	-13317
▁cooler	-13318
▁cruise	-13319
▁delays	-13320
▁eldest	-13321
▁errors	-13322
▁graphs	-13323
▁improv	-13324
▁merged	-13325
▁mortar	-13326
▁output	-13327
▁panels	-13328
▁strain	-13329
▁summit	-13330
▁termed	-13331
▁thanks	-13332
▁thinks	-13333
▁thirds	-13334
▁traits	-13335
▁umpire	-13336
▁versus	-13337
▁volcan	-13338
▁voyage	-13339
▁worker	-13340
stituted	-13341
▁Avtovac	-13342
▁Boulder	-13343
▁Broncos	-13344
▁Culture	-13345
▁Describ	-13346
▁Felicia	-13347
▁Finland	-13348
▁Herbert	-13349
▁Knights	-13350
▁Manager	-13351
▁Muslims	-13352
▁Playing	-13353
▁Rosberg	-13354
▁Royston	-13355
▁Support	-13356
▁Theater	-13357
▁Volunte	-13358
▁alcohol	-13359
▁amazing	-13360
▁arsenal	-13361
▁careers	-13362
▁carrier	-13363
▁degener	-13364
▁ensuing	-13365
▁formula	-13366
▁frigate	-13367
▁jealous	-13368
▁lawsuit	-13369
▁loyalty	-13370
▁observe	-13371
▁orbital	-13372
▁outcome	-13373
▁poverty	-13374
▁prosper	-13375
▁readily	-13376
▁routing	-13377
▁strange	-13378
▁striker	-13379
▁tension	-13380
▁veteran	-13381
▁weighed	-13382
▁Assyrian	-13383
▁Italians	-13384
▁Jennifer	-13385
▁Michaels	-13386
▁abnormal	-13387
▁assessed	-13388
▁charting	-13389
▁clusters	-13390
▁creature	-13391
▁damaging	-13392
▁disliked	-13393
▁dropping	-13394
▁envelope	-13395
▁floating	-13396
▁maturity	-13397
▁midfield	-13398
▁monaster	-13399
▁neutrino	-13400
▁proceeds	-13401
▁prolific	-13402
▁relating	-13403
▁relevant	-13404
▁removing	-13405
▁repaired	-13406
▁reserved	-13407
▁supports	-13408
ologically	-13409
▁Blackburn	-13410
▁Brunswick	-13411
▁Melbourne	-13412
▁Reviewers	-13413
▁Sovereign	-13414
▁acclaimed	-13415
▁ambitious	-13416
▁anonymous	-13417
▁comprises	-13418
▁conquered	-13419
▁contacted	-13420
▁exercised	-13421
▁fortified	-13422
▁incursion	-13423
▁lifestyle	-13424
▁literally	-13425
▁maintains	-13426
▁nicknamed	-13427
▁possessed	-13428
▁projected	-13429
▁provinces	-13430
▁regiments	-13431
▁requiring	-13432
▁respected	-13433
▁seventeen	-13434
▁thickness	-13435
▁unusually	-13436
▁Additional	-13437
▁Expressway	-13438
▁Indonesian	-13439
▁Laboratory	-13440
▁Scleroderm	-13441
▁commitment	-13442
▁complained	-13443
▁conducting	-13444
▁confluence	-13445
▁contracted	-13446
▁conviction	-13447
▁deployment	-13448
▁directions	-13449
▁discussing	-13450
▁identifies	-13451
▁imprisoned	-13452
▁navigation	-13453
▁reflection	-13454
▁regulation	-13455
▁victorious	-13456
▁Catholicism	-13457
▁Paralympics	-13458
▁Philippines	-13459
▁archipelago	-13460
▁celebration	-13461
▁discussions	-13462
▁dissolution	-13463
▁interrupted	-13464
▁legislature	-13465
▁photography	-13466
▁resignation	-13467
▁Consequently	-13468
▁accidentally	-13469
▁interception	-13470
▁intermediate	-13471
▁investigated	-13472
▁neighborhoods	-13473
▁strengthening	-13474
22	-13475
LC	-13476
TA	-13477
sa	-13478
abh	-13479
abs	-13480
arc	-13481
cel	-13482
edd	-13483
lio	-13484
lot	-13485
oga	-13486
rah	-13487
sky	-13488
usc	-13489
▁NP	-13490
▁Ob	-13491
▁Qi	-13492
▁es	-13493
▁fo	-13494
▁na	-13495
▁pm	-13496
▁ye	-13497
anne	-13498
beit	-13499
chan	-13500
hell	-13501
idan	-13502
imol	-13503
irtz	-13504
ndom	-13505
obon	-13506
ogle	-13507
quir	-13508
rubs	-13509
ucle	-13510
uzzi	-13511
yers	-13512
▁134	-13513
▁260	-13514
▁330	-13515
▁Ach	-13516
▁Aqu	-13517
▁Bun	-13518
▁Cot	-13519
▁Exc	-13520
▁Get	-13521
▁Hav	-13522
▁Ist	-13523
▁Kid	-13524
▁LED	-13525
▁Lyc	-13526
▁NFL	-13527
▁Ors	-13528
▁Voy	-13529
▁Wey	-13530
▁ank	-13531
▁fet	-13532
▁fib	-13533
▁gif	-13534
▁joy	-13535
▁odd	-13536
▁omn	-13537
adows	-13538
amaic	-13539
amped	-13540
anche	-13541
anyan	-13542
apper	-13543
araoh	-13544
arden	-13545
arsha	-13546
front	-13547
hears	-13548
heric	-13549
illon	-13550
ineae	-13551
ivial	-13552
onald	-13553
oresc	-13554
outed	-13555
raham	-13556
space	-13557
stick	-13558
ugged	-13559
▁1838	-13560
▁1847	-13561
▁Aden	-13562
▁Boca	-13563
▁Core	-13564
▁Cost	-13565
▁Fear	-13566
▁Fitz	-13567
▁Glen	-13568
▁Hous	-13569
▁Kras	-13570
▁Mann	-13571
▁Merc	-13572
▁Mult	-13573
▁Odys	-13574
▁Pont	-13575
▁Quar	-13576
▁Seas	-13577
▁Wemb	-13578
▁bapt	-13579
▁beta	-13580
▁bite	-13581
▁funk	-13582
▁grap	-13583
▁hate	-13584
▁judg	-13585
▁kids	-13586
▁leaf	-13587
▁lock	-13588
▁lung	-13589
▁monk	-13590
▁pest	-13591
▁pock	-13592
▁rice	-13593
▁rows	-13594
▁synd	-13595
▁tran	-13596
▁wire	-13597
acular	-13598
isting	-13599
market	-13600
▁Diego	-13601
▁Drama	-13602
▁Drive	-13603
▁Happy	-13604
▁Henri	-13605
▁Homar	-13606
▁Karam	-13607
▁Kusan	-13608
▁Lakes	-13609
▁Lands	-13610
▁Peggy	-13611
▁Perth	-13612
▁Produ	-13613
▁Stopp	-13614
▁Templ	-13615
▁Voice	-13616
▁blank	-13617
▁embry	-13618
▁fluid	-13619
▁fluor	-13620
▁inacc	-13621
▁ironc	-13622
▁melan	-13623
▁optim	-13624
▁parks	-13625
▁progn	-13626
▁raids	-13627
▁rises	-13628
▁sperm	-13629
▁stiff	-13630
▁swing	-13631
▁toxic	-13632
▁unpop	-13633
▁width	-13634
▁worsh	-13635
▁wreck	-13636
acritic	-13637
angered	-13638
aughter	-13639
ighting	-13640
rington	-13641
rolling	-13642
▁Albion	-13643
▁Antiqu	-13644
▁Austin	-13645
▁Chopin	-13646
▁Female	-13647
▁Fourth	-13648
▁Galile	-13649
▁Hispan	-13650
▁Hunter	-13651
▁Lauren	-13652
▁Munich	-13653
▁Nature	-13654
▁Oliver	-13655
▁Olivia	-13656
▁Pierre	-13657
▁Prepar	-13658
▁Visual	-13659
▁Wanyan	-13660
▁Warsaw	-13661
▁accord	-13662
▁admits	-13663
▁albeit	-13664
▁allies	-13665
▁bronze	-13666
▁dimens	-13667
▁easier	-13668
▁enable	-13669
▁frames	-13670
▁graves	-13671
▁hairst	-13672
▁harbor	-13673
▁honest	-13674
▁infilt	-13675
▁metals	-13676
▁nuclei	-13677
▁proced	-13678
▁random	-13679
▁shoots	-13680
▁stanza	-13681
▁suspic	-13682
▁tactic	-13683
▁terror	-13684
▁traces	-13685
lessness	-13686
▁Borough	-13687
▁Chamber	-13688
▁Chapman	-13689
▁Chauvel	-13690
▁Colonna	-13691
▁Ferrari	-13692
▁Fiction	-13693
▁Fischer	-13694
▁Holland	-13695
▁Hungary	-13696
▁Indians	-13697
▁Wembley	-13698
▁Written	-13699
▁acquire	-13700
▁assured	-13701
▁belongs	-13702
▁chancel	-13703
▁colored	-13704
▁elderly	-13705
▁equally	-13706
▁expense	-13707
▁forever	-13708
▁lighter	-13709
▁mistake	-13710
▁remixed	-13711
▁sailing	-13712
▁shelter	-13713
▁sinking	-13714
▁spawned	-13715
▁spelled	-13716
▁steambo	-13717
▁suspect	-13718
▁synonym	-13719
▁theolog	-13720
▁theoret	-13721
▁typhoon	-13722
▁variant	-13723
▁visitor	-13724
▁warrant	-13725
▁welcome	-13726
imination	-13727
▁Airlines	-13728
▁Arbeider	-13729
▁Brothers	-13730
▁Hereford	-13731
▁Kentucky	-13732
▁Kusanagi	-13733
▁Mortimer	-13734
▁Muhammad	-13735
▁Pleasure	-13736
▁Symphony	-13737
▁actively	-13738
▁barracks	-13739
▁cellular	-13740
▁clearing	-13741
▁eastward	-13742
▁educated	-13743
▁evacuate	-13744
▁patients	-13745
▁quarters	-13746
▁swimming	-13747
▁tactical	-13748
▁theories	-13749
▁tracking	-13750
▁troubles	-13751
▁unemploy	-13752
▁warships	-13753
▁Brigadier	-13754
▁Broadcast	-13755
▁Destroyer	-13756
▁Offensive	-13757
▁Patriarch	-13758
▁Surrender	-13759
▁affection	-13760
▁captivity	-13761
▁carriages	-13762
▁collision	-13763
▁colonists	-13764
▁concludes	-13765
▁ecosystem	-13766
▁inconsist	-13767
▁inflicted	-13768
▁instances	-13769
▁neglected	-13770
▁reasoning	-13771
▁relocated	-13772
▁telephone	-13773
▁trademark	-13774
▁undertook	-13775
▁Lithuanian	-13776
▁Merrifield	-13777
▁amphibious	-13778
▁competitor	-13779
▁evacuation	-13780
▁formations	-13781
▁graduating	-13782
▁highlights	-13783
▁luminosity	-13784
▁physically	-13785
▁provisions	-13786
▁remembered	-13787
▁screenplay	-13788
▁separation	-13789
▁substances	-13790
▁Susquehanna	-13791
▁Yellowstone	-13792
▁anticipated	-13793
▁coordinated	-13794
▁dimensional	-13795
▁jackrabbits	-13796
▁multiplayer	-13797
▁prosecution	-13798
▁sympathetic	-13799
▁threatening	-13800
▁topological	-13801
▁civilization	-13802
▁disappointed	-13803
▁imprisonment	-13804
▁manufactured	-13805
▁preparations	-13806
▁protagonists	-13807
▁Doofenshmirtz	-13808
▁Revolutionary	-13809
▁extraordinary	-13810
▁participating	-13811
▁substantially	-13812
▁traditionally	-13813
35	-13814
Cl	-13815
Eu	-13816
MC	-13817
da	-13818
zt	-13819
ál	-13820
és	-13821
▁‘	-13822
gow	-13823
hin	-13824
ika	-13825
kii	-13826
mal	-13827
nas	-13828
pow	-13829
rus	-13830
uku	-13831
▁DJ	-13832
▁VH	-13833
acco	-13834
acea	-13835
ajal	-13836
arta	-13837
asma	-13838
atts	-13839
elta	-13840
ensa	-13841
flow	-13842
holm	-13843
iens	-13844
inqu	-13845
leys	-13846
omon	-13847
phae	-13848
rink	-13849
roft	-13850
usil	-13851
utor	-13852
▁133	-13853
▁158	-13854
▁159	-13855
▁CAT	-13856
▁Chi	-13857
▁Cou	-13858
▁Ent	-13859
▁Env	-13860
▁Fab	-13861
▁Gor	-13862
▁Gru	-13863
▁Hew	-13864
▁Jai	-13865
▁Kab	-13866
▁Kap	-13867
▁Led	-13868
▁MCC	-13869
▁Pap	-13870
▁RAR	-13871
▁Sym	-13872
▁Toy	-13873
▁Zap	-13874
▁Zrí	-13875
▁cad	-13876
▁euk	-13877
▁guy	-13878
▁haz	-13879
▁jam	-13880
▁jav	-13881
▁lev	-13882
▁vow	-13883
Shara	-13884
aning	-13885
areth	-13886
asury	-13887
atisf	-13888
attan	-13889
cairn	-13890
dings	-13891
ectic	-13892
ettes	-13893
geant	-13894
iants	-13895
iffer	-13896
iolet	-13897
iture	-13898
odied	-13899
offic	-13900
olulu	-13901
ppers	-13902
raine	-13903
ringe	-13904
stock	-13905
tures	-13906
ucaly	-13907
▁1837	-13908
▁1876	-13909
▁1883	-13910
▁Aval	-13911
▁Beer	-13912
▁Bore	-13913
▁Ches	-13914
▁Dahl	-13915
▁Doll	-13916
▁Folk	-13917
▁Iber	-13918
▁LiSA	-13919
▁Llan	-13920
▁Mits	-13921
▁Mott	-13922
▁Pend	-13923
▁Pozz	-13924
▁Roll	-13925
▁Stay	-13926
▁Sylv	-13927
▁Vers	-13928
▁buck	-13929
▁buff	-13930
▁calm	-13931
▁furn	-13932
▁gate	-13933
▁haun	-13934
▁hurt	-13935
▁keen	-13936
▁kidn	-13937
▁mast	-13938
▁nons	-13939
▁sank	-13940
▁seam	-13941
▁silk	-13942
▁upgr	-13943
▁wart	-13944
▁zero	-13945
agonal	-13946
aneous	-13947
gosaur	-13948
lessly	-13949
llotal	-13950
luding	-13951
otypes	-13952
resses	-13953
rypton	-13954
terfly	-13955
▁Apost	-13956
▁Astra	-13957
▁Babyl	-13958
▁Belie	-13959
▁Camer	-13960
▁Essex	-13961
▁Flash	-13962
▁Josce	-13963
▁Large	-13964
▁Males	-13965
▁Munic	-13966
▁Price	-13967
▁Raton	-13968
▁Solid	-13969
▁Susan	-13970
▁blame	-13971
▁brood	-13972
▁conif	-13973
▁cruzi	-13974
▁drunk	-13975
▁eaten	-13976
▁empty	-13977
▁filmm	-13978
▁ghost	-13979
▁gills	-13980
▁irrig	-13981
▁lakes	-13982
▁loose	-13983
▁mason	-13984
▁moons	-13985
▁navig	-13986
▁opted	-13987
▁punct	-13988
▁quake	-13989
▁rocky	-13990
▁shock	-13991
▁solve	-13992
▁spark	-13993
▁tough	-13994
▁truck	-13995
▁widow	-13996
ctioned	-13997
limited	-13998
versely	-13999
▁Browns	-14000
▁Candid	-14001
▁Capcom	-14002
▁Colony	-14003
▁Connie	-14004
▁Crowns	-14005
▁GameSp	-14006
▁Gandhi	-14007
▁Greece	-14008
▁Harsha	-14009
▁Huguen	-14010
▁Marcus	-14011
▁Medway	-14012
▁Moment	-14013
▁Nation	-14014
▁Newark	-14015
▁Number	-14016
▁Plensa	-14017
▁Powers	-14018
▁Thames	-14019
▁Trials	-14020
▁Vaishn	-14021
▁Zrínyi	-14022
▁archer	-14023
▁climax	-14024
▁compat	-14025
▁crimes	-14026
▁encomp	-14027
▁ensued	-14028
▁judged	-14029
▁marble	-14030
▁mating	-14031
▁palace	-14032
▁peckii	-14033
▁quadru	-14034
▁reluct	-14035
▁rework	-14036
▁rubble	-14037
▁scales	-14038
▁silent	-14039
▁stroke	-14040
▁tackle	-14041
▁turret	-14042
ellation	-14043
ickenham	-14044
obonelli	-14045
▁Abraham	-14046
▁Aramaic	-14047
▁Chapter	-14048
▁Cooksey	-14049
▁Crystal	-14050
▁Feldman	-14051
▁Glasgow	-14052
▁Jeffrey	-14053
▁Lowland	-14054
▁Mitsuda	-14055
▁Notting	-14056
▁Pradesh	-14057
▁Saginaw	-14058
▁Viaduct	-14059
▁aggress	-14060
▁bishops	-14061
▁bowlers	-14062
▁dissent	-14063
▁drummer	-14064
▁endemic	-14065
▁enhance	-14066
▁fission	-14067
▁gardens	-14068
▁grammar	-14069
▁issuing	-14070
▁lowered	-14071
▁masters	-14072
▁museums	-14073
▁nursery	-14074
▁overlap	-14075
▁parking	-14076
▁rehabil	-14077
▁revenge	-14078
▁ridicul	-14079
▁statute	-14080
▁swallow	-14081
▁teaches	-14082
▁tourism	-14083
▁viewing	-14084
aceratops	-14085
▁Adriatic	-14086
▁Americas	-14087
▁Chairman	-14088
▁Commando	-14089
▁Dinosaur	-14090
▁Fantuzzi	-14091
▁Fletcher	-14092
▁Literary	-14093
▁Pitcairn	-14094
▁Savannah	-14095
▁Stoppani	-14096
▁Viscount	-14097
▁Wildlife	-14098
▁Yugoslav	-14099
▁adequate	-14100
▁analyzed	-14101
▁basement	-14102
▁coloured	-14103
▁comedian	-14104
▁compiled	-14105
▁conquest	-14106
▁dressing	-14107
▁frontier	-14108
▁grandson	-14109
▁internet	-14110
▁kingship	-14111
▁occupies	-14112
▁oriented	-14113
▁peaceful	-14114
▁predator	-14115
▁prisoner	-14116
▁regained	-14117
▁survives	-14118
▁terrible	-14119
▁violacea	-14120
▁wildlife	-14121
▁Catherine	-14122
▁Friedrich	-14123
▁Jagannadh	-14124
▁Labyrinth	-14125
▁Microsoft	-14126
▁Newcastle	-14127
▁Sometimes	-14128
▁averaging	-14129
▁celebrity	-14130
▁decreased	-14131
▁delegates	-14132
▁discusses	-14133
▁disturbed	-14134
▁hadrosaur	-14135
▁incorrect	-14136
▁inscribed	-14137
▁introduce	-14138
▁parasites	-14139
▁poisoning	-14140
▁practical	-14141
▁prototype	-14142
▁reprinted	-14143
▁signature	-14144
▁specially	-14145
▁villagers	-14146
▁volunteer	-14147
▁Metacritic	-14148
▁Pittsburgh	-14149
▁Publishing	-14150
▁accessible	-14151
▁aerodromes	-14152
▁collecting	-14153
▁comparable	-14154
▁conception	-14155
▁definitely	-14156
▁explicitly	-14157
▁innovative	-14158
▁percussion	-14159
▁reassigned	-14160
▁Nonetheless	-14161
▁adaptations	-14162
▁possessions	-14163
▁songwriting	-14164
▁Pozzobonelli	-14165
▁associations	-14166
▁chemotherapy	-14167
▁congregation	-14168
▁consequences	-14169
▁discontinued	-14170
▁entertaining	-14171
▁expectations	-14172
▁northwestern	-14173
▁predecessors	-14174
▁southwestern	-14175
▁Constantinople	-14176
▁contemporaries	-14177
▁fortifications	-14178
HA	-14179
oi	-14180
▁*	-14181
▁~	-14182
Far	-14183
aca	-14184
agg	-14185
ahl	-14186
asp	-14187
avi	-14188
bee	-14189
dam	-14190
iat	-14191
ibe	-14192
igo	-14193
iki	-14194
the	-14195
vig	-14196
▁GP	-14197
▁JT	-14198
▁Mā	-14199
▁Uí	-14200
▁ma	-14201
ampa	-14202
atab	-14203
hent	-14204
leki	-14205
lett	-14206
oeuv	-14207
oina	-14208
olet	-14209
olor	-14210
ović	-14211
ribe	-14212
rove	-14213
ulum	-14214
uman	-14215
very	-14216
▁138	-14217
▁217	-14218
▁243	-14219
▁550	-14220
▁878	-14221
▁AOC	-14222
▁Ely	-14223
▁Ess	-14224
▁Fac	-14225
▁Gem	-14226
▁Hus	-14227
▁Lal	-14228
▁Meg	-14229
▁Nek	-14230
▁Ono	-14231
▁Ras	-14232
▁Raw	-14233
▁Thi	-14234
▁Thr	-14235
▁Vij	-14236
▁WCW	-14237
▁Why	-14238
▁Wor	-14239
▁cov	-14240
▁cow	-14241
▁lod	-14242
▁lun	-14243
▁ode	-14244
▁pad	-14245
▁sid	-14246
▁unh	-14247
agram	-14248
anner	-14249
aples	-14250
hurst	-14251
isham	-14252
lesey	-14253
ogram	-14254
opard	-14255
orian	-14256
ostic	-14257
otion	-14258
ouver	-14259
stage	-14260
stall	-14261
▁1852	-14262
▁1866	-14263
▁1872	-14264
▁Berm	-14265
▁Cott	-14266
▁Drum	-14267
▁Fine	-14268
▁Grey	-14269
▁Hast	-14270
▁Idol	-14271
▁Iran	-14272
▁Jill	-14273
▁Luis	-14274
▁Madh	-14275
▁McLu	-14276
▁Mess	-14277
▁Numb	-14278
▁Shan	-14279
▁agar	-14280
▁bark	-14281
▁bunk	-14282
▁buoy	-14283
▁chef	-14284
▁demo	-14285
▁dent	-14286
▁dish	-14287
▁empl	-14288
▁fees	-14289
▁gamb	-14290
▁grid	-14291
▁hack	-14292
▁hell	-14293
▁incl	-14294
▁joke	-14295
▁mail	-14296
▁pier	-14297
▁salt	-14298
▁stir	-14299
▁syll	-14300
▁taxi	-14301
▁tiny	-14302
▁tool	-14303
▁tube	-14304
▁unve	-14305
▁user	-14306
▁vass	-14307
actory	-14308
antine	-14309
aphore	-14310
iating	-14311
icular	-14312
master	-14313
▁Bened	-14314
▁Byron	-14315
▁Chanc	-14316
▁Chenn	-14317
▁Chess	-14318
▁Eddie	-14319
▁Epsom	-14320
▁Franç	-14321
▁Hindi	-14322
▁Hương	-14323
▁Māori	-14324
▁Polyt	-14325
▁Robin	-14326
▁Siber	-14327
▁Sidon	-14328
▁Tests	-14329
▁Uleki	-14330
▁Whole	-14331
▁antib	-14332
▁cameo	-14333
▁cater	-14334
▁chlor	-14335
▁dolls	-14336
▁galax	-14337
▁hyper	-14338
▁invis	-14339
▁juris	-14340
▁knock	-14341
▁lambe	-14342
▁nests	-14343
▁papal	-14344
▁patch	-14345
▁prose	-14346
▁proud	-14347
▁seize	-14348
▁sheet	-14349
▁shoes	-14350
▁slope	-14351
▁stair	-14352
▁telev	-14353
▁topic	-14354
▁unity	-14355
acharya	-14356
astered	-14357
diction	-14358
ropolis	-14359
▁Adrian	-14360
▁Azores	-14361
▁Braves	-14362
▁Campus	-14363
▁Cecily	-14364
▁Dreams	-14365
▁Eguchi	-14366
▁Foster	-14367
▁Harvey	-14368
▁Mobile	-14369
▁Nomura	-14370
▁Ranger	-14371
▁Rovers	-14372
▁Senior	-14373
▁Steven	-14374
▁Stokes	-14375
▁Triple	-14376
▁Wednes	-14377
▁apolog	-14378
▁assume	-14379
▁bacter	-14380
▁barons	-14381
▁binary	-14382
▁brutal	-14383
▁copper	-14384
▁corpse	-14385
▁decent	-14386
▁domain	-14387
▁exempl	-14388
▁fierce	-14389
▁gaming	-14390
▁honors	-14391
▁hyphae	-14392
▁leaked	-14393
▁loaded	-14394
▁median	-14395
▁perpet	-14396
▁phases	-14397
▁plates	-14398
▁satire	-14399
▁sitcom	-14400
▁suited	-14401
▁topics	-14402
▁trucks	-14403
▁unanim	-14404
iability	-14405
tershire	-14406
usiliers	-14407
▁Chester	-14408
▁Domoina	-14409
▁Evening	-14410
▁Individ	-14411
▁Lebanon	-14412
▁Located	-14413
▁Palmyra	-14414
▁Pioneer	-14415
▁angered	-14416
▁apprent	-14417
▁beaches	-14418
▁beneath	-14419
▁boilers	-14420
▁borough	-14421
▁coupled	-14422
▁drought	-14423
▁editors	-14424
▁ensured	-14425
▁escapes	-14426
▁excited	-14427
▁faculty	-14428
▁farther	-14429
▁favored	-14430
▁genuine	-14431
▁hanging	-14432
▁hurdles	-14433
▁loading	-14434
▁manages	-14435
▁manoeuv	-14436
▁nesting	-14437
▁plateau	-14438
▁pleased	-14439
▁privile	-14440
▁puppets	-14441
▁rivalry	-14442
▁shipped	-14443
▁slavery	-14444
▁stretch	-14445
▁unaware	-14446
▁warrior	-14447
inguished	-14448
ographies	-14449
▁Allmusic	-14450
▁Anglesey	-14451
▁Brighton	-14452
▁Bulgaria	-14453
▁Complete	-14454
▁Electric	-14455
▁Hibiscus	-14456
▁Malaysia	-14457
▁Rhodesia	-14458
▁Sciences	-14459
▁Services	-14460
▁Yeomanry	-14461
▁authored	-14462
▁biblical	-14463
▁contempl	-14464
▁corridor	-14465
▁cultures	-14466
▁darkness	-14467
▁disputes	-14468
▁engaging	-14469
▁excluded	-14470
▁imported	-14471
▁inferior	-14472
▁informal	-14473
▁innocent	-14474
▁managing	-14475
▁metallic	-14476
▁murdered	-14477
▁reagents	-14478
▁shelters	-14479
▁software	-14480
▁speakers	-14481
▁spectrum	-14482
▁symbolic	-14483
▁theaters	-14484
▁websites	-14485
▁Metallica	-14486
▁Personnel	-14487
▁Robertson	-14488
▁Timbaland	-14489
▁abolished	-14490
▁activated	-14491
▁afterward	-14492
▁composers	-14493
▁consensus	-14494
▁contested	-14495
▁cytoplasm	-14496
▁descended	-14497
▁disagreed	-14498
▁diversity	-14499
▁encourage	-14500
▁expecting	-14501
▁incidents	-14502
▁investors	-14503
▁listening	-14504
▁numbering	-14505
▁privately	-14506
▁pseudonym	-14507
▁sovereign	-14508
▁supporter	-14509
▁temperate	-14510
▁tolerance	-14511
▁undergrad	-14512
▁varieties	-14513
▁Commercial	-14514
▁Convention	-14515
▁Hindenburg	-14516
▁Recreation	-14517
▁Townsville	-14518
▁Twickenham	-14519
▁advantages	-14520
▁advisories	-14521
▁altogether	-14522
▁attraction	-14523
▁barometric	-14524
▁ceremonial	-14525
▁circulated	-14526
▁collective	-14527
▁commanding	-14528
▁compromise	-14529
▁contribute	-14530
▁depictions	-14531
▁discipline	-14532
▁frustrated	-14533
▁proclaimed	-14534
▁surprising	-14535
▁Confederate	-14536
▁Engineering	-14537
▁Springfield	-14538
▁competitors	-14539
▁controlling	-14540
▁countryside	-14541
▁experiments	-14542
▁financially	-14543
▁manufacture	-14544
▁overlooking	-14545
▁sponsorship	-14546
▁Distribution	-14547
▁astronomical	-14548
▁collectively	-14549
▁denomination	-14550
▁individually	-14551
▁consciousness	-14552
▁illustrations	-14553
▁manufacturers	-14554
▁northwestward	-14555
▁identification	-14556
▁accomplishments	-14557
GA	-14558
WA	-14559
WC	-14560
xd	-14561
▁⁄	-14562
ahu	-14563
bec	-14564
ebe	-14565
esy	-14566
eux	-14567
haw	-14568
idy	-14569
iya	-14570
mus	-14571
nis	-14572
onz	-14573
oos	-14574
tef	-14575
vet	-14576
zog	-14577
▁PS	-14578
▁RP	-14579
▁SF	-14580
▁Yu	-14581
▁iT	-14582
Conn	-14583
Down	-14584
akur	-14585
amas	-14586
ambu	-14587
auge	-14588
cach	-14589
cade	-14590
chel	-14591
dish	-14592
eing	-14593
ello	-14594
elsk	-14595
erne	-14596
etta	-14597
held	-14598
huve	-14599
ivor	-14600
lesi	-14601
neum	-14602
ourt	-14603
pect	-14604
ptic	-14605
tebr	-14606
uffs	-14607
wild	-14608
zens	-14609
ński	-14610
▁145	-14611
▁370	-14612
▁Ahk	-14613
▁CAA	-14614
▁Fly	-14615
▁Haz	-14616
▁Hil	-14617
▁Isa	-14618
▁Jas	-14619
▁Kem	-14620
▁Ltd	-14621
▁Net	-14622
▁Nig	-14623
▁Pad	-14624
▁Put	-14625
▁RAF	-14626
▁Rou	-14627
▁Sad	-14628
▁Saw	-14629
▁Sep	-14630
▁Tud	-14631
▁WWE	-14632
▁Wid	-14633
▁XeF	-14634
▁bot	-14635
▁bub	-14636
▁maj	-14637
▁ost	-14638
▁vin	-14639
amoto	-14640
amous	-14641
archy	-14642
arten	-14643
asket	-14644
asses	-14645
enary	-14646
erner	-14647
etary	-14648
inely	-14649
orsal	-14650
owned	-14651
woman	-14652
▁1820	-14653
▁1842	-14654
▁1855	-14655
▁1886	-14656
▁ARIA	-14657
▁Agre	-14658
▁Alam	-14659
▁Amun	-14660
▁Arms	-14661
▁Belf	-14662
▁Buch	-14663
▁Coal	-14664
▁Coss	-14665
▁Cove	-14666
▁Isla	-14667
▁JTWC	-14668
▁Kaly	-14669
▁Laur	-14670
▁Loft	-14671
▁Meri	-14672
▁Must	-14673
▁Plum	-14674
▁Rear	-14675
▁Resp	-14676
▁Salv	-14677
▁Samp	-14678
▁Vick	-14679
▁adul	-14680
▁cure	-14681
▁dogs	-14682
▁font	-14683
▁golf	-14684
▁idol	-14685
▁inex	-14686
▁loot	-14687
▁obso	-14688
▁perf	-14689
▁plac	-14690
▁shed	-14691
▁stip	-14692
▁toss	-14693
▁touc	-14694
▁trap	-14695
▁ware	-14696
▁whit	-14697
abling	-14698
ainted	-14699
eworth	-14700
huveer	-14701
idency	-14702
itects	-14703
izards	-14704
mented	-14705
opping	-14706
ourage	-14707
strong	-14708
terson	-14709
ulsion	-14710
usions	-14711
yclone	-14712
▁Armed	-14713
▁Aside	-14714
▁Blake	-14715
▁Breed	-14716
▁Cinem	-14717
▁Colin	-14718
▁Crist	-14719
▁Delhi	-14720
▁Faith	-14721
▁Flood	-14722
▁Fulbe	-14723
▁Guang	-14724
▁Hardy	-14725
▁Huron	-14726
▁Inari	-14727
▁Kashi	-14728
▁Lions	-14729
▁Mason	-14730
▁Massa	-14731
▁Nancy	-14732
▁Nobel	-14733
▁Norse	-14734
▁Novak	-14735
▁Peace	-14736
▁Ports	-14737
▁Pruss	-14738
▁Rifle	-14739
▁Rough	-14740
▁Smack	-14741
▁Solar	-14742
▁Store	-14743
▁Tamil	-14744
▁Wayne	-14745
▁Woods	-14746
▁Wyatt	-14747
▁aging	-14748
▁arist	-14749
▁atoms	-14750
▁blues	-14751
▁cream	-14752
▁eager	-14753
▁flatt	-14754
▁flour	-14755
▁fores	-14756
▁fract	-14757
▁horns	-14758
▁medic	-14759
▁merge	-14760
▁meter	-14761
▁mould	-14762
▁mound	-14763
▁myths	-14764
▁owing	-14765
▁pagan	-14766
▁paved	-14767
▁photo	-14768
▁postp	-14769
▁reinc	-14770
▁revel	-14771
▁rings	-14772
▁riots	-14773
▁roofs	-14774
▁spans	-14775
▁spont	-14776
▁theor	-14777
▁tides	-14778
▁tract	-14779
▁trips	-14780
▁wheat	-14781
▁whist	-14782
astical	-14783
chestra	-14784
ificate	-14785
instein	-14786
marcach	-14787
ulators	-14788
▁Always	-14789
▁Bruges	-14790
▁Choice	-14791
▁Cobain	-14792
▁Disapp	-14793
▁Disney	-14794
▁Edmund	-14795
▁Legisl	-14796
▁Ludlow	-14797
▁Memory	-14798
▁Ostend	-14799
▁Plains	-14800
▁Region	-14801
▁Rowson	-14802
▁Thakur	-14803
▁Weyden	-14804
▁absent	-14805
▁afraid	-14806
▁airing	-14807
▁breath	-14808
▁cement	-14809
▁consec	-14810
▁crimin	-14811
▁curren	-14812
▁darker	-14813
▁embarr	-14814
▁eukary	-14815
▁facade	-14816
▁flower	-14817
▁freely	-14818
▁heaven	-14819
▁incumb	-14820
▁intrig	-14821
▁layout	-14822
▁medley	-14823
▁notion	-14824
▁orient	-14825
▁papers	-14826
▁parrot	-14827
▁plasma	-14828
▁prices	-14829
▁resort	-14830
▁ruined	-14831
▁scream	-14832
▁slated	-14833
▁stored	-14834
▁submer	-14835
▁tongue	-14836
▁transm	-14837
▁united	-14838
▁virtue	-14839
historic	-14840
igations	-14841
roscopic	-14842
▁Bridges	-14843
▁Cavalry	-14844
▁McLuhan	-14845
▁Origins	-14846
▁Proctor	-14847
▁Singing	-14848
▁Various	-14849
▁Voyager	-14850
▁Winston	-14851
▁Working	-14852
▁circles	-14853
▁convert	-14854
▁couples	-14855
▁courage	-14856
▁crowned	-14857
▁dancers	-14858
▁devices	-14859
▁dresses	-14860
▁estates	-14861
▁estuary	-14862
▁faction	-14863
▁fingers	-14864
▁fortune	-14865
▁fossils	-14866
▁javelin	-14867
▁kitchen	-14868
▁mansion	-14869
▁militia	-14870
▁notices	-14871
▁precise	-14872
▁publish	-14873
▁realize	-14874
▁stained	-14875
▁stepped	-14876
▁sulfide	-14877
▁tackles	-14878
▁treason	-14879
▁triumph	-14880
▁varying	-14881
▁vintage	-14882
unciation	-14883
▁Agricult	-14884
▁Airborne	-14885
▁Antilles	-14886
[...]
